<s>
<\s>
<unk>
<sep>
<mask>
<cls>
<unused0>
<unused1>
<unused2>
<unused3>
<unused4>
<unused5>
<unused6>
<unused7>
<unused8>
<unused9>
<unused10>
<unused11>
<unused12>
<unused13>
<unused14>
<unused15>
<unused16>
<unused17>
<unused18>
<unused19>
<unused20>
<unused21>
<unused22>
<unused23>
<unused24>
<unused25>
<unused26>
<unused27>
<unused28>
<unused29>
<unused30>
!
"
#
$
%
&
'
(
)
*
+
,
-
.
/
0
1
2
3
4
5
6
7
8
9
:
;
<
=
>
?
@
A
B
C
D
E
F
G
H
I
J
K
L
M
N
O
P
Q
R
S
T
U
V
W
X
Y
Z
[
\
]
^
_
`
a
b
c
d
e
f
g
h
i
j
k
l
m
n
o
p
q
r
s
t
u
v
w
x
y
z
{
|
}
~
¡
¢
£
¤
¥
¦
§
¨
©
ª
«
¬
®
¯
°
±
²
³
´
µ
¶
·
¸
¹
º
»
¼
½
¾
¿
À
Á
Â
Ã
Ä
Å
Æ
Ç
È
É
Ê
Ë
Ì
Í
Î
Ï
Ð
Ñ
Ò
Ó
Ô
Õ
Ö
×
Ø
Ù
Ú
Û
Ü
Ý
Þ
ß
à
á
â
ã
ä
å
æ
ç
è
é
ê
ë
ì
í
î
ï
ð
ñ
ò
ó
ô
õ
ö
÷
ø
ù
ú
û
ü
ý
þ
ÿ
Ā
ā
Ă
ă
ą
Ć
ć
Ĉ
ĉ
Č
č
Ď
Đ
đ
Ē
ē
ĕ
ė
ę
ě
ĝ
Ğ
ğ
ģ
Ħ
ħ
ĩ
Ī
ī
Ĭ
ĭ
İ
ı
ĵ
Ķ
ķ
ĸ
Ĺ
ĺ
Ľ
ľ
Ŀ
Ł
ł
ń
Ņ
ņ
ň
ŉ
ŋ
Ō
ō
Ŏ
ŏ
Ő
ő
Œ
œ
Ŗ
ŗ
Ř
ř
Ś
ś
ŝ
Ş
ş
Š
š
Ţ
ţ
ť
Ũ
ũ
ū
ŭ
ů
Ű
ű
ŷ
Ÿ
ź
Ż
ż
Ž
ž
ƈ
ƍ
Ə
Ɛ
ƒ
Ɩ
ƚ
ƛ
ƞ
ơ
ƥ
ƪ
Ʈ
Ư
ư
Ƶ
Ʒ
Ƹ
ǁ
ǂ
ǃ
ǈ
ǉ
ǎ
ǐ
ǒ
ǔ
ǚ
Ǜ
ǜ
ǝ
ǟ
ǫ
Ǯ
ǯ
ǲ
Ǹ
Ǻ
ǽ
Ǿ
Ȃ
Ȇ
ȉ
Ȋ
Ȍ
ȏ
Ș
ș
Ț
ȟ
ȣ
ȥ
ȷ
Ɂ
ɐ
ɑ
ɒ
ɔ
ɕ
ɖ
ə
ɚ
ɛ
ɜ
ɞ
ɟ
ɡ
ɢ
ɣ
ɤ
ɥ
ɨ
ɪ
ɫ
ɬ
ɮ
ɯ
ɰ
ɲ
ɳ
ɴ
ɵ
ɷ
ɸ
ɹ
ɾ
ɿ
ʀ
ʁ
ʂ
ʃ
ʅ
ʈ
ʊ
ʋ
ʌ
ʎ
ʏ
ʐ
ʑ
ʒ
ʓ
ʔ
ʕ
ʖ
ʘ
ʙ
ʚ
ʜ
ʝ
ʟ
ʡ
ʢ
ʣ
ʤ
ʥ
ʦ
ʧ
ʨ
ʰ
ʱ
ʲ
ʳ
ʶ
ʷ
ʸ
ʹ
ʺ
ʻ
ʼ
ʾ
ʿ
ˀ
ˁ
˂
˃
˄
ˆ
ˇ
ˈ
ˉ
ˊ
ˋ
ˌ
ˍ
ˎ
ˏ
ː
ˑ
˒
˓
˔
˕
˖
˗
˘
˙
˚
˛
˜
˝
˞
˟
ˡ
ˢ
ˣ
ˤ
˪
ˬ
˭
ˮ
˳
˴
˵
˶
˷
˹
˼
˽
̀
́
̂
̃
̄
̅
̆
̇
̈
̉
̊
̋
̌
̍
̎
̐
̑
̒
̓
̖
̗
̚
̛
̜
̝
̞
̠
̡
̢
̣
̤
̥
̦
̧
̨
̩
̪
̫
̬
̭
̮
̯
̱
̲
̳
̴
̵
̶
̷
̸
̻
̼
̽
̾
̿
͂
͈
͌
͍
͐
͑
͒
͓
͖
͗
͘
͙
͚
͛
͜
͝
͞
͟
͠
͡
͢
ͥ
ͦ
ͧ
ͨ
ͫ
ͯ
͵
΄
Ά
Ή
Ί
Ό
ΐ
Α
Β
Γ
Δ
Ε
Ζ
Η
Θ
Ι
Κ
Λ
Μ
Ν
Ξ
Ο
Π
Ρ
Σ
Τ
Υ
Φ
Χ
Ψ
Ω
ά
έ
ή
ί
ΰ
α
β
γ
δ
ε
ζ
η
θ
ι
κ
λ
μ
ν
ξ
ο
π
ρ
ς
σ
τ
υ
φ
χ
ψ
ω
ϊ
ϋ
ό
ύ
ώ
ϑ
ϒ
ϕ
ϖ
ϗ
ϱ
ϵ
϶
Ϻ
ϻ
Ё
Ђ
Є
І
Ј
Ќ
А
Б
В
Г
Д
Е
Ж
З
И
Й
К
Л
М
Н
О
П
Р
С
Т
У
Ф
Х
Ц
Ч
Ш
Щ
Ы
Ь
Э
Ю
Я
а
б
в
г
д
е
ж
з
и
й
к
л
м
н
о
п
р
с
т
у
ф
х
ц
ч
ш
щ
ъ
ы
ь
э
ю
я
ѐ
ё
ђ
є
ѕ
і
ї
ј
ћ
ќ
Ѡ
Ѧ
Ѯ
Ѱ
ѱ
ѵ
Ѽ
҂
҉
ґ
ғ
ң
Ү
ү
Ҳ
ҳ
Ҽ
Ӓ
ӓ
ӕ
ӣ
Ӧ
ӧ
Ө
ө
Ӿ
ӿ
ԅ
Ա
Գ
Ի
Ծ
Կ
Հ
Մ
Պ
Ս
՝
՞
՟
ա
գ
դ
ե
է
թ
ի
լ
ծ
կ
հ
մ
յ
ն
ո
պ
ռ
ս
վ
տ
ր
ց
ւ
ք
օ
֊
֑
֒
֔
֖
֗
֘
֙
֛
֜
֝
֞
֣
֤
֥
֨
֫
֭
֮
ְ
ֱ
ֲ
ִ
ֵ
ֶ
ַ
ָ
ֹ
ֻ
ּ
ֽ
־
׀
ׁ
ׂ
׃
ׄ
א
ב
ג
ד
ה
ו
ז
ח
ט
י
ך
כ
ל
ם
מ
ן
נ
ס
ע
ף
פ
ץ
צ
ק
ר
ש
ת
؈
،
ؐ
ؑ
ؒ
ؓ
ؔ
ؕ
ؖ
ؘ
ؙ
؟
ء
آ
أ
ؤ
إ
ئ
ا
ب
ة
ت
ث
ج
ح
خ
د
ذ
ر
ز
س
ش
ص
ض
ط
ظ
ع
غ
ػ
ؼ
ؽ
ؾ
ؿ
ـ
ف
ق
ك
ل
م
ن
ه
و
ى
ي
ً
ٌ
ٍ
َ
ُ
ِ
ّ
ْ
ٓ
ٔ
ٕ
ٖ
ٗ
٘
ٙ
ٚ
ٛ
ٜ
ٝ
ٞ
ٟ
٠
١
٢
٣
٤
٥
٩
٭
ٮ
ٹ
ٺ
ټ
پ
ړ
ښ
ڞ
ڠ
ڡ
ک
ڬ
گ
ڷ
ڼ
ۇ
ی
ې
۞
۩
۪
۫
۰
۵
۶
۹
ۿ
ܐ
ܓ
ܫ
ܸ
ސ
ު
ߑ
߬
߮
߰
߹
ࠅ
ࡇ
ऀ
ँ
ं
अ
ए
क
ख
ग
घ
च
ज
ञ
ट
ड
त
द
ध
न
प
फ
ब
भ
म
य
र
ल
व
श
स
ह
ा
ि
ी
ु
ू
ृ
े
ो
्
ॐ
॑
॒
॓
॔
ॢ
ॣ
०
१
४
५
७
॰
ॱ
ॽ
ং
ই
উ
ঌ
এ
ও
ক
ড
ত
ধ
ন
ব
স
হ
া
্
৲
৳
৴
৷
৸
৹
৺
ਉ
ਊ
ਕ
ੇ
ੈ
੦
੧
੨
੫
੭
੯
ઇ
ઘ
ડ
દ
ન
મ
ર
લ
વ
ઽ
ા
ુ
ૂ
ૃ
ૄ
ૅ
ે
ો
ૢ
૦
૨
૩
૭
૮
ଓ
ଘ
ପ
ଲ
ଳ
ଵ
୧
୨
୯
இ
ஐ
ஒ
க
ண
ம
ர
ற
ல
ி
ு
ெ
்
௦
௰
ం
అ
ఇ
ఉ
ఌ
ఒ
క
గ
చ
జ
ట
ఠ
డ
త
ద
న
బ
భ
మ
య
ర
ల
వ
శ
స
ా
ి
ీ
ు
ూ
ృ
ే
ో
ౌ
్
౧
౨
౩
౪
౿
ಂ
ಇ
ಌ
ಎ
ಗ
ಠ
ಡ
ಢ
ತ
ಥ
ಲ
ಿ
ೃ
ೕ
೦
೭
ഃ
ഒ
ദ
ധ
ന
യ
ര
ി
്
൦
൧
൩
൱
ට
ම
ව
ළ
ෆ
ු
෴
ก
ข
ค
ฅ
ง
จ
ฉ
ช
ซ
ญ
ฑ
ฒ
ณ
ด
ต
ถ
ท
ธ
น
บ
ป
ผ
ฝ
พ
ฟ
ภ
ม
ย
ร
ฤ
ล
ว
ศ
ษ
ส
ห
อ
ฮ
ะ
ั
า
ำ
ิ
ี
ึ
ื
ุ
ู
ฺ
เ
แ
โ
ใ
ไ
ๆ
็
่
้
๊
๋
์
ํ
๏
๐
๑
๓
๕
ຂ
ຄ
ງ
ດ
ນ
ລ
ວ
ຫ
ອ
ຮ
ະ
ັ
ິ
ີ
ຶ
ື
ູ
ົ
ເ
ແ
່
໊
໋
໌
໐
໒
ༀ
༄
་
༌
།
༎
༒
༓
༘
༚
༝
༡
༥
༶
༺
༻
༼
༽
ཀ
ཁ
ག
ང
ཅ
ཆ
ཇ
ཐ
ད
ན
པ
བ
མ
ཙ
ཚ
ཛ
ཞ
ཟ
འ
ཡ
ར
ལ
ཤ
ས
ཫ
ི
ུ
ེ
ཻ
ོ
ཽ
ཾ
ྀ
ྟ
ྡ
ྲ
ྷ
࿀
࿁
࿉
࿐
࿔
က
င
ည
ဏ
တ
န
ပ
ဖ
ဘ
မ
ယ
ရ
လ
ဝ
သ
ဟ
ဣ
ာ
ိ
ု
ူ
ေ
ဲ
့
း
္
်
ြ
ွ
ှ
ა
გ
დ
ე
ვ
ი
კ
ლ
ნ
ო
ს
ფ
ღ
ხ
ჱ
ჲ
ᄀ
ᄁ
ᄂ
ᄃ
ᄄ
ᄅ
ᄆ
ᄇ
ᄈ
ᄉ
ᄊ
ᄋ
ᄌ
ᄍ
ᄎ
ᄏ
ᄐ
ᄑ
ᄒ
ᄔ
ᄭ
ᄵ
ᅀ
ᅌ
ᅒ
ᅘ
ᅟ
ᅠ
ᅡ
ᅥ
ᅦ
ᅧ
ᅩ
ᅮ
ᅯ
ᅲ
ᅳ
ᅴ
ᅵ
ᆂ
ᆍ
ᆞ
ᆡ
ᆢ
ᆫ
ᆮ
ᆯ
ᆷ
ᆸ
ᆺ
ᆻ
ᆼ
ᇂ
ᇘ
ᇫ
ᇰ
ቼ
ኈ
ኔ
ኦ
ዞ
ዽ
ጤ
ጿ
ፆ
ፍ
፶
᎑
᎔
᎖
Ꭿ
Ꮆ
Ꮍ
Ꮚ
Ꮰ
Ꮱ
Ᏻ
ᐇ
ᐕ
ᐖ
ᐛ
ᐝ
ᐟ
ᐠ
ᐡ
ᐢ
ᐣ
ᐤ
ᐧ
ᐨ
ᐲ
ᑋ
ᑌ
ᑎ
ᑒ
ᑕ
ᑦ
ᑭ
ᒏ
ᒪ
ᒺ
ᓀ
ᓂ
ᓄ
ᓚ
ᓫ
ᔆ
ᔕ
ᔙ
ᔪ
ᕑ
ᕕ
ᕗ
ᕙ
ᕡ
ᕤ
ᕦ
ᕬ
ᕱ
ᕷ
ᕼ
ᖇ
ᖰ
ᖳ
ᖴ
ᗊ
ᗋ
ᗒ
ᗕ
ᗜ
ᗝ
ᗢ
ᗣ
ᗦ
ᗨ
ᗩ
ᗪ
ᗰ
ᗷ
ᘌ
ᘏ
ᘓ
ᘧ
ᘰ
ᘳ
ᙏ
ᜊ
ᝰ
ក
ខ
ជ
ត
ថ
ទ
ន
ផ
ភ
ម
យ
រ
ល
វ
ស
ា
ី
ុ
ូ
ែ
៊
័
្
៖
២
៧
ᠠ
ᠡ
ᠢ
ᠥ
ᠦ
ᠨ
ᠬ
ᠭ
ᠮ
ᠯ
ᠲ
ᠳ
ᠵ
ᠶ
ᠷ
ᦂ
᧕
ᨀ
ᨐ
ᨔ
᨟
ᨻ
ᩚ
ᯅ
ᰔ
ᱍ
ᴀ
ᴂ
ᴄ
ᴅ
ᴇ
ᴈ
ᴊ
ᴋ
ᴍ
ᴏ
ᴖ
ᴗ
ᴘ
ᴛ
ᴜ
ᴠ
ᴡ
ᴢ
ᴥ
ᴬ
ᴮ
ᴰ
ᴱ
ᴳ
ᴴ
ᴵ
ᴷ
ᴸ
ᴹ
ᴺ
ᴼ
ᴾ
ᴿ
ᵀ
ᵁ
ᵂ
ᵃ
ᵇ
ᵈ
ᵉ
ᵋ
ᵌ
ᵍ
ᵎ
ᵏ
ᵑ
ᵒ
ᵔ
ᵕ
ᵗ
ᵘ
ᵛ
ᵜ
ᵞ
ᵟ
ᵤ
ᵧ
ᶅ
ᶘ
ᶜ
ᶠ
ᶸ
ᶻ
ᶿ
᷀
᷁
᷄
᷅
᷆
᷇
᷉
ḇ
ḍ
ḏ
ḓ
ḗ
ḙ
ḡ
Ḣ
Ḥ
ḥ
Ḫ
ḫ
ḱ
ḷ
ṁ
ṃ
ṅ
ṇ
ṑ
ṓ
ṛ
ṣ
ṧ
Ṭ
ṭ
ṯ
ṱ
ẓ
Ạ
ạ
Ả
ả
Ấ
ấ
ầ
ẩ
ẫ
ậ
ắ
ằ
ẳ
ẵ
ặ
ẹ
ẻ
Ẽ
ẽ
Ế
ế
ề
ể
Ễ
ễ
ệ
ỉ
Ị
ị
Ọ
ọ
ỏ
Ố
ố
ồ
ổ
ỗ
Ộ
ộ
ớ
ờ
Ở
ở
ợ
ụ
ủ
ứ
ừ
ử
ữ
ự
ỳ
ỷ
ỹ
ἀ
ἁ
ἂ
ἃ
ἄ
ἅ
Ἀ
Ἁ
ἐ
ἑ
ἔ
Ἐ
Ἑ
ἠ
ἡ
ἢ
ἣ
ἤ
ἥ
ἦ
ἰ
ἱ
ἴ
ἵ
ἶ
ἷ
Ἰ
Ἱ
ὀ
ὁ
ὃ
ὄ
ὅ
Ὀ
Ὁ
Ὃ
Ὅ
ὐ
ὑ
ὔ
ὕ
ὖ
ὗ
Ὕ
ὡ
ὤ
ὥ
ὰ
ὲ
ὴ
ὶ
ὸ
ὺ
ὼ
ᾗ
ᾰ
ᾳ
ᾶ
᾽
᾿
῁
ῃ
ῆ
ῇ
ῐ
ῑ
ῖ
ῥ
ῦ
Ῥ
ῳ
ῴ
ῶ
ῷ
​
‌
‎
‐
‑
‒
–
—
―
‖
‗
‘
’
“
”
†
‡
•
‣
․
‥
…
‧
‰
‱
′
″
‴
‵
‶
‸
‹
›
※
‼
‽
‾
‿
⁀
⁂
⁃
⁄
⁇
⁉
⁋
⁍
⁎
⁐
⁑
⁔
⁕
⁙
⁜
⁝
⁰
ⁱ
⁴
⁵
⁶
⁷
⁸
⁹
⁺
⁻
⁼
⁽
⁾
ⁿ
₀
₁
₂
₃
₄
₊
₋
₌
₍
₎
ₒ
₣
₤
₩
₫
€
₮
₹
₽
₿
⃑
⃒
⃓
⃔
⃕
⃘
⃙
⃚
⃛
⃜
⃝
⃞
⃟
⃡
⃣
⃥
⃫
⃰
ℂ
℃
℉
ℍ
ℎ
ℏ
ℑ
ℒ
ℓ
℔
ℕ
№
℗
℘
ℙ
ℜ
ℝ
℡
™
ℤ
℧
ℬ
℮
ℯ
ℰ
ℴ
ℵ
ℹ
⅏
⅐
⅓
⅔
⅗
⅙
⅛
⅜
⅝
⅞
Ⅰ
Ⅱ
Ⅲ
Ⅳ
Ⅴ
Ⅵ
Ⅶ
Ⅷ
Ⅸ
Ⅹ
Ⅺ
Ⅻ
ⅰ
ⅱ
ⅲ
ⅳ
ⅴ
ⅵ
ⅶ
ⅷ
ⅸ
ⅹ
ⅺ
ⅻ
ↀ
←
↑
→
↓
↔
↕
↖
↗
↘
↙
↛
↜
↝
↞
↟
↣
↦
↪
↯
↳
↴
↷
↻
↼
⇀
⇄
⇆
⇌
⇎
⇐
⇒
⇓
⇔
⇚
⇛
⇜
⇝
⇠
⇡
⇢
⇣
⇤
⇦
⇧
⇨
⇩
⇰
⇱
⇾
∀
∂
∃
∅
∆
∇
∈
∉
∊
∋
∎
∏
∑
−
∓
∕
∗
∘
∙
√
∝
∞
∟
∠
∡
∣
∥
∦
∧
∨
∩
∪
∫
∬
∮
∴
∵
∶
∷
∼
∽
≀
≃
≅
≈
≒
≖
≗
≛
≜
≠
≡
≤
≥
≦
≧
≪
≫
≲
≺
≻
⊂
⊃
⊆
⊇
⊈
⊊
⊋
⊑
⊔
⊕
⊖
⊗
⊘
⊙
⊞
⊢
⊤
⊥
⊧
⊨
⊩
⊬
⊰
⊱
⊳
⊸
⊹
⊼
⊿
⋁
⋂
⋄
⋅
⋆
⋈
⋉
⋋
⋌
⋔
⋚
⋛
⋞
⋟
⋮
⋯
⋰
⌁
⌂
⌃
⌄
⌇
⌈
⌉
⌊
⌋
⌐
⌑
⌒
⌓
⌔
⌖
⌘
⌚
⌛
⌜
⌟
⌠
⌡
⌢
⌣
⌤
⌥
⌧
⌨
⌫
⌯
⌳
⌵
⍋
⍏
⍙
⍛
⍜
⍢
⍣
⍤
⍥
⍨
⍩
⍺
⎍
⎕
⎛
⎜
⎝
⎞
⎟
⎠
⎡
⎢
⎣
⎤
⎥
⎦
⎧
⎨
⎩
⎪
⎫
⎬
⎭
⎮
⎯
⎸
⎼
⏀
⏎
⏐
⏑
⏩
⏪
⏬
⏭
⏰
⏱
⏳
⏵
⏹
⏺
⏾
␣
⑂
⑅
⑉
①
②
③
④
⑤
⑥
⑦
⑧
⑨
⑩
⑪
⑫
⑬
⑭
⑮
⑯
⑰
⑱
⑲
⑳
⑴
⑵
⑶
⑷
⑸
⑹
⑺
⑻
⑼
⑽
⑾
⑿
⒀
⒁
⒂
⒃
⒜
⒝
⒞
⒟
⒠
⒡
⒢
⒧
⒨
⒩
⒪
⒱
⒲
⒳
⒵
Ⓐ
Ⓑ
Ⓒ
Ⓓ
Ⓔ
Ⓕ
Ⓖ
Ⓗ
Ⓘ
Ⓙ
Ⓚ
Ⓛ
Ⓜ
Ⓝ
Ⓞ
Ⓟ
Ⓡ
Ⓢ
Ⓦ
ⓐ
ⓑ
ⓒ
ⓓ
ⓔ
ⓕ
ⓖ
ⓗ
ⓘ
ⓙ
ⓚ
ⓛ
ⓜ
ⓝ
ⓞ
ⓟ
ⓠ
ⓡ
ⓢ
ⓣ
ⓤ
ⓥ
ⓦ
ⓧ
ⓨ
ⓩ
⓪
⓫
⓬
⓭
⓮
⓯
⓰
⓱
⓵
⓶
⓷
⓸
⓹
⓺
⓻
⓼
⓽
⓾
─
━
│
┃
┄
┈
┊
┌
┎
┏
┐
┓
└
┕
┖
┗
┘
┚
┛
├
┠
┡
┢
┣
┤
┫
┬
┳
┴
┻
┼
┿
╂
╊
╋
═
║
╔
╗
╚
╝
╥
╬
╭
╮
╯
╰
╱
╲
╶
╹
╺
╻
▀
▁
▂
▃
▄
▅
▆
▇
█
▉
▌
▍
▎
▏
▐
░
▒
▔
▕
■
□
▢
▣
▤
▥
▦
▧
▨
▩
▪
▫
▬
▭
▮
▯
▰
▱
▲
△
▴
▵
▶
▷
▸
▹
►
▻
▼
▽
▾
▿
◀
◁
◂
◃
◄
◅
◆
◇
◈
◉
◊
○
◌
◍
◎
●
◐
◑
◒
◔
◕
◖
◗
◘
◛
◜
◝
◞
◟
◠
◡
◤
◥
◦
◮
◯
◲
◻
◼
◽
◾
☀
☁
☂
☃
☄
★
☆
☇
☉
☋
☌
☍
☎
☏
☐
☑
☓
☔
☕
☘
☚
☛
☜
☝
☞
☟
☠
☡
☢
☣
☤
☥
☦
☨
☪
☮
☯
☰
☱
☲
☳
☴
☵
☶
☷
☸
☹
☺
☻
☼
☽
☾
♀
♂
♄
♆
♈
♉
♊
♋
♌
♍
♎
♏
♐
♑
♒
♓
♔
♕
♖
♗
♘
♙
♛
♞
♟
♠
♡
♢
♣
♤
♥
♦
♧
♨
♩
♪
♫
♬
♭
♮
♯
♱
♻
♾
♿
⚀
⚁
⚂
⚃
⚄
⚅
⚆
⚇
⚈
⚐
⚑
⚒
⚓
⚔
⚕
⚖
⚗
⚘
⚙
⚛
⚜
⚠
⚡
⚪
⚫
⚯
⚰
⚱
⚽
⚾
⛄
⛅
⛈
⛏
⛑
⛓
⛔
⛤
⛦
⛧
⛩
⛪
⛰
⛱
⛲
⛳
⛴
⛵
⛷
⛸
⛹
⛺
✂
✅
✈
✉
✊
✋
✌
✍
✎
✏
✐
✒
✓
✔
✕
✖
✘
✚
✛
✜
✝
✞
✟
✠
✡
✤
✦
✧
✨
✩
✪
✫
✬
✭
✮
✯
✰
✱
✲
✳
✴
✵
✶
✷
✸
✺
✻
✼
✽
✾
✿
❀
❁
❂
❃
❄
❅
❆
❇
❈
❉
❋
❌
❍
❎
❏
❐
❑
❒
❓
❔
❕
❖
❗
❘
❙
❚
❡
❢
❣
❤
❥
❦
❧
❪
❫
❮
❯
❴
❵
❶
❷
❸
❹
❺
❻
❼
❽
❾
❿
➀
➁
➂
➃
➄
➅
➆
➇
➈
➊
➋
➌
➍
➎
➏
➐
➑
➒
➓
➔
➕
➖
➙
➚
➜
➝
➞
➟
➠
➡
➢
➤
➥
➦
➨
➩
➪
➫
➰
➲
➳
➴
➷
➹
➺
➽
➾
➿
⟟
⟡
⟨
⟩
⟪
⟫
⟳
⟶
⟹
⠀
⠂
⠒
⠕
⡱
⤍
⤑
⤙
⤚
⤴
⤵
⤷
⦁
⦊
⦗
⦘
⦙
⦻
⦿
⧘
⧙
⧧
⧫
⧸
⧿
⨀
⨂
⨍
⨟
⨯
⨾
⨿
⩊
⪋
⪡
⪢
⪤
⪳
⫌
⫣
⫬
⫸
⬅
⬆
⬇
⬈
⬛
⬜
⬝
⬥
⭇
⭐
⭑
⭒
⭕
⮚
⯈
Ⱉ
ⱚ
Ⲻ
ⲻ
ⵈ
ⷜ
⸂
⸃
⸅
⸌
⸍
⸒
⸜
⸝
⸱
⺟
⺠
⺣
⺫
⺲
⻑
⼀
⼄
⼆
⼈
⼊
⼋
⼗
⼠
⼤
⼦
⼭
⼯
⼼
⼿
⽂
⽅
⽇
⽉
⽌
⽕
⽟
⽣
⽤
⽥
⾃
⾄
⾊
⾏
⾔
⾕
⾛
⾞
⾦
⾧
⾭
⾳
⾶
⾹
⾺
、
。
〃
々
〆
〇
〈
〉
《
》
「
」
『
』
【
】
〒
〓
〔
〕
〖
〗
〘
〙
〚
〛
〜
〣
〫
〮
〰
〱
〳
〴
〵
〻
〽
〿
ぁ
あ
ぃ
い
ぅ
う
ぇ
え
ぉ
お
か
が
き
ぎ
く
ぐ
け
げ
こ
ご
さ
ざ
し
じ
す
ず
せ
ぜ
そ
ぞ
た
だ
ち
ぢ
っ
つ
づ
て
で
と
ど
な
に
ぬ
ね
の
は
ば
ぱ
ひ
び
ぴ
ふ
ぶ
ぷ
へ
べ
ぺ
ほ
ぼ
ぽ
ま
み
む
め
も
ゃ
や
ゅ
ゆ
ょ
よ
ら
り
る
れ
ろ
ゎ
わ
ゐ
ゑ
を
ん
゙
゚
゛
゜
ゝ
ゞ
ァ
ア
ィ
イ
ゥ
ウ
ェ
エ
ォ
オ
カ
ガ
キ
ギ
ク
グ
ケ
ゲ
コ
ゴ
サ
ザ
シ
ジ
ス
ズ
セ
ゼ
ソ
ゾ
タ
ダ
チ
ヂ
ッ
ツ
ヅ
テ
デ
ト
ド
ナ
ニ
ヌ
ネ
ノ
ハ
バ
パ
ヒ
ビ
ピ
フ
ブ
プ
ヘ
ベ
ペ
ホ
ボ
ポ
マ
ミ
ム
メ
モ
ャ
ヤ
ュ
ユ
ョ
ヨ
ラ
リ
ル
レ
ロ
ヮ
ワ
ヰ
ヱ
ヲ
ン
ヴ
ヵ
ヶ
・
ー
ヽ
ヾ
ㄌ
ㄍ
ㄏ
ㄒ
ㄓ
ㄔ
ㄕ
ㄜ
ㄟ
ㄤ
ㄥ
ㄧ
ㄨ
ㄱ
ㄲ
ㄳ
ㄴ
ㄵ
ㄶ
ㄷ
ㄸ
ㄹ
ㄺ
ㄻ
ㄼ
ㄽ
ㄾ
ㄿ
ㅀ
ㅁ
ㅂ
ㅃ
ㅄ
ㅅ
ㅆ
ㅇ
ㅈ
ㅉ
ㅊ
ㅋ
ㅌ
ㅍ
ㅎ
ㅏ
ㅐ
ㅑ
ㅒ
ㅓ
ㅔ
ㅕ
ㅖ
ㅗ
ㅘ
ㅙ
ㅚ
ㅛ
ㅜ
ㅝ
ㅞ
ㅟ
ㅠ
ㅡ
ㅢ
ㅣ
ㅤ
ㅧ
ㅬ
ㅱ
ㅸ
ㅹ
ㅼ
ㅿ
ㆀ
ㆁ
ㆄ
ㆅ
ㆆ
ㆉ
ㆍ
㈀
㈁
㈂
㈃
㈄
㈅
㈆
㈇
㈈
㈉
㈊
㈋
㈎
㈏
㈐
㈑
㈒
㈓
㈔
㈛
㈜
㈠
㈡
㈢
㈣
㈤
㈥
㈦
㈩
㈱
㉑
㉒
㉓
㉔
㉕
㉗
㉘
㉙
㉚
㉛
㉜
㉝
㉞
㉟
㉠
㉡
㉢
㉣
㉤
㉥
㉦
㉧
㉨
㉩
㉪
㉬
㉭
㉮
㉯
㉰
㉱
㉲
㉳
㉴
㉵
㉶
㉷
㉸
㉹
㉻
㉿
㊀
㊈
㊟
㊥
㊱
㊲
㊶
㋈
㋙
㋛
㎂
㎃
㎄
㎈
㎉
㎌
㎍
㎎
㎏
㎐
㎑
㎒
㎓
㎕
㎖
㎗
㎘
㎙
㎚
㎛
㎜
㎝
㎞
㎟
㎠
㎡
㎢
㎣
㎤
㎥
㎦
㎧
㎨
㎩
㎪
㎫
㎬
㎯
㎰
㎱
㎲
㎳
㎶
㎷
㎸
㎻
㎼
㎽
㎾
㎿
㏀
㏁
㏂
㏃
㏄
㏆
㏇
㏈
㏊
㏏
㏖
㏗
㏘
㏜
㐂
㐸
㑦
㑧
㑹
㓏
㓸
㕙
㕭
㕮
㖙
㗀
㗎
㗟
㗡
㗲
㘅
㘾
㙉
㙐
㙔
㙖
㙫
㙮
㙻
㚖
㚘
㜎
㜕
㜷
㜸
㝓
㝘
㝡
㝢
㝵
㞳
㟳
㠂
㠉
㠍
㢞
㣺
㤚
㤠
㤪
㥁
㥘
㥠
㥳
㥽
㦀
㦝
㦿
㧓
㧞
㨣
㪍
㫃
㫌
㫓
㫤
㫻
㫾
㬅
㬉
㬋
㬒
㬙
㬦
㬺
㭗
㭬
㭻
㮋
㮒
㮚
㮨
㮿
㯑
㯖
㯙
㯳
㰒
㰔
㰜
㱕
㲮
㳓
㳣
㴤
㴭
㴰
㵙
㵢
㵦
㶁
㶍
㶏
㷁
㷜
㷤
㷽
㷿
㸌
㺚
㺩
㺬
㺹
㻐
㻑
㻩
㼁
㼆
㽅
㽝
㽦
㾗
㾦
㾾
㾿
䂽
䃂
䃴
䃶
䄙
䄵
䄷
䅘
䅳
䆃
䆄
䆆
䆉
䇜
䈂
䊠
䋫
䌌
䌖
䍧
䎁
䎘
䐀
䑛
䑸
䓗
䓴
䓷
䔉
䔛
䕫
䕺
䗯
䚹
䛉
䜛
䝴
䞭
䟆
䟽
䠓
䠱
䢘
䤁
䤃
䤋
䤴
䥃
䥧
䥷
䦧
䧄
䧺
䨓
䨥
䨪
䪸
䪻
䬝
䭑
䯻
䰇
䰞
䰹
䰽
䱋
䱐
䱜
䱡
䱱
䱻
䲁
䲅
䲕
䲵
䷀
䷁
䷊
䷋
䷒
䷓
䷖
䷗
䷘
䷜
䷝
䷠
䷤
䷫
䷬
䷲
䷳
䷶
䷹
䷼
一
丁
七
万
丈
三
上
下
丌
不
与
丏
丐
丑
专
且
丕
世
丘
丙
业
丛
东
丝
丞
両
丢
两
严
並
丧
丨
个
丫
中
丰
丱
串
临
丶
丸
丹
为
主
丼
丽
举
丿
乀
乂
乃
久
乇
么
义
之
乌
乍
乎
乏
乐
乑
乔
乕
乖
乗
乘
乙
乜
九
乞
也
习
乡
书
乧
乨
乫
乭
买
乱
乳
乶
乷
乻
乼
乾
亀
亂
亅
了
予
争
事
二
于
亐
云
互
亓
五
井
亘
亙
亚
些
亜
亞
亟
亡
亢
交
亥
亦
产
亨
享
京
亭
亮
亲
亳
亶
亹
人
亻
亼
亽
亿
什
仁
仄
仅
仆
仇
今
介
仍
从
仏
仐
仑
仔
仕
他
仗
付
仙
仝
仞
仟
仡
代
令
以
仨
仪
们
仭
仮
仰
仲
仵
件
价
任
份
仿
企
伉
伊
伋
伍
伎
伏
伐
休
众
优
伙
会
伝
伞
伟
传
伤
伦
伪
伭
伯
估
伴
伶
伷
伸
伺
似
伽
佃
佄
但
佇
佈
佉
位
低
住
佐
佑
体
佔
何
佖
佗
余
佚
佛
作
佞
佟
你
佣
佥
佧
佩
佬
佯
佰
佳
併
佶
佸
佺
佻
佼
佽
佾
使
侁
侂
侃
侄
侅
來
侈
侉
侊
例
侌
侍
侏
侐
侑
侔
侖
侗
侘
侙
供
依
侠
価
侣
侤
侧
侨
侫
侮
侯
侲
侵
侶
侷
侹
便
俀
俁
係
促
俄
俉
俊
俌
俎
俑
俒
俓
俔
俗
俘
俙
俚
俛
保
俞
俟
俠
信
俣
俩
俭
修
俯
俱
俳
俵
俶
俸
俺
俾
倀
倂
倅
倆
倉
個
倌
倍
倏
們
倒
倓
倔
倕
倖
倘
候
倚
倜
倞
借
倡
倣
値
倥
倦
倧
倨
倩
倪
倫
倬
倭
倮
倶
债
倻
值
倾
偀
偁
偃
偅
假
偈
偉
偎
偏
偕
做
停
健
偦
偪
偭
偰
偲
偳
側
偵
偶
偷
偸
偽
偿
傀
傅
傉
傍
傑
傒
傔
傕
傘
備
傩
催
傭
傲
傳
傴
債
傷
傻
傾
僂
僅
僇
僉
僊
働
像
僐
僑
僕
僖
僙
僚
僞
僣
僥
僧
僨
僭
僮
僴
僵
價
僻
僾
僿
儀
儁
儂
儃
億
儆
儇
儈
儉
儋
儐
儒
儓
儔
儕
儘
儚
儛
儞
償
儡
優
儱
儲
儳
儵
儷
儺
儻
儼
儿
兀
允
元
兄
充
兆
兇
先
光
克
兌
免
兎
児
兑
兒
兔
兕
兖
兗
党
兜
兟
兢
入
內
全
兩
兪
八
公
六
兮
兰
共
关
兴
兵
其
具
典
兹
养
兼
兽
冀
冂
冃
内
円
冇
冈
冉
冊
册
再
冎
冏
冑
冒
冓
冕
冖
冗
写
军
农
冞
冠
冢
冤
冥
冦
冨
冪
冫
冬
冯
冰
冲
决
冴
况
冶
冷
冻
冽
净
凃
凄
凅
准
凇
凈
凉
凊
凋
凌
凍
减
凑
凓
凛
凜
凝
凞
凟
几
凡
凤
処
凩
凪
凭
凯
凰
凱
凳
凵
凶
凸
凹
出
击
函
凾
刀
刁
刂
刃
分
切
刈
刊
刍
刎
刑
划
刓
刖
列
刘
则
刚
创
初
删
判
別
刦
刧
利
刪
别
刮
到
刱
刲
刳
刴
刵
制
刷
券
刹
刺
刻
剁
剂
剃
剄
則
剉
削
剋
剌
前
剎
剏
剑
剔
剖
剗
剙
剛
剝
剞
剠
剡
剣
剤
剥
剧
剩
剪
副
割
剳
創
剽
剿
劂
劃
劇
劈
劉
劌
劍
劎
劑
劒
劓
劔
劗
力
劝
办
功
加
务
劣
劤
劦
动
助
努
劫
劬
劭
励
劲
劳
労
効
劻
劼
劾
势
勁
勃
勅
勇
勉
勋
勍
勑
勒
動
勖
勗
勘
務
勛
勝
勞
募
勠
勢
勣
勤
勦
勧
勰
勲
勳
勵
勷
勸
勺
勻
勾
勿
匁
匂
匃
包
匆
匈
匋
匍
匏
匐
匕
化
北
匙
匚
匜
匝
匠
匡
匣
匪
匯
匱
匶
匹
区
医
匼
匽
匾
匿
區
十
千
卄
卅
升
午
卉
半
卌
卍
华
协
卑
卒
卓
協
单
卖
南
単
博
卜
卝
卞
占
卡
卢
卣
卤
卦
卧
卨
卩
卫
卬
卮
卯
印
危
即
却
卵
卷
卸
卹
卻
卼
卽
卿
厂
厄
厅
历
厉
压
厌
厓
厔
厕
厖
厘
厚
厝
原
厠
厥
厦
厨
厩
厭
厮
厯
厲
厳
厶
去
县
参
參
叅
又
叉
及
友
双
反
収
发
叔
取
受
变
叙
叛
叜
叟
叠
叡
叢
口
古
句
另
叨
叩
只
叫
召
叭
叮
可
台
叱
史
右
叵
叶
号
司
叹
叺
叻
叼
吁
吃
各
吅
合
吉
吊
同
名
后
吏
吐
向
吒
吓
吕
吗
君
吝
吞
吟
吠
否
吧
吩
含
听
吭
吮
启
吳
吴
吵
吶
吷
吸
吹
吻
吼
吽
吾
吿
呀
呂
呃
呆
呇
呈
呉
告
呌
呐
呑
员
呛
呟
呢
呤
呦
周
呪
呫
呱
味
呴
呵
呶
呻
呼
命
咀
咄
咅
咆
咈
咋
和
咎
咏
咐
咒
咔
咕
咖
咙
咚
咜
咤
咥
咧
咨
咩
咪
咫
咬
咯
咱
咲
咳
咸
咻
咽
咾
咿
哀
品
哂
哄
哇
哈
哉
哋
响
哎
哑
哒
哔
哞
哟
員
哢
哥
哦
哨
哩
哪
哭
哮
哲
哺
哾
哿
唄
唆
唇
唉
唊
唏
唐
唔
唖
唜
唧
售
唯
唱
唳
唵
唸
唼
唾
啃
啄
商
啇
啊
啎
問
啐
啓
啖
啗
啜
啞
啟
啡
啣
啤
啥
啦
啲
啸
啻
啼
啾
喀
喁
喂
喃
善
喆
喇
喈
喉
喊
喋
喎
喏
喑
喔
喘
喙
喚
喜
喝
喞
喟
喤
喧
喩
喪
喫
喬
單
喰
喱
喲
喵
営
喷
喺
喻
嗁
嗅
嗇
嗌
嗎
嗏
嗑
嗒
嗔
嗙
嗚
嗛
嗜
嗝
嗟
嗣
嗤
嗬
嗯
嗷
嗽
嗾
嘅
嘆
嘈
嘉
嘎
嘏
嘐
嘔
嘖
嘗
嘘
嘛
嘢
嘩
嘯
嘰
嘱
嘲
嘴
嘵
嘶
嘷
嘻
嘿
噁
噂
噄
噆
噉
噌
噍
噎
噏
噐
噓
噘
噙
噞
噟
噠
噢
噣
噤
器
噩
噪
噫
噱
噲
噴
噵
噹
噺
嚁
嚆
嚇
嚏
嚓
嚙
嚚
嚞
嚟
嚢
嚣
嚥
嚧
嚬
嚭
嚮
嚲
嚳
嚴
嚷
嚼
囀
囁
囂
囃
囉
囊
囍
囏
囑
囕
囘
囚
四
回
因
团
団
囧
园
囯
困
囲
図
围
囷
囹
固
国
图
囿
圀
圃
圄
圆
圈
圉
國
圍
圏
園
圓
圖
團
圜
圝
土
圠
圣
圧
在
圬
圭
圮
地
圳
场
圻
圾
址
坂
均
坊
坌
坍
坎
坏
坐
坑
块
坚
坛
坝
坡
坤
坦
坪
坫
坮
坰
坱
坵
坻
坼
垂
垃
垄
垈
型
垍
垓
垕
垗
垛
垜
垠
垡
垢
垣
垤
垶
垷
垸
埂
埃
埅
埆
埈
埋
埍
城
埏
埔
埜
域
埠
埤
埥
埦
埭
埰
埳
埴
埵
埶
執
埸
培
基
埼
埽
堀
堂
堅
堆
堈
堉
堊
堔
堕
堗
堙
堜
堞
堠
堡
堣
堤
堥
堦
堧
堪
堯
堰
報
場
堵
堺
塀
塈
塊
塋
塌
塍
塏
塑
塔
塗
塘
塙
塚
塜
塞
塡
塢
塤
塩
填
塲
塵
塹
塼
塾
塿
墀
墁
境
墅
墉
墊
墍
墓
増
墙
墜
增
墟
墠
墡
墢
墨
墩
墮
墰
墱
墳
墺
墻
墾
壁
壃
壄
壅
壇
壊
壌
壎
壑
壓
壔
壕
壘
壙
壚
壝
壞
壟
壠
壢
壤
壩
士
壬
壮
壯
声
壱
売
壶
壷
壹
壺
壻
壼
壽
处
备
変
夊
复
夏
夐
夔
夕
外
夙
多
夜
够
夠
夢
夤
夥
大
天
太
夫
夬
夭
央
失
头
夷
夸
夹
夺
夻
夽
夾
奀
奄
奇
奈
奉
奋
奎
奏
奐
契
奔
奕
奖
套
奘
奚
奠
奢
奥
奧
奨
奩
奪
奫
奬
奭
奮
女
奴
奵
奶
奸
她
好
如
妃
妄
妆
妇
妈
妊
妍
妒
妓
妖
妙
妝
妣
妤
妥
妨
妬
妮
妯
妲
妳
妵
妸
妹
妺
妻
妾
姁
姃
姄
姆
姈
姉
姊
始
姐
姑
姒
姓
委
姙
姚
姜
姝
姞
姣
姤
姥
姦
姧
姨
姪
姫
姬
姮
姱
姸
姻
姿
娀
威
娃
娄
娌
娍
娎
娑
娘
娚
娛
娜
娟
娠
娡
娣
娥
娩
娯
娱
娲
娵
娶
娼
婀
婁
婆
婇
婉
婕
婚
婢
婣
婦
婬
婭
婴
婵
婷
婺
婼
婾
婿
媂
媒
媚
媛
媞
媤
媧
媮
媯
媲
媳
媵
媸
媼
媽
媾
媿
嫁
嫂
嫄
嫉
嫋
嫌
嫖
嫗
嫚
嫠
嫡
嫣
嫦
嫩
嫫
嫰
嫳
嫵
嫺
嫻
嬀
嬈
嬉
嬋
嬌
嬖
嬗
嬙
嬚
嬛
嬢
嬪
嬰
嬴
嬾
嬿
孀
孃
子
孑
孔
孕
孖
字
存
孙
孚
孛
孜
孝
孟
季
孤
孥
学
孩
孫
孰
孱
孵
孶
學
孺
孼
孽
宀
宁
宂
它
宄
宅
宇
守
安
宋
完
宍
宏
宓
宕
宖
宗
官
宙
定
宛
宜
宝
实
実
宠
审
客
宣
室
宥
宦
宧
宫
宬
宮
宰
宲
害
宴
宵
家
宸
容
宽
宾
宿
寀
寂
寃
寄
寅
密
寇
富
寏
寐
寒
寓
寔
寖
寗
寘
寙
寛
寜
寝
寞
察
寡
寢
寤
寥
實
寧
寨
審
寫
寬
寭
寮
寯
寰
寳
寵
寶
寸
对
寺
寻
导
対
寿
封
専
尃
射
将
將
專
尉
尊
尋
對
導
小
少
尒
尔
尖
尘
尙
尚
尝
尤
尧
尨
尩
尫
就
尸
尹
尺
尻
尼
尽
尾
尿
局
屁
层
居
屆
屈
届
屋
屍
屎
屏
屐
屑
屓
展
屛
属
屠
屢
屣
層
履
屧
屨
屩
屬
屮
屯
山
屴
屹
屼
岁
岉
岊
岌
岍
岏
岐
岑
岔
岗
岘
岛
岡
岢
岣
岦
岧
岩
岫
岬
岭
岱
岳
岵
岷
岸
岹
岺
岾
峀
峌
峍
峒
峕
峙
峠
峡
峥
峨
峩
峪
峭
峯
峰
峴
島
峻
峽
崁
崅
崆
崇
崍
崎
崐
崑
崒
崔
崖
崗
崙
崚
崛
崢
崤
崧
崩
崪
崱
崶
崷
崽
嵂
嵆
嵇
嵊
嵋
嵌
嵎
嵐
嵒
嵓
嵘
嵙
嵠
嵩
嵬
嵯
嵲
嵸
嵺
嶁
嶂
嶃
嶄
嶇
嶈
嶋
嶐
嶒
嶔
嶝
嶠
嶢
嶤
嶧
嶪
嶬
嶮
嶰
嶲
嶷
嶸
嶺
嶼
嶽
巃
巅
巇
巉
巋
巌
巍
巏
巑
巒
巓
巔
巖
巘
巛
川
州
巡
巢
巣
工
左
巧
巨
巫
差
己
已
巳
巴
巵
巷
巹
巻
巽
巾
巿
帀
币
市
布
帅
帆
师
希
帐
帑
帒
帔
帕
帖
帙
帚
帛
帝
帟
帥
带
師
席
帮
帯
帰
帳
帶
帷
常
帽
帿
幀
幃
幄
幅
幇
幌
幕
幗
幘
幞
幟
幡
幢
幣
幫
幬
干
平
年
幵
并
幷
幸
幹
幺
幻
幼
幽
幾
广
庀
庁
広
庄
庆
庇
床
序
库
应
底
庖
店
庙
庚
府
庞
废
庠
庥
度
座
庩
庫
庬
庭
庳
庵
庶
康
庸
庾
廁
廂
廃
廄
廆
廈
廉
廊
廋
廏
廐
廒
廓
廕
廖
廘
廙
廚
廛
廝
廞
廟
廠
廡
廢
廣
廥
廧
廨
廩
廬
廱
廳
廴
延
廷
廸
建
廻
廼
廿
开
弁
异
弃
弄
弆
弇
弊
弋
式
弐
弑
弒
弓
弔
引
弗
弘
弛
弜
弟
张
弢
弥
弦
弧
弨
弩
弭
弯
弱
弴
張
強
弸
弹
强
弼
弾
彀
彅
彈
彉
彊
彌
彎
彐
归
当
彔
录
彖
彗
彘
彙
彚
彛
彜
彝
彞
彡
形
彤
彥
彦
彧
彩
彪
彫
彬
彭
彰
影
彳
彷
役
彻
彼
彿
往
征
徂
徃
径
待
徇
很
徉
徊
律
後
徐
徑
徒
従
徖
得
徘
徙
徜
從
徠
御
徥
徧
徨
復
循
徫
徭
微
徯
徳
徴
徵
德
徹
徼
徽
徿
心
忄
必
忆
忉
忌
忍
忎
忒
忔
忖
志
忘
忙
応
忝
忠
忡
忤
忧
快
忭
忮
忱
忳
念
忸
忺
忻
忼
忽
忿
怀
态
怊
怍
怎
怏
怒
怔
怕
怖
怗
怙
怛
怜
思
怠
怡
急
性
怨
怩
怪
怫
怮
怯
怱
怳
怵
总
怾
恁
恂
恃
恆
恊
恋
恍
恐
恒
恕
恙
恚
恝
恠
恢
恣
恤
恥
恦
恧
恨
恩
恪
恬
恭
恮
息
恰
恵
恶
恺
恼
悁
悃
悄
悅
悆
悉
悊
悌
悍
悏
悒
悔
悖
悚
悛
悝
悟
悠
患
悤
悦
悧
您
悩
悪
悬
悰
悱
悲
悳
悴
悵
悶
悸
悼
悽
惄
情
惆
惇
惊
惋
惑
惒
惓
惕
惘
惚
惛
惜
惝
惟
惠
惡
惣
惨
惯
惰
惱
惲
想
惴
惶
惹
惺
惻
惽
愀
愁
愃
愅
愆
愈
愉
愊
愍
愎
意
愔
愕
愚
愛
愜
感
愠
愣
愤
愧
愨
愫
愬
愭
愰
愴
愷
愸
愼
愽
愾
愿
慂
慄
慇
慈
慊
態
慌
慍
慎
慓
慕
慘
慙
慚
慜
慝
慟
慠
慢
慣
慤
慥
慧
慨
慫
慮
慯
慰
慳
慵
慶
慷
慼
慽
慾
憂
憊
憍
憎
憐
憑
憒
憓
憔
憕
憖
憘
憙
憚
憤
憧
憨
憩
憪
憫
憬
憮
憯
憲
憶
憸
憺
憾
懂
懃
懇
懈
應
懊
懋
懌
懍
懐
懒
懜
懟
懣
懦
懩
懲
懴
懶
懷
懸
懺
懼
懽
懾
懿
戀
戄
戇
戈
戊
戌
戍
戎
戏
成
我
戒
戔
戕
或
战
戚
戟
戡
戢
戣
戦
戩
截
戭
戮
戯
戰
戱
戲
戴
戶
户
戸
戹
戻
戽
戾
房
所
扁
扃
扆
扇
扈
扉
手
扌
才
扎
扑
打
扔
払
托
扛
扜
扞
扣
执
扩
扫
扬
扮
扯
扰
扱
扲
扶
批
扼
找
承
技
抃
抄
抇
抉
把
抍
抎
抑
抒
抓
抔
投
抖
抗
折
抚
抛
抜
択
抟
抡
抢
护
报
抨
披
抬
抱
抳
抵
抹
押
抽
拂
拃
拄
担
拆
拇
拈
拉
拊
拋
拌
拍
拎
拏
拐
拒
拓
拔
拖
拗
拘
拙
拚
招
拜
拝
拟
拠
拡
拣
拥
择
括
拭
拮
拯
拱
拳
拴
拶
拷
拼
拽
拾
拿
持
挂
指
挈
按
挐
挑
挒
挖
挙
挟
挡
挣
挤
挥
挨
挫
振
挲
挳
挹
挺
挻
挽
挾
挿
捄
捉
捌
捍
捏
捐
捕
捗
捜
捞
损
捡
换
捧
捨
捫
捭
据
捱
捲
捶
捷
捺
捻
捽
掀
掂
掃
掄
掅
掇
授
掉
掊
掌
掏
排
掖
掘
掙
掛
掠
採
探
掣
接
控
推
掩
措
掫
掬
掮
掲
掳
掴
掻
掾
揀
揃
揄
揅
揆
揉
描
提
揑
插
揕
揖
揚
換
揜
揠
握
揣
揦
揪
揭
揮
揲
援
揵
揷
揺
搆
損
搏
搔
搖
搗
搜
搞
搢
搤
搥
搦
搨
搬
搭
搯
搳
搴
搶
携
搾
摂
摄
摆
摇
摊
摋
摐
摔
摘
摛
摞
摟
摠
摧
摩
摭
摯
摰
摳
摶
摸
摹
摺
摻
摽
撃
撈
撐
撑
撒
撓
撕
撚
撝
撞
撟
撤
撥
撩
撫
播
撮
撰
撲
撻
撼
撾
撿
擁
擂
擄
擅
擇
擊
擋
操
擎
擒
擔
擗
擘
據
擠
擡
擢
擣
擥
擦
擧
擫
擬
擯
擲
擴
擷
擸
擺
擾
擿
攀
攄
攒
攔
攘
攙
攜
攝
攢
攣
攤
攧
攪
攫
攬
支
攵
收
攷
攸
改
攻
攽
放
政
故
效
敉
敌
敍
敎
敏
救
敓
敔
敕
敖
敗
敘
教
敝
敞
敢
散
敦
敧
敬
敭
数
敲
整
敵
敷
數
敺
敻
敾
斂
斃
斅
斆
文
斉
斋
斌
斎
斐
斑
斕
斗
料
斛
斜
斝
斞
斟
斡
斤
斥
斧
斩
斫
斬
断
斮
斯
新
斲
斷
方
於
施
斿
旀
旁
旂
旃
旄
旅
旆
旋
旌
旎
族
旒
旖
旗
旛
旜
无
既
旣
日
旦
旧
旨
早
旬
旭
旰
旱
旲
旵
时
旷
旹
旺
旻
旼
旽
旿
昀
昂
昃
昆
昇
昈
昉
昊
昌
明
昏
昐
昑
昒
易
昔
昕
昜
昞
星
映
昡
春
昧
昨
昩
昪
昫
昭
是
昰
昱
昴
昵
昶
昷
昺
昻
昼
显
晁
時
晃
晅
晉
晊
晋
晏
晐
晑
晒
晓
晕
晖
晗
晙
晚
晛
晝
晞
晟
晠
晡
晢
晤
晥
晦
晧
晨
晩
晫
晬
晭
普
景
晳
晴
晶
晷
晸
智
晻
晼
晾
暁
暂
暄
暆
暇
暈
暉
暋
暍
暎
暐
暑
暖
暗
暘
暝
暢
暦
暨
暫
暬
暮
暱
暲
暴
暹
暻
暾
暿
曀
曁
曄
曅
曆
曇
曈
曉
曌
曏
曔
曖
曙
曚
曛
曜
曝
曠
曢
曦
曨
曩
曬
曭
曮
曰
曲
曳
更
曷
書
曹
曺
曼
曽
曾
替
最
會
朅
月
有
朋
服
朏
朐
朓
朔
朕
朗
望
朝
朞
期
朢
朦
朧
木
未
末
本
札
朮
术
朱
朴
朵
朶
机
朼
朽
杀
杂
权
杅
杆
杇
杈
杉
杌
李
杏
材
村
杓
杖
杙
杚
杜
杝
杞
束
杠
条
杣
来
杨
杪
杬
杭
杮
杯
杰
東
杲
杳
杴
杵
杷
杺
杻
杼
松
板
极
构
枇
枉
枋
枌
枏
析
枒
枓
枕
林
枘
枚
果
枝
枠
枢
枣
枪
枯
枰
枱
枲
枳
枵
架
枷
枸
枹
枻
枾
柀
柁
柄
柅
柊
柍
柏
某
柑
柒
染
柔
柘
柙
柚
柜
柝
柞
柟
柠
柢
查
柨
柩
柬
柯
柰
柱
柲
柳
柴
柵
柷
査
柾
柿
栃
栄
栅
标
栈
栋
栍
栏
栐
树
栒
栓
栖
栗
栘
栝
栞
校
栢
栥
栩
株
栫
栯
栱
栲
栳
栴
样
核
根
栻
格
栽
桀
桁
桂
桃
桄
桅
框
案
桉
桌
桎
桐
桑
桓
桔
桜
桟
档
桥
桩
桭
桮
桴
桶
桷
桼
桿
梁
梃
梅
梆
梈
梏
梓
梔
梗
梜
條
梟
梡
梢
梣
梦
梧
梨
梭
梯
械
梱
梲
梳
梴
梵
梶
检
棄
棅
棉
棊
棋
棍
棐
棒
棓
棕
棗
棘
棙
棚
棟
棠
棡
棣
棧
棨
棪
棫
棬
森
棱
棲
棵
棹
棺
棻
棼
椀
椄
椅
椋
植
椎
椐
椑
椒
椓
椙
椛
検
椰
椲
椴
椵
椶
椸
椹
椽
椿
楂
楊
楍
楓
楔
楕
楗
楘
楙
楚
楛
楝
楞
楠
楡
楢
楣
楦
楧
楨
楩
楪
楫
楬
業
楮
楯
楳
極
楷
楸
楹
楼
楽
概
榄
榆
榊
榎
榏
榑
榓
榔
榕
榘
榛
榜
榟
榡
榥
榦
榧
榪
榭
榮
榰
榱
榲
榴
榶
榷
榻
榼
槀
槁
槃
槇
槊
構
槌
槍
槎
槐
槖
様
槙
槟
槤
槥
槧
槨
槩
槪
槱
槳
槵
槷
槹
槻
槽
槿
樀
樁
樂
樊
樋
樑
樓
樔
樗
樘
標
樛
樞
樟
模
樣
権
横
樫
樰
樱
樴
樵
樸
樹
樺
樻
樽
樾
橃
橄
橇
橈
橋
橏
橐
橘
橙
橚
橝
橞
機
橡
橢
橦
橧
橨
橫
橰
橳
橿
檀
檁
檃
檄
檉
檍
檎
檏
檐
檔
檗
檜
檝
檟
檠
檡
檢
檣
檤
檥
檬
檯
檳
檸
檻
檼
檿
櫂
櫃
櫄
櫓
櫚
櫛
櫜
櫝
櫞
櫟
櫨
櫪
櫬
櫲
櫳
櫶
櫸
櫻
欂
欄
欅
欇
權
欌
欑
欒
欖
欝
欞
欠
次
欢
欣
欧
欨
欲
欵
欷
欸
欹
欺
欽
款
歃
歆
歇
歉
歌
歎
歐
歓
歔
歙
歚
歛
歜
歟
歠
歡
止
正
此
步
武
歧
歩
歪
歬
歯
歲
歳
歴
歷
歸
歹
歺
死
歼
歿
殀
殃
殄
殆
殉
殊
残
殖
殘
殛
殞
殣
殤
殫
殭
殮
殯
殲
殳
殴
段
殷
殺
殻
殼
殽
殿
毀
毁
毂
毅
毆
毉
毋
毌
母
毎
每
毒
毓
比
毕
毖
毗
毘
毙
毚
毛
毝
毫
毬
毯
毳
毾
氂
氅
氈
氊
氍
氎
氏
氐
民
氓
气
気
氛
氣
氤
氧
氳
水
氵
氷
永
氹
氺
氾
氿
汀
汁
求
汆
汇
汉
汊
汋
汍
汎
汐
汔
汕
汗
汙
汚
汛
汜
汝
汞
江
池
污
汤
汧
汨
汩
汪
汭
汰
汲
汴
汶
汸
決
汽
汾
沁
沂
沃
沄
沅
沆
沇
沈
沉
沌
沍
沏
沐
沒
沓
沔
沕
沖
沘
沙
沚
沛
沟
没
沢
沧
沪
沫
沬
沮
沰
沱
河
沴
沸
油
治
沼
沽
沾
沿
況
泂
泄
泅
泆
泉
泊
泌
泍
泓
法
泗
泚
泛
泝
泠
泡
波
泣
泥
注
泪
泫
泬
泮
泯
泰
泱
泲
泳
泵
泽
洁
洄
洋
洌
洎
洏
洑
洒
洗
洙
洛
洞
洟
洣
洤
津
洧
洩
洪
洫
洮
洱
洲
洵
洶
洸
洹
洺
活
洼
洽
派
流
浄
浅
浆
浇
测
济
浏
浑
浓
浔
浙
浚
浜
浞
浡
浣
浤
浥
浦
浧
浩
浪
浬
浮
浯
浰
浴
海
浸
浹
浻
浿
涂
涅
涆
涇
消
涉
涊
涌
涎
涏
涑
涓
涔
涕
涖
涘
涙
涛
涜
涡
涤
润
涨
涩
涪
涬
涮
涯
涱
液
涴
涵
涸
涼
涿
淀
淂
淄
淅
淆
淇
淈
淋
淌
淏
淐
淑
淒
淖
淗
淘
淙
淚
淛
淝
淞
淟
淡
淢
淥
淦
淨
淩
淪
淫
淬
淮
淯
淰
深
淳
淵
淶
混
淸
淹
淺
添
淼
淽
清
渇
済
渉
渊
渋
渐
渓
渔
渕
渗
渘
渙
渚
減
渝
渟
渠
渡
渣
渤
渥
渦
温
渪
渫
測
渭
港
渰
渲
渴
渶
渷
游
渺
渻
渼
渽
渾
湃
湄
湅
湊
湋
湌
湍
湎
湑
湓
湔
湕
湖
湘
湙
湛
湜
湝
湞
湟
湣
湧
湨
湫
湮
湯
湲
湳
湸
湾
湿
満
溅
溆
溉
溌
溍
溏
源
準
溘
溜
溝
溟
溠
溢
溣
溥
溧
溪
溫
溭
溯
溱
溲
溵
溶
溷
溺
溼
滁
滂
滃
滄
滅
滇
滈
滉
滋
滌
滎
滏
滑
滓
滔
滕
滙
滝
滞
满
滥
滨
滩
滫
滬
滭
滯
滲
滴
滷
滸
滻
滾
滿
漁
漂
漅
漆
漈
漉
漊
漏
漑
漓
演
漕
漙
漚
漠
漢
漣
漥
漦
漩
漪
漫
漬
漭
漱
漲
漳
漵
漸
漾
漿
潁
潇
潊
潏
潑
潔
潗
潘
潙
潚
潛
潜
潝
潞
潟
潢
潤
潦
潭
潮
潯
潰
潶
潸
潺
潻
潼
潽
潾
澀
澁
澂
澄
澅
澆
澇
澈
澌
澍
澎
澐
澒
澔
澕
澗
澜
澠
澡
澣
澤
澥
澦
澧
澨
澬
澮
澯
澱
澲
澳
澶
澹
澾
激
濁
濂
濃
濆
濈
濊
濕
濚
濛
濞
濟
濠
濡
濤
濩
濫
濬
濮
濯
濰
濱
濵
濶
濸
濹
濺
濾
瀁
瀄
瀅
瀆
瀉
瀋
瀍
瀏
瀑
瀕
瀗
瀘
瀚
瀛
瀜
瀝
瀞
瀟
瀡
瀣
瀦
瀧
瀨
瀬
瀮
瀰
瀲
瀷
瀹
瀼
瀾
灃
灊
灌
灎
灑
灔
灕
灘
灝
灞
灡
灣
灤
灦
灧
灩
火
灬
灭
灯
灰
灵
灶
灸
灺
灼
災
灾
灿
炁
炅
炆
炉
炊
炎
炒
炓
炕
炘
炙
炜
炟
炡
炤
炫
炬
炭
炮
炯
炰
炳
炷
炸
点
為
炻
炼
炽
烂
烇
烈
烋
烍
烏
烒
烓
烖
烗
烘
烙
烛
烜
烝
烟
烠
烤
烦
烧
烨
烩
烫
热
烱
烶
烹
烽
焄
焇
焉
焊
焌
焔
焕
焖
焙
焚
焜
焞
無
焦
焯
焰
焱
焵
然
焼
煃
煇
煉
煊
煌
煎
煐
煒
煓
煕
煖
煗
煙
煚
煜
煞
煢
煤
煥
煦
照
煨
煩
煬
煮
煲
煸
煺
煽
煿
熀
熄
熅
熈
熊
熏
熒
熔
熘
熙
熛
熟
熠
熢
熤
熨
熬
熯
熱
熲
熳
熹
熺
熻
熽
熾
熿
燁
燂
燃
燄
燈
燉
燋
燎
燏
燐
燒
燔
燕
燗
燙
燚
燝
營
燠
燥
燦
燧
燭
燮
燻
燼
燾
燿
爀
爆
爇
爌
爍
爐
爔
爕
爗
爚
爛
爝
爨
爪
爫
爬
爭
爰
爱
爲
爵
父
爷
爸
爹
爺
爻
爼
爽
爾
爿
牀
牁
牂
牆
片
版
牋
牌
牒
牓
牕
牖
牗
牘
牙
牛
牝
牟
牡
牢
牧
物
牲
牴
牵
牸
特
牽
牾
犀
犁
犂
犇
犍
犒
犖
犛
犟
犠
犢
犧
犨
犬
犭
犯
犴
状
犹
狀
狁
狂
狃
狄
狎
狐
狒
狖
狗
狙
狛
狠
狡
狩
独
狭
狮
狰
狱
狴
狶
狷
狸
狹
狻
狼
狽
猇
猊
猋
猎
猒
猖
猗
猛
猜
猝
猟
猥
猨
猩
猪
猫
献
猯
猴
猶
猷
猺
猼
猾
猿
獃
獄
獅
獍
獎
獐
獑
獒
獖
獗
獘
獜
獠
獡
獢
獣
獤
獨
獩
獪
獫
獬
獮
獯
獰
獲
獵
獷
獸
獺
獻
獼
獾
玁
玄
玅
玆
率
玉
王
玎
玏
玒
玓
玕
玖
玘
玛
玞
玟
玠
玢
玦
玧
玩
玫
玭
玮
环
现
玲
玳
玴
玶
玷
玹
玻
玽
珀
珂
珅
珈
珉
珊
珌
珍
珎
珏
珒
珖
珙
珚
珝
珞
珠
珣
珥
珦
珩
珪
班
珮
珵
珷
珸
珹
珺
珽
現
琁
琂
球
琄
琅
理
琇
琉
琊
琓
琔
琚
琛
琠
琡
琢
琤
琥
琦
琨
琩
琪
琫
琬
琭
琮
琯
琰
琱
琲
琳
琴
琵
琶
琸
琼
琿
瑀
瑁
瑄
瑅
瑆
瑇
瑈
瑊
瑋
瑍
瑎
瑏
瑒
瑔
瑕
瑗
瑙
瑚
瑛
瑜
瑝
瑞
瑟
瑠
瑢
瑣
瑤
瑥
瑨
瑩
瑪
瑬
瑭
瑯
瑰
瑱
瑳
瑶
瑺
瑾
璀
璂
璃
璅
璆
璇
璈
璉
璋
璎
璐
璔
璖
璘
璚
璛
璜
璞
璟
璠
璡
璣
璥
璧
璨
璩
璫
璭
環
璱
璲
璵
璸
璹
璽
璾
璿
瓆
瓈
瓊
瓌
瓏
瓔
瓘
瓚
瓛
瓜
瓠
瓢
瓣
瓦
瓮
瓲
瓴
瓶
瓷
瓻
瓿
甁
甃
甄
甌
甎
甑
甓
甕
甖
甘
甚
甛
甜
甞
生
產
産
甥
甦
用
甩
甪
甫
甬
甯
田
由
甲
申
电
男
甸
町
画
甽
甿
畀
畅
畇
畉
畊
畋
界
畎
畏
畐
畑
畒
畓
畔
留
畚
畛
畜
畝
畠
畢
畤
略
畦
畧
番
畫
畬
畯
異
畲
畳
畴
畵
當
畷
畸
畹
畺
畿
疄
疆
疇
疈
疊
疋
疎
疏
疑
疒
疕
疗
疚
疝
疢
疣
疤
疥
疫
疯
疱
疲
疳
疴
疵
疸
疹
疼
疽
疾
疿
痁
痂
痃
病
症
痊
痍
痎
痏
痒
痓
痔
痕
痘
痙
痛
痞
痠
痢
痣
痤
痩
痰
痲
痴
痹
痺
痼
痾
痿
瘀
瘁
瘂
瘇
瘉
瘋
瘍
瘓
瘕
瘖
瘙
瘛
瘝
瘟
瘠
瘡
瘤
瘥
瘦
瘧
瘫
瘰
瘲
瘳
瘴
瘵
瘻
瘼
療
癃
癆
癇
癈
癉
癌
癎
癒
癖
癘
癞
癡
癢
癥
癧
癨
癩
癪
癫
癬
癭
癯
癰
癱
癲
癶
癸
発
登
發
白
百
皀
皁
皂
皃
的
皆
皇
皋
皎
皐
皓
皖
皙
皚
皛
皝
皞
皤
皥
皬
皭
皮
皰
皴
皷
皺
皿
盂
盃
盆
盈
益
盌
盍
盎
盏
盐
监
盒
盖
盗
盘
盙
盛
盜
盝
盞
盟
盡
監
盤
盥
盦
盧
盪
盫
盭
目
盱
盲
直
相
盺
盻
盼
盾
眀
省
眂
眄
眇
眈
眉
眊
看
県
眚
眛
眞
真
眠
眥
眩
眯
眴
眶
眷
眸
眹
眺
眼
眾
着
睁
睄
睅
睇
睊
睋
睎
睒
睕
睚
睛
睜
睟
睠
睡
睢
督
睦
睨
睩
睪
睫
睬
睹
睺
睽
睾
睿
瞄
瞋
瞍
瞎
瞑
瞒
瞞
瞠
瞢
瞥
瞧
瞩
瞬
瞭
瞮
瞰
瞱
瞳
瞷
瞻
瞼
瞽
瞿
矇
矌
矍
矑
矓
矗
矚
矛
矜
矟
矢
矣
知
矧
矩
矫
短
矮
矯
矰
石
矻
矼
矿
码
砂
砌
砍
砒
研
砕
砖
砚
砥
砦
砧
砬
砭
砮
砲
破
砸
础
硃
硅
硊
硏
硐
硕
硜
硝
硡
硤
硫
硬
确
硯
硼
硾
碁
碃
碇
碌
碍
碎
碏
碑
碓
碕
碗
碚
碞
碟
碣
碧
碩
碭
碰
碱
確
碼
碾
磁
磅
磈
磊
磋
磎
磏
磐
磑
磔
磚
磢
磤
磧
磨
磬
磯
磲
磴
磵
磷
磺
磻
磼
磽
磾
磿
礁
礈
礉
礎
礒
礖
礙
礛
礥
礦
礧
礨
礩
礪
礫
礬
礮
礱
礴
礵
示
礻
礼
礽
社
祀
祁
祄
祅
祆
祇
祈
祉
祊
祎
祏
祐
祓
祔
祕
祖
祗
祘
祚
祛
祜
祝
神
祟
祠
祢
祥
祦
祧
票
祫
祬
祭
祯
祲
祷
祸
祹
祺
祼
祿
禀
禁
禄
禅
禊
禋
禍
禎
福
禑
禔
禕
禖
禘
禛
禜
禝
禡
禥
禦
禧
禨
禩
禪
禫
禮
禯
禰
禱
禳
禶
禸
禹
禺
离
禽
禾
禿
秀
私
秅
秉
秊
秋
秌
种
科
秒
秔
秕
秖
秘
秛
秞
租
秣
秤
秦
秧
秩
秪
秫
秬
积
称
秸
移
稀
稅
稈
程
稌
稍
税
稏
稑
稔
稗
稙
稚
稛
稜
稟
稠
稡
稣
稧
種
稯
稱
稲
稳
稵
稶
稷
稹
稻
稼
稽
稾
稿
穀
穂
穄
穅
穆
穈
穉
穌
積
穎
穏
穗
穜
穟
穠
穡
穢
穣
穦
穧
穩
穫
穰
穳
穴
究
穷
穹
空
穽
穿
突
窃
窄
窅
窆
窈
窌
窑
窒
窓
窕
窖
窗
窘
窜
窝
窟
窠
窦
窩
窪
窮
窯
窰
窳
窶
窺
窿
竁
竄
竅
竆
竇
竈
竉
竊
立
竑
竗
站
竚
竜
竝
竞
竟
章
竢
竣
童
竦
竩
竪
竭
端
竱
競
竷
竸
竹
竺
竽
竿
笁
笄
笈
笋
笏
笑
笔
笙
笛
笞
笟
笠
笥
符
笨
第
笭
笳
笴
笵
笹
笼
筅
筆
筇
等
筋
筌
筍
筏
筐
筑
筒
答
策
筠
筤
筥
筦
筧
筩
筬
筭
筮
筯
筰
筱
筲
筴
筵
筹
筽
签
简
箂
箇
箋
箍
箎
箏
箒
箔
箕
算
箚
箜
箝
箠
管
箫
箬
箭
箱
箲
箴
箸
箾
節
篁
範
篆
篇
篈
築
篊
篋
篌
篒
篘
篚
篝
篠
篤
篥
篦
篩
篪
篭
篮
篳
篷
簀
簇
簋
簑
簒
簔
簞
簟
簠
簡
簦
簧
簪
簫
簳
簷
簸
簽
簾
簿
籀
籁
籃
籈
籌
籍
籐
籒
籔
籕
籖
籙
籟
籠
籢
籤
籥
籩
籬
籲
米
类
籾
粃
粉
粋
粍
粑
粒
粕
粗
粘
粛
粟
粢
粤
粥
粦
粧
粮
粱
粲
粳
粵
粹
粻
粼
粽
精
糅
糇
糊
糍
糓
糕
糖
糗
糙
糚
糜
糞
糟
糠
糧
糯
糲
糴
糶
糸
糹
系
糼
糾
紀
紂
紃
約
紅
紆
紇
紈
紉
紊
紋
納
紏
紐
紓
純
紕
紗
紘
紙
級
紛
紜
紝
紞
素
紡
索
紧
紫
紬
紮
累
細
紱
紲
紳
紵
紹
紺
紼
紿
絀
絁
終
絃
組
絅
絆
経
絏
結
絓
絕
絖
絘
絜
絝
絞
絡
絢
給
絨
絪
絫
絮
絰
統
絲
絳
絵
絶
絹
絺
絿
綁
綃
綅
綆
綉
綍
綎
綏
經
綖
継
続
綜
綝
綠
綢
綦
綩
綫
綬
維
綰
綱
網
綴
綵
綸
綺
綻
綽
綾
綿
緄
緇
緊
緋
緌
総
緑
緒
緖
緗
緘
線
緜
緝
緞
締
緡
緣
緤
緦
編
緩
緬
緯
緱
緲
練
緹
緻
緼
縁
縂
縄
縇
縈
縉
縊
縋
縐
縑
縓
縕
縗
縛
縝
縞
縟
縠
縡
縢
縣
縦
縫
縮
縯
縰
縱
縲
縳
縷
縹
縻
總
績
繁
繂
繄
繆
繇
繊
繋
繍
繐
繒
織
繕
繖
繗
繙
繚
繞
繡
繥
繩
繪
繫
繭
繰
繳
繹
繻
繼
繽
纁
纂
纆
纇
纈
纊
續
纍
纎
纏
纓
纔
纖
纘
纛
纜
纠
红
纣
纤
约
级
纪
纯
纱
纲
纳
纵
纶
纷
纸
纹
纺
纽
纾
线
练
组
细
织
终
绍
经
绑
结
绕
绘
给
络
绝
统
绡
绣
绥
继
绩
绪
续
维
绵
绶
综
绿
缇
缉
缐
缓
编
缘
缚
缠
缩
缭
缴
缶
缸
缺
缽
缾
缿
罃
罄
罅
罇
罍
罏
罐
网
罒
罔
罕
罗
罘
罚
罝
罟
罡
罢
罣
罩
罪
置
罰
署
罵
罷
罹
罻
罽
罿
羁
羂
羃
羅
羆
羇
羈
羊
羋
羌
美
羑
羔
羕
羖
羚
羝
羞
羡
羢
羣
群
羨
義
羯
羲
羵
羶
羸
羹
羽
羾
羿
翀
翁
翂
翃
翄
翅
翊
翌
翎
習
翔
翕
翛
翟
翠
翡
翣
翥
翦
翧
翨
翩
翪
翫
翬
翮
翯
翰
翱
翳
翶
翹
翺
翻
翼
翽
翿
耀
老
考
耄
者
耆
耇
耈
耉
耋
而
耍
耐
耑
耒
耔
耕
耗
耘
耙
耜
耡
耣
耤
耦
耨
耬
耰
耳
耶
耸
耻
耼
耽
耿
聂
聃
聆
聊
聋
职
联
聖
聘
聚
聞
聡
聤
聪
聯
聰
聱
聲
聳
聴
聵
聶
職
聸
聽
聾
聿
肀
肃
肄
肅
肆
肇
肉
肋
肌
肓
肖
肘
肚
肛
肜
肝
肠
股
肢
肤
肥
肩
肪
肫
肭
肮
肯
肰
肱
育
肴
肹
肺
肾
肿
胃
胄
胆
胊
背
胎
胖
胙
胚
胛
胜
胝
胞
胡
胤
胥
胧
胭
胯
胰
胱
胳
胴
胶
胷
胸
胺
能
脁
脂
脅
脆
脇
脈
脉
脊
脑
脖
脘
脚
脛
脞
脣
脩
脫
脯
脰
脱
脳
脸
脹
脾
腆
腇
腊
腋
腍
腎
腏
腐
腑
腓
腔
腕
腠
腥
腦
腫
腭
腮
腰
腱
腳
腴
腶
腸
腹
腺
腾
腿
膀
膂
膃
膇
膈
膊
膋
膏
膓
膘
膚
膜
膝
膠
膣
膧
膨
膩
膰
膳
膴
膵
膺
膻
膽
膾
膿
臀
臂
臆
臉
臍
臏
臓
臘
臙
臚
臝
臞
臟
臠
臣
臥
臧
臨
自
臬
臭
臯
臲
至
致
臺
臻
臼
臽
臾
舁
舂
舃
舅
舆
與
興
舉
舊
舌
舍
舎
舐
舒
舖
舗
舘
舛
舜
舞
舟
舠
舡
舩
航
舫
般
舱
舲
舴
舵
舶
舷
舸
船
舺
艀
艄
艇
艋
艑
艘
艙
艟
艣
艤
艦
艨
艪
艫
艭
艮
良
艰
艱
色
艳
艶
艷
艸
艹
艺
艾
节
芄
芈
芊
芋
芍
芎
芑
芒
芙
芚
芜
芝
芟
芠
芡
芣
芥
芦
芩
芪
芬
芭
芮
芯
芰
花
芳
芷
芸
芹
芻
芼
芽
芾
芿
苅
苍
苏
苐
苑
苒
苓
苔
苕
苗
苛
苜
苞
苟
苡
苢
苣
若
苦
苧
苨
苩
苫
苯
英
苳
苴
苹
苺
苻
苼
苾
茀
茁
茂
范
茄
茅
茆
茇
茉
茎
茗
茛
茜
茝
茞
茣
茧
茨
茫
茭
茯
茱
茲
茵
茶
茸
茹
荀
荃
荄
荅
荆
荇
荈
草
荊
荏
荐
荒
荔
荘
荛
荣
药
荳
荴
荷
荻
荼
荽
荿
莅
莆
莉
莊
莎
莒
莓
莖
莘
莚
莞
莠
莢
莧
莩
莪
莫
莯
莱
莲
莵
获
莹
莽
莾
菀
菁
菅
菇
菉
菊
菌
菏
菑
菓
菖
菘
菜
菟
菠
菡
菣
菩
菫
華
菰
菱
菲
菴
菸
菹
菼
菽
萁
萃
萄
萇
萊
萋
萌
萍
萎
萏
萑
萝
萤
营
萦
萧
萨
萩
萬
萱
萴
萵
萸
萼
落
葅
葆
葈
葉
葑
葒
葕
著
葛
葡
董
葦
葩
葫
葬
葭
葯
葱
葳
葵
葶
葷
葺
蒂
蒋
蒐
蒓
蒔
蒕
蒗
蒙
蒜
蒞
蒡
蒤
蒨
蒭
蒯
蒲
蒴
蒸
蒹
蒺
蒼
蒿
蓀
蓁
蓂
蓄
蓆
蓇
蓉
蓊
蓋
蓍
蓏
蓐
蓑
蓖
蓙
蓝
蓧
蓨
蓬
蓮
蓯
蓰
蓴
蓼
蓽
蓿
蔀
蔂
蔆
蔇
蔑
蔓
蔔
蔗
蔘
蔚
蔞
蔡
蔣
蔥
蔦
蔬
蔭
蔲
蔵
蔽
蔿
蕁
蕃
蕅
蕆
蕈
蕉
蕊
蕎
蕓
蕕
蕖
蕗
蕘
蕙
蕡
蕢
蕤
蕨
蕩
蕪
蕫
蕭
蕰
蕴
蕷
蕺
蕾
薀
薄
薆
薇
薈
薉
薊
薌
薍
薏
薑
薔
薖
薗
薙
薛
薜
薟
薤
薥
薦
薨
薩
薪
薫
薬
薮
薯
薰
薱
薲
薹
薺
薿
藁
藉
藍
藎
藏
藐
藕
藜
藝
藟
藤
藥
藩
藪
藫
藭
藴
藶
藷
藹
藺
藻
藼
藿
蘂
蘄
蘅
蘆
蘇
蘉
蘊
蘋
蘑
蘓
蘖
蘗
蘘
蘚
蘞
蘢
蘤
蘧
蘩
蘫
蘬
蘭
蘷
蘸
蘺
蘼
蘿
虀
虁
虆
虋
虍
虎
虐
虑
虔
處
虖
虚
虛
虜
虞
號
虢
虧
虫
虬
虯
虱
虵
虹
虺
虻
虽
虾
蚁
蚂
蚊
蚌
蚓
蚕
蚖
蚝
蚡
蚣
蚤
蚩
蚪
蚵
蚶
蛆
蛇
蛉
蛊
蛋
蛍
蛑
蛔
蛙
蛛
蛟
蛣
蛤
蛦
蛩
蛭
蛮
蛰
蛸
蛹
蛻
蛾
蜀
蜂
蜃
蜆
蜇
蜈
蜊
蜋
蜌
蜍
蜒
蜓
蜕
蜗
蜘
蜚
蜜
蜞
蜡
蜥
蜨
蜮
蜴
蜷
蜺
蜻
蜾
蜿
蝇
蝉
蝌
蝍
蝎
蝕
蝗
蝘
蝙
蝟
蝠
蝤
蝥
蝦
蝨
蝯
蝱
蝴
蝶
蝸
蝽
螂
螃
螄
融
螖
螘
螟
螢
螫
螭
螯
螳
螵
螺
螻
螽
蟀
蟄
蟆
蟋
蟒
蟙
蟛
蟠
蟧
蟬
蟲
蟳
蟶
蟹
蟻
蟾
蠃
蠅
蠆
蠌
蠍
蠎
蠏
蠐
蠔
蠕
蠖
蠙
蠟
蠡
蠢
蠣
蠧
蠭
蠯
蠱
蠲
蠶
蠹
蠻
血
衁
衃
衄
衅
衆
衇
衊
行
衍
衎
衒
術
街
衙
衛
衜
衝
衞
衡
衢
衣
衤
补
表
衫
衬
衮
衰
衲
衷
衹
衽
衾
衿
袁
袂
袄
袈
袋
袍
袎
袒
袓
袖
袗
袜
袝
袞
袢
袤
袨
袪
被
袭
袱
袳
袴
袵
袷
袹
袽
袿
裁
裂
装
裊
裏
裒
裔
裕
裘
裙
補
裝
裟
裡
裤
裨
裯
裳
裴
裵
裶
裸
裹
裼
製
裾
褂
褄
褆
複
褊
褐
褒
褓
褘
褙
褚
褡
褢
褥
褧
褪
褫
褭
褰
褱
褲
褶
褸
褻
襁
襃
襄
襆
襈
襌
襍
襑
襖
襚
襜
襞
襟
襤
襦
襨
襪
襮
襯
襲
襴
襻
襾
西
覀
要
覃
覆
覇
覈
覊
見
規
覓
覔
視
覗
覘
覚
覡
覧
覩
親
覯
覰
覲
観
覺
覽
覿
觀
见
观
规
视
览
觉
觊
觎
角
觔
觕
觚
觜
觝
解
觥
触
觧
觱
觴
觶
觸
言
訂
訃
訇
計
訊
訌
討
訏
訐
訑
訒
訓
訔
訕
訖
託
記
訛
訝
訟
訢
訣
訥
訪
設
許
訳
訴
訶
診
註
証
訾
訿
詁
詃
詆
詈
詎
詐
詑
詒
詔
評
詖
詗
詘
詛
詝
詞
詠
詡
詢
詣
詥
試
詩
詫
詬
詭
詮
詰
話
該
詳
詵
詹
詻
詼
詾
詿
誂
誄
誅
誇
誉
誌
認
誑
誒
誓
誕
誘
誚
語
誠
誡
誣
誤
誥
誦
誧
誨
說
説
読
誰
課
誴
誹
誼
誾
調
諂
諄
談
請
諍
諏
諐
諒
論
諗
諛
諜
諝
諟
諠
諡
諤
諦
諧
諪
諫
諭
諮
諰
諱
諲
諴
諶
諷
諸
諺
諼
諾
諿
謀
謁
謂
謄
謇
謎
謏
謐
謔
謖
謗
謙
謚
講
謝
謟
謠
謡
謦
謨
謩
謫
謬
謮
謳
謷
謹
謾
譁
譆
證
譍
譎
譏
譓
譔
譖
識
譙
譚
譜
譞
譟
警
譫
譬
譯
議
譱
譲
譴
護
譹
譽
讀
讃
讄
變
讌
讎
讐
讒
讓
讔
讖
讙
讚
讜
讞
计
订
认
讨
让
训
议
讯
记
讲
许
论
讼
设
访
诀
证
诂
评
识
诉
诊
词
诏
译
诒
试
诗
诚
诛
话
诠
诡
询
该
详
语
误
诱
说
诶
请
诸
诹
诺
读
课
谁
调
谄
谅
谈
谊
谐
谑
谓
谚
谜
谢
谦
谨
谭
谱
谷
谺
谼
谿
豁
豆
豈
豉
豊
豌
豎
豐
豔
豕
豖
豗
豚
象
豢
豨
豪
豫
豬
豰
豳
豷
豸
豹
豺
豽
貂
貅
貆
貉
貊
貌
貍
貐
貓
貔
貕
貘
貙
貝
貞
負
財
貢
貣
貧
貨
販
貪
貫
責
貯
貰
貲
貳
貴
貶
買
貸
貺
費
貼
貽
貿
賀
賁
賂
賃
賄
賅
資
賈
賊
賏
賑
賓
賖
賚
賛
賜
賞
賠
賡
賢
賣
賤
賦
質
賫
賬
賭
賴
賵
賷
賸
賺
賻
購
賽
賾
贄
贅
贇
贈
贊
贍
贏
贐
贒
贓
贔
贖
贗
贛
贜
贝
负
贡
财
责
贤
败
账
货
质
贫
贬
购
贯
贱
贲
贴
贵
贶
贷
贸
费
贺
贼
贾
赁
资
赈
赋
赌
赏
赐
赔
赖
赛
赞
赢
赣
赤
赦
赧
赫
赬
赭
走
赳
赴
赵
赶
起
赾
趀
趁
趂
趄
超
越
趋
趌
趍
趑
趕
趙
趡
趣
趦
趨
趯
趲
足
趺
趼
趾
跂
跃
跆
跋
跌
跎
跏
跑
跕
跖
跗
跚
跛
距
跟
跡
跣
跨
跪
跫
路
跳
践
踆
踈
踊
踏
踐
踔
踖
踝
踞
踟
踢
踧
踩
踪
踰
踳
踵
踶
踹
踼
踽
蹀
蹂
蹄
蹇
蹈
蹉
蹊
蹋
蹌
蹏
蹕
蹙
蹟
蹠
蹣
蹤
蹩
蹬
蹭
蹯
蹲
蹴
蹶
蹹
蹻
躁
躅
躇
躊
躋
躍
躐
躑
躓
躔
躕
躡
躧
躪
身
躬
躯
躰
躲
躺
躽
躾
軀
軆
車
軋
軌
軍
軏
軒
軔
軛
軟
転
軨
軫
軸
軹
軺
軻
軼
軽
軾
較
輅
輇
輈
載
輊
輐
輒
輓
輔
輕
輗
輘
輛
輜
輝
輞
輟
輦
輩
輪
輬
輯
輳
輴
輸
輻
輾
輿
轀
轂
轃
轄
轅
轆
轇
轉
轍
轎
轓
轔
轕
轘
轛
轝
轟
轡
轢
轤
车
轨
轩
转
轮
软
轰
轻
载
较
辅
辆
辈
辉
辑
输
辕
辖
辛
辜
辞
辟
辣
辤
辦
辨
辩
辭
辮
辯
辰
辱
農
辵
辶
边
辺
辻
込
辽
达
辿
迁
迂
迃
迄
迅
过
迈
迍
迎
运
近
迓
返
迕
还
这
进
远
违
连
迟
迢
迤
迥
迦
迨
迪
迫
迬
迭
迮
述
迴
迷
迸
迹
迺
迻
追
迿
退
送
适
逃
逄
逅
逆
逈
选
逊
逋
逌
逍
透
逐
逑
递
途
逕
逖
逗
這
通
逝
逞
速
造
逡
逢
連
逬
逮
逯
週
進
逵
逶
逸
逹
逺
逻
逼
逾
遁
遂
遄
遅
遆
遇
遊
運
遍
過
遏
遐
遑
遒
道
達
違
遗
遘
遙
遜
遞
遠
遡
遣
遥
遨
適
遫
遭
遮
遯
遲
遵
遶
遷
選
遹
遺
遼
遽
遾
避
邀
邁
邂
邃
還
邅
邇
邈
邉
邊
邏
邑
邓
邕
邗
邙
邛
邠
邢
那
邦
邨
邪
邮
邯
邰
邱
邲
邳
邴
邵
邶
邸
邹
邻
邽
邾
郁
郃
郄
郅
郇
郈
郊
郎
郑
郗
郛
郜
郝
郞
郟
郡
郢
郤
部
郫
郭
郯
郱
郳
郴
郵
郷
郸
都
郾
郿
鄀
鄂
鄄
鄆
鄉
鄍
鄏
鄒
鄔
鄕
鄖
鄗
鄘
鄙
鄚
鄜
鄠
鄢
鄣
鄧
鄪
鄫
鄭
鄮
鄯
鄰
鄱
鄲
鄴
鄶
鄹
酆
酇
酈
酉
酊
酋
酌
配
酎
酒
酔
酖
酗
酡
酢
酣
酤
酥
酩
酪
酬
酱
酲
酳
酵
酷
酸
酹
酺
酿
醃
醅
醆
醇
醉
醋
醍
醎
醐
醑
醒
醜
醞
醢
醣
醤
醨
醪
醫
醬
醮
醯
醱
醳
醴
醵
醸
釀
釁
釂
釆
采
釈
釉
释
釋
里
重
野
量
釐
金
釖
釗
釘
釛
釜
針
釟
釣
釤
釥
釧
釩
釭
釰
釴
釵
鈀
鈁
鈇
鈍
鈎
鈏
鈐
鈑
鈒
鈔
鈕
鈗
鈜
鈞
鈣
鈨
鈴
鈵
鈸
鈹
鈺
鈾
鈿
鉀
鉄
鉅
鉉
鉏
鉐
鉗
鉛
鉞
鉢
鉤
鉦
鉱
鉴
鉷
鉸
鉽
鉾
銀
銃
銅
銈
銋
銌
銍
銑
銓
銕
銖
銘
銚
銛
銜
銭
銮
銳
銶
銷
銹
銼
鋈
鋋
鋌
鋏
鋐
鋒
鋗
鋟
鋤
鋥
鋧
鋩
鋪
鋭
鋮
鋳
鋸
鋹
鋼
鋿
錀
錄
錆
錐
錘
錙
錚
錞
錠
錡
錢
錣
錤
錥
錦
錨
錪
錫
錬
錭
錮
錯
録
鍇
鍈
鍉
鍊
鍋
鍍
鍑
鍒
鍔
鍛
鍠
鍤
鍥
鍦
鍪
鍬
鍮
鍰
鍴
鍵
鍼
鍾
鎌
鎏
鎔
鎖
鎗
鎚
鎛
鎣
鎧
鎬
鎭
鎮
鎰
鎲
鎳
鎸
鎻
鏁
鏃
鏄
鏈
鏊
鏍
鏐
鏑
鏕
鏗
鏘
鏜
鏞
鏟
鏡
鏢
鏤
鏬
鏴
鏵
鏶
鏻
鏽
鐃
鐐
鐔
鐘
鐙
鐡
鐥
鐫
鐲
鐴
鐵
鐸
鐺
鐽
鑄
鑊
鑌
鑑
鑒
鑕
鑚
鑛
鑞
鑠
鑢
鑣
鑨
鑪
鑫
鑮
鑰
鑱
鑲
鑴
鑵
鑷
鑼
鑽
鑾
鑿
针
钉
钊
钟
钢
钦
钧
钩
钭
钱
钺
钻
钿
铀
铁
铃
铅
铓
铨
铭
银
铸
铺
链
销
锁
锄
锅
锈
锋
锏
错
锡
锣
锤
锥
锦
键
锻
镇
镛
镜
镳
長
长
門
閃
閇
閈
閉
開
閌
閎
閏
閑
閒
間
閔
閘
閙
閟
関
閣
閤
閥
閦
閨
閩
閫
閬
閭
閱
閲
閶
閷
閹
閻
閼
閽
閾
闃
闇
闈
闉
闊
闋
闌
闍
闐
闓
闔
闕
闖
闗
闘
闚
關
闞
闟
闡
闢
闥
门
闪
闭
问
闲
间
闷
闹
闺
闻
闽
闾
阁
阅
阎
阐
阑
阜
阝
阞
队
阡
阤
阨
阪
阬
阮
阯
阱
防
阳
阴
阵
阶
阸
阻
阼
阽
阿
陀
陁
陂
附
际
陆
陇
陈
陋
陌
降
限
陔
陕
陘
陛
陜
陝
陞
陟
陡
院
陣
除
陥
陨
险
陪
陬
陰
陲
陳
陴
陵
陶
陷
陸
険
陽
隂
隃
隄
隅
隆
隈
隊
隋
隍
階
随
隐
隔
隕
隗
隘
隙
際
障
隠
隣
隤
隥
隧
隨
隩
險
隰
隱
隳
隴
隶
隷
隸
隹
隺
隻
隼
难
雀
雁
雄
雅
集
雇
雉
雊
雋
雌
雍
雎
雑
雒
雕
雖
雘
雙
雚
雛
雜
雝
雞
離
難
雨
雩
雪
雫
雯
雰
雱
雲
雴
雵
零
雷
雹
電
雾
需
霂
霄
霅
霆
震
霈
霉
霊
霍
霎
霏
霑
霓
霔
霖
霙
霜
霞
霢
霤
霦
霧
霭
霮
霰
霱
露
霶
霸
霹
霽
霾
靂
靄
靈
靉
靌
靑
青
靖
静
靚
靛
靜
非
靠
靡
面
靨
革
靬
靭
靳
靴
靶
靷
靸
靺
靼
鞀
鞄
鞅
鞆
鞉
鞋
鞍
鞏
鞔
鞘
鞜
鞞
鞠
鞦
鞨
鞫
鞬
鞭
鞮
鞵
鞸
鞾
鞿
韁
韃
韅
韆
韈
韋
韓
韔
韜
韞
韠
韡
韤
韦
韧
韩
韬
韭
韮
韱
韲
音
韵
韶
韺
韻
韽
響
頀
頁
頂
頃
項
順
須
頉
頊
頌
頍
頎
頏
預
頑
頒
頓
頔
頗
領
頠
頡
頣
頤
頥
頫
頬
頭
頯
頰
頲
頳
頵
頷
頸
頹
頻
頼
顆
顈
顋
題
額
顎
顏
顒
顓
顔
顕
顖
顗
願
顙
顚
顛
類
顥
顧
顪
顯
顱
顴
页
顶
项
顺
须
顼
顾
顿
颁
颂
预
领
颈
颐
频
颖
颗
题
颛
颜
额
颠
風
颯
颱
颶
颷
颺
颻
颼
飄
飅
飆
飇
飊
飌
风
飏
飘
飛
飜
飞
食
飠
飡
飢
飣
飥
飨
飩
飪
飫
飭
飮
飯
飱
飲
飴
飼
飽
飾
餂
餃
餅
餉
養
餌
餐
餒
餓
餔
餗
餘
餙
餛
餞
餟
餠
餡
餧
館
餬
餮
餰
餳
餼
餽
饃
饅
饉
饋
饌
饍
饎
饑
饒
饔
饕
饗
饙
饜
饞
饟
饨
饩
饭
饮
饰
饱
饵
饶
饷
饺
饼
饿
馄
馆
馍
馒
首
馗
馘
香
馝
馠
馣
馥
馦
馧
馨
馪
馫
馬
馭
馮
馰
馱
馳
馴
馹
駁
駃
駄
駅
駆
駈
駏
駐
駑
駒
駕
駘
駙
駛
駝
駞
駟
駢
駭
駮
駰
駱
駸
駼
駿
騁
騂
騃
騄
騅
騈
騊
騎
騏
騑
騒
験
騖
騙
騞
騠
騣
騤
騧
騨
騩
騫
騭
騮
騰
騵
騶
騷
騾
驁
驂
驃
驄
驅
驆
驊
驌
驍
驎
驕
驗
驚
驛
驟
驢
驤
驥
驦
驩
驪
驫
马
驰
驱
驳
驴
驶
驼
驾
骁
骄
骆
验
骏
骑
骗
骚
骞
骡
骥
骨
骫
骷
骸
骼
骾
髀
髃
髄
髊
髎
髏
髑
髒
髓
體
髕
高
髙
髟
髡
髢
髣
髥
髦
髪
髫
髭
髮
髯
髴
髷
髹
髺
髻
鬂
鬃
鬅
鬆
鬋
鬐
鬘
鬙
鬚
鬛
鬟
鬢
鬣
鬥
鬧
鬨
鬩
鬪
鬭
鬯
鬱
鬲
鬴
鬷
鬻
鬼
魁
魂
魃
魄
魅
魉
魍
魎
魏
魑
魔
魘
魚
魛
魜
魨
魪
魬
魮
魯
魱
魴
魶
魼
魽
魾
鮀
鮆
鮎
鮐
鮑
鮒
鮓
鮚
鮝
鮟
鮠
鮣
鮤
鮧
鮨
鮪
鮫
鮭
鮮
鮰
鮸
鮹
鯀
鯁
鯆
鯈
鯉
鯊
鯔
鯖
鯛
鯢
鯤
鯦
鯨
鯫
鯰
鯱
鯷
鯸
鯼
鯿
鰂
鰅
鰇
鰈
鰋
鰌
鰍
鰐
鰒
鰓
鰕
鰗
鰜
鰝
鰞
鰡
鰣
鰥
鰨
鰩
鰫
鰬
鰭
鰮
鰱
鰲
鰻
鰼
鰽
鰾
鱀
鱁
鱄
鱆
鱇
鱉
鱋
鱏
鱐
鱑
鱒
鱓
鱕
鱖
鱗
鱘
鱝
鱠
鱡
鱣
鱧
鱭
鱴
鱵
鱷
鱸
鱺
鱼
鱾
鱿
鲁
鲍
鲜
鲤
鳄
鳞
鳤
鳥
鳧
鳩
鳯
鳳
鳴
鳶
鴂
鴃
鴆
鴈
鴉
鴎
鴒
鴛
鴞
鴟
鴣
鴥
鴦
鴨
鴬
鴳
鴻
鴿
鵂
鵄
鵑
鵒
鵘
鵜
鵝
鵞
鵠
鵡
鵩
鵬
鵯
鵰
鵲
鵷
鵺
鶂
鶇
鶉
鶋
鶏
鶖
鶗
鶚
鶡
鶢
鶩
鶯
鶱
鶴
鶹
鶺
鶻
鶿
鷀
鷁
鷂
鷃
鷄
鷇
鷓
鷗
鷙
鷞
鷦
鷧
鷫
鷯
鷰
鷲
鷴
鷹
鷺
鸇
鸎
鸐
鸔
鸕
鸚
鸛
鸜
鸞
鸟
鸡
鸣
鸦
鸭
鸯
鸳
鸿
鹅
鹊
鹏
鹤
鹰
鹵
鹸
鹹
鹺
鹻
鹽
鹿
麀
麁
麂
麃
麈
麋
麒
麓
麕
麗
麚
麝
麞
麟
麤
麥
麦
麩
麪
麫
麬
麮
麯
麰
麴
麵
麺
麻
麼
麽
麾
麿
黃
黄
黌
黍
黎
黏
黑
黒
黔
默
黙
黛
黜
點
黠
黥
黧
黨
黮
黯
黰
黲
黴
黷
黹
黻
黼
黽
黿
鼂
鼇
鼈
鼉
鼎
鼏
鼐
鼓
鼔
鼕
鼙
鼠
鼣
鼬
鼯
鼻
齊
齋
齎
齐
齒
齓
齕
齗
齟
齡
齢
齧
齪
齬
齮
齲
齶
齷
龄
龌
龍
龐
龑
龒
龔
龕
龙
龚
龜
龟
龠
ꀌ
ꀍ
ꀘ
ꀙ
ꀾ
ꂶ
ꃅ
ꃋ
ꃍ
ꃚ
ꃪ
ꃰ
ꃳ
ꃼ
ꄃ
ꆚ
ꆧ
ꇤ
ꇳ
ꇴ
ꇵ
ꈊ
ꈍ
ꈨ
ꉂ
ꉺ
ꊉ
ꊒ
ꊓ
ꊔ
ꊕ
ꊨ
ꋮ
ꋯ
ꌂ
ꎁ
ꎇ
ꎴ
ꎿ
ꒉ
꒒
꒦
꒨
꒩
꒪
꒫
꒰
꒱
꒳
꒵
꒶
꓆
ꔛ
ꔣ
ꔬ
ꔷ
ꕀ
ꕤ
ꖶ
ꗯ
꘍
Ꙩ
ꙩ
Ꙫ
Ꙭ
꙰
꙳
ꙻ
꙼
꜀
꜄
꜆
ꜣ
ꜱ
ꞏ
ꞵ
꠆
ꠇ
ꠏ
ꠓ
ꠥ
ꡒ
ꡓ
ꡔ
ꡕ
ꢭ
ꥢ
ꦿ
꧁
꧂
ꨄ
ꩀ
ꪑ
ꪔ
ꪝ
ꯁ
가
각
갂
갃
간
갅
갇
갈
갉
갊
갋
갌
갏
감
갑
값
갓
갔
강
갖
갗
갘
같
갚
갛
개
객
갞
갠
갣
갤
갥
갫
갬
갭
갯
갰
갱
갲
갳
갴
갶
갸
갹
갺
갼
갽
갾
갿
걀
걁
걈
걉
걋
걌
걍
걐
걑
걓
걔
걕
걘
걛
걜
걤
걩
걯
거
걱
걲
건
걵
걷
걸
걺
걽
검
겁
겂
것
겄
겅
겆
겇
겈
겉
겊
겋
게
겍
겎
겐
겒
겓
겔
겙
겜
겝
겟
겠
겡
겢
겣
겤
겥
겧
겨
격
겪
견
겮
겯
결
겱
겷
겸
겹
겺
겻
겼
경
겾
곀
곁
곂
곃
계
곅
곈
곌
곑
곓
곔
곕
곗
곘
곙
곜
고
곡
곢
곤
곧
골
곩
곪
곫
곬
곯
곰
곱
곳
곴
공
곶
곷
곸
곹
곺
곻
과
곽
곾
관
괂
괃
괄
괋
괌
괍
괎
괏
광
괒
괕
괗
괘
괙
괜
괞
괠
괦
괧
괨
괬
괭
괴
괵
괸
괼
괿
굄
굇
굉
굌
굎
교
굑
굔
굗
굘
굠
굡
굣
굤
굥
굨
구
국
굮
굯
군
굱
굲
굳
굴
굵
굶
굷
굺
굻
굼
굽
굿
궀
궁
궂
궃
궄
궅
궆
궇
궈
궉
권
궐
궘
궙
궛
궜
궝
궞
궤
궨
궱
궷
궸
귀
귁
귄
귅
귇
귈
귌
귏
귐
귑
귓
귔
귕
귖
귗
귘
규
귝
균
귡
귣
귤
귥
귦
귬
귭
귯
귱
귳
귴
귵
귷
그
극
귺
귻
근
귾
귿
글
긁
긂
긇
금
급
긋
긌
긍
긎
긏
긐
긑
긒
긓
긔
긕
긘
긜
긝
긤
긧
긩
긬
긭
기
긱
긲
긳
긴
긷
길
긺
긼
긽
긿
김
깁
깂
깃
깄
깅
깆
깇
깈
깉
깊
깋
까
깍
깎
깐
깓
깔
깕
깖
깙
깜
깝
깞
깟
깠
깡
깢
깣
깤
깥
깧
깨
깩
깪
깬
깯
깰
깵
깷
깸
깹
깻
깼
깽
꺀
꺂
꺄
꺅
꺆
꺈
꺋
꺌
꺍
꺎
꺔
꺗
꺘
꺙
꺚
꺜
꺟
꺠
꺤
꺦
꺨
꺳
꺴
꺵
꺶
꺹
꺼
꺽
꺾
껀
껄
껇
껌
껍
껏
껐
껑
껒
껔
껕
껗
께
껙
껚
껜
껠
껡
껥
껨
껩
껫
껬
껭
껯
껰
껳
껴
껵
껶
껸
껼
껽
꼄
꼅
꼇
꼈
꼉
꼌
꼍
꼐
꼘
꼟
꼬
꼭
꼮
꼯
꼰
꼲
꼳
꼴
꼸
꼻
꼼
꼽
꼾
꼿
꽁
꽂
꽃
꽄
꽅
꽆
꽇
꽈
꽉
꽊
꽌
꽐
꽔
꽕
꽘
꽛
꽜
꽝
꽠
꽤
꽥
꽦
꽨
꽩
꽹
꾀
꾁
꾄
꾇
꾈
꾋
꾐
꾑
꾕
꾚
꾜
꾝
꾞
꾤
꾩
꾬
꾮
꾱
꾲
꾳
꾸
꾹
꾺
꾼
꾾
꾿
꿀
꿁
꿂
꿃
꿅
꿇
꿈
꿉
꿋
꿍
꿎
꿏
꿐
꿑
꿒
꿔
꿕
꿖
꿘
꿛
꿜
꿞
꿡
꿧
꿨
꿩
꿪
꿬
꿰
꿱
꿲
꿴
꿵
꿸
꿺
뀁
뀄
뀌
뀍
뀐
뀓
뀔
뀘
뀚
뀜
뀝
뀟
뀠
뀡
뀣
뀦
뀨
뀩
뀬
뀰
뀱
뀸
뀹
뀺
뀻
뀽
끃
끄
끅
끆
끈
끉
끊
끋
끌
끍
끎
끓
끔
끕
끖
끗
끘
끙
끛
끜
끝
끟
끠
끨
끰
끱
끲
끳
끵
끺
끼
끽
끾
낀
낄
낊
낌
낍
낏
낐
낑
낒
낓
낔
낕
나
낙
낚
낛
난
낞
낟
날
낡
낢
낣
낤
낧
남
납
낫
났
낭
낮
낯
낰
낱
낲
낳
내
낵
낶
낸
낼
냄
냅
냇
냈
냉
냌
냍
냎
냏
냐
냑
냒
냔
냘
냠
냡
냣
냤
냥
냦
냨
냪
냫
냬
냮
냷
냹
냼
넀
넁
넆
너
넉
넊
넋
넌
넎
넏
널
넑
넒
넓
넔
넖
넗
넘
넙
넚
넛
넜
넝
넞
넟
넠
넢
넣
네
넥
넨
넩
넫
넬
넭
넮
넳
넴
넵
넶
넷
넸
넹
넺
넼
넽
넾
넿
녀
녁
녂
녃
년
녆
녇
녈
녋
념
녑
녓
녔
녕
녘
녛
녜
녝
녠
녡
녣
녤
녨
녬
녭
녮
녯
녱
녴
노
녹
녺
녻
논
놀
놂
놃
놇
놈
놉
놋
농
놎
놏
놐
놑
높
놓
놔
놕
놘
놜
놝
놤
놥
놧
놨
놩
놬
놯
놰
놴
놷
뇄
뇌
뇏
뇐
뇔
뇗
뇜
뇝
뇟
뇠
뇨
뇩
뇪
뇬
뇰
뇵
뇸
뇹
뇻
뇽
눃
누
눅
눆
눇
눈
눉
눊
눋
눌
눔
눕
눗
눙
눚
눜
눞
눟
눠
눤
눦
눨
눫
눮
눯
눳
눴
눶
눼
눾
눿
뉍
뉑
뉓
뉘
뉙
뉜
뉠
뉨
뉩
뉫
뉬
뉭
뉴
뉵
뉸
뉹
뉻
뉼
늂
늃
늄
늅
늆
늇
늈
늉
늊
늌
늍
느
늑
늒
는
늕
늖
늗
늘
늙
늚
늛
늟
늠
늡
늣
능
늦
늨
늩
늪
늫
늬
늭
늰
늱
늴
늵
늼
늽
늿
닁
닆
니
닉
닊
닌
닎
닏
닐
닑
닒
님
닙
닛
닜
닝
닞
닟
닠
닡
닢
닣
다
닥
닦
닧
단
닪
닫
달
닭
닮
닯
닰
닱
닳
담
답
닷
닸
당
닺
닻
닼
닽
닾
닿
대
댁
댂
댃
댄
댇
댈
댉
댋
댎
댏
댐
댑
댓
댔
댕
댖
댗
댘
댙
댚
댛
댜
댝
댠
댤
댦
댩
댬
댭
댯
댱
댲
댴
댵
댷
댸
댼
덍
덐
더
덕
덖
던
덙
덛
덜
덞
덟
덣
덤
덥
덦
덧
덨
덩
덪
덫
덬
덭
덮
덯
데
덱
덴
덷
델
뎀
뎁
뎃
뎄
뎅
뎇
뎈
뎉
뎊
뎋
뎌
뎍
뎎
뎏
뎐
뎒
뎓
뎔
뎛
뎜
뎝
뎟
뎠
뎡
뎢
뎨
뎬
뎰
뎴
뎸
뎻
뎿
도
독
돆
돈
돊
돋
돌
돍
돎
돏
돐
돔
돕
돖
돗
돘
동
돚
돛
돜
돝
돞
돟
돠
돡
돢
돣
돤
돦
돨
돩
돰
돱
돳
돴
돵
돻
돼
돽
돿
됀
됃
됄
됅
됈
됋
됌
됍
됏
됐
됑
됒
됔
됗
되
됙
됛
된
됟
될
됡
됣
됨
됩
됫
됬
됭
됮
됯
됰
됳
됴
됵
됸
됻
둄
둅
둈
둉
둎
둏
두
둑
둔
둗
둘
둙
둚
둟
둠
둡
둣
둥
둦
둧
둨
둩
둫
둬
둰
둳
둴
둷
둻
둾
둿
뒀
뒁
뒂
뒄
뒅
뒈
뒉
뒋
뒐
뒖
뒗
뒘
뒙
뒜
뒝
뒠
뒤
뒥
뒨
뒩
뒪
뒫
뒬
뒮
뒴
뒵
뒷
뒸
뒹
뒿
듀
듁
듄
듈
듐
듑
듓
듕
듗
듘
드
득
듞
듟
든
듣
들
듥
듦
듧
듩
듫
듬
듭
듯
듰
등
듲
듳
듴
듵
듶
듷
듸
듼
듿
딀
딅
딈
딋
딍
딐
딑
디
딕
딘
딛
딜
딝
딠
딤
딥
딦
딧
딨
딩
딪
딫
딬
딭
딮
딯
따
딱
딲
딴
딷
딸
딹
딻
딾
딿
땀
땁
땃
땄
땅
땈
땉
땋
때
땍
땐
땓
땔
땗
땛
땜
땝
땟
땠
땡
땢
땤
땥
땦
땧
땨
땩
땬
땰
땸
땹
땽
땾
떀
떄
떇
떈
떊
떌
떔
떗
떘
떙
떟
떠
떡
떢
떤
떦
떧
떨
떪
떫
떬
떮
떯
떰
떱
떳
떴
떵
떸
떻
떼
떽
뗀
뗃
뗄
뗌
뗍
뗏
뗐
뗑
뗔
뗘
뗙
뗠
뗣
뗫
뗬
뗭
뗱
뗳
뗴
뗸
뗼
뗾
똄
똅
똇
똈
또
똑
똒
똓
똔
똗
똘
똙
똚
똟
똠
똣
똥
똧
똨
똩
똫
똬
똭
똯
똰
똳
똴
똵
똷
똻
똼
똿
뙁
뙇
뙈
뙜
뙤
뙨
뙩
뙬
뙶
뙹
뚀
뚁
뚍
뚕
뚜
뚝
뚞
뚠
뚣
뚤
뚥
뚦
뚧
뚪
뚫
뚬
뚭
뚮
뚯
뚱
뚷
뚸
뚹
뛀
뛇
뛉
뛊
뛌
뛍
뛏
뛓
뛔
뛚
뛝
뛞
뛢
뛰
뛴
뛸
뛻
뜀
뜁
뜃
뜅
뜈
뜌
뜍
뜐
뜔
뜛
뜜
뜝
뜟
뜡
뜢
뜨
뜩
뜪
뜬
뜯
뜰
뜱
뜲
뜷
뜸
뜹
뜻
뜼
뜽
뜾
뜿
띀
띁
띃
띄
띈
띌
띔
띕
띙
띚
띝
띠
띡
띤
띧
띨
띬
띭
띯
띰
띱
띳
띵
라
락
띾
란
랁
랃
랄
랅
랆
랇
람
랍
랏
랐
랑
랒
랓
랔
랕
랖
랗
래
랙
랚
랜
랞
랟
랠
랤
랧
램
랩
랪
랫
랬
랭
랰
랱
랲
랳
랴
략
랶
랸
랹
랻
랼
랿
럃
럄
럅
럇
럈
량
럐
럑
럒
럗
럘
럜
럞
럡
럣
럤
럥
럦
럫
러
럭
럮
럯
런
럱
럳
럴
럵
럶
럸
럻
럼
럽
럾
럿
렀
렁
렂
렄
렅
렆
렇
레
렉
렌
렍
렏
렐
렘
렙
렛
렜
렝
렠
렡
렣
려
력
렦
련
렪
렫
렬
렮
렯
렴
렵
렶
렷
렸
령
렺
렼
렾
렿
례
롄
롅
롈
롐
롑
롓
롔
로
록
롞
론
롡
롣
롤
롥
롫
롬
롭
롯
롰
롱
롲
롳
롴
롵
롶
롷
롸
롹
롺
롼
롿
뢀
뢁
뢈
뢉
뢋
뢌
뢍
뢔
뢜
뢡
뢥
뢨
뢰
뢱
뢴
뢸
뢽
뢾
뢿
룀
룁
룃
룄
룅
료
룍
룐
룑
룓
룔
룗
룛
룜
룝
룟
룠
룡
룥
루
룩
룬
룯
룰
룱
룳
룸
룹
룻
룽
뤀
뤂
뤄
뤅
뤈
뤌
뤑
뤔
뤕
뤗
뤘
뤙
뤠
뤡
뤤
뤧
뤨
뤰
뤱
뤳
뤸
뤼
뤽
뤿
륀
륄
륈
륌
륍
륏
륑
륔
류
륙
륚
륜
률
륨
륩
륫
륭
륮
륰
륳
르
륵
륶
륷
른
륻
를
륽
륾
륿
릂
릃
름
릅
릆
릇
릈
릉
릊
릋
릍
릎
릏
릐
릑
릒
릓
릔
릘
릞
릠
릢
릣
릥
릧
릫
리
릭
릮
린
릱
릲
릳
릴
릵
릸
릻
림
립
릿
맀
링
맂
맃
맄
맅
맆
맇
마
막
맊
만
맍
많
맏
말
맑
맒
맔
맕
맖
맗
맘
맙
맚
맛
맜
망
맞
맟
맠
맡
맢
맣
매
맥
맧
맨
맩
맫
맬
맲
맴
맵
맷
맸
맹
맺
맻
맼
맽
맿
먀
먁
먂
먄
먆
먈
먐
먑
먓
먕
먜
먤
먬
먴
머
먹
먺
먼
먽
먾
먿
멀
멂
멈
멉
멊
멋
멌
멍
멎
멏
멑
멓
메
멕
멗
멘
멚
멛
멜
멞
멡
멤
멥
멧
멨
멩
멪
멫
멬
멭
며
멱
면
멵
멷
멸
멹
멼
몀
몁
몃
몄
명
몆
몇
몈
몉
몊
몋
몌
몐
몔
몟
몡
모
목
몪
몫
몬
몭
몯
몰
몲
몳
몸
몹
몺
못
몼
몽
몿
뫀
뫂
뫃
뫄
뫅
뫆
뫈
뫌
뫐
뫔
뫖
뫘
뫙
뫜
뫠
뫡
뫬
뫯
뫰
뫼
뫾
묀
묁
묄
묏
묒
묓
묖
묘
묙
묚
묜
묝
묠
묨
묩
묪
묫
묭
묰
묳
무
묵
묶
묷
문
묹
묻
물
묽
묾
뭃
뭄
뭅
뭇
뭈
뭉
뭊
뭋
뭌
뭍
뭎
뭏
뭐
뭔
뭘
뭚
뭠
뭡
뭣
뭤
뭥
뭨
뭫
뭬
뭰
뭴
뭻
뭼
뮁
뮃
뮈
뮋
뮌
뮐
뮖
뮘
뮙
뮛
뮝
뮤
뮥
뮨
뮫
뮬
뮴
뮷
뮸
뮹
뮺
뮾
므
믁
믄
믇
믈
믌
믐
믑
믓
믔
믕
믖
믚
믜
믞
믪
믬
믯
믱
믶
미
믹
믺
믻
민
믽
믾
믿
밀
밁
밂
밆
밇
밈
밉
밋
밌
밍
밎
및
밐
밑
밒
밓
바
박
밖
밗
반
밙
밚
받
발
밝
밞
밟
밡
밢
밣
밤
밥
밦
밧
밨
방
밪
밫
밬
밭
밮
밯
배
백
밲
밴
밷
밸
밺
뱀
뱁
뱃
뱄
뱅
뱆
뱉
뱊
뱋
뱌
뱍
뱐
뱑
뱓
뱔
뱗
뱜
뱝
뱞
뱟
뱡
뱣
뱨
뱩
뱰
뱹
벂
버
벅
벆
번
벊
벋
벌
벍
벎
벏
범
법
벗
벘
벙
벚
벛
벜
벝
벞
베
벡
벢
벤
벧
벨
벩
벫
벬
벰
벱
벲
벳
벴
벵
벶
벹
벺
벼
벽
벾
변
볃
별
볇
볋
볌
볍
볏
볐
병
볒
볓
볔
볕
볖
볗
볘
볛
볜
볠
볤
볥
볦
볨
볫
볭
볮
볲
볳
보
복
볶
본
볺
볻
볼
볽
볾
봁
봄
봅
봆
봇
봈
봉
봊
봌
봍
봏
봐
봑
봒
봔
봕
봖
봘
봙
봠
봡
봣
봤
봥
봨
봫
봬
봭
봰
봳
봴
봵
봽
뵀
뵈
뵉
뵌
뵐
뵒
뵘
뵙
뵚
뵛
뵜
뵝
뵤
뵥
뵦
뵨
뵬
뵴
뵵
뵶
뵹
뵺
부
북
붂
붃
분
붅
붇
불
붉
붊
붋
붐
붑
붓
붕
붖
붗
붘
붙
붚
붛
붜
붝
붠
붤
붫
붰
붱
붲
붴
붵
붶
붷
붸
붹
붺
붻
뷀
뷁
뷄
뷉
뷌
뷍
뷔
뷕
뷘
뷜
뷠
뷧
뷩
뷬
뷰
뷱
뷴
뷸
뷽
븀
븁
븃
븅
븉
브
븍
븎
븐
븑
븓
블
븕
븜
븝
븟
븡
븣
븤
븥
븨
븬
븯
븰
븸
비
빅
빆
빇
빈
빋
빌
빎
빔
빕
빗
빘
빙
빚
빛
빜
빝
빞
빟
빠
빡
빢
빣
빤
빧
빨
빪
빭
빮
빰
빱
빳
빴
빵
빶
빷
빸
빹
빻
빼
빽
빾
뺀
뺃
뺄
뺇
뺌
뺍
뺏
뺐
뺑
뺒
뺕
뺗
뺘
뺙
뺠
뺥
뺨
뺩
뺭
뺯
뺰
뺴
뺵
뺶
뺷
뺸
뺺
뺼
뻀
뻄
뻅
뻇
뻈
뻉
뻌
뻍
뻐
뻑
뻔
뻖
뻗
뻘
뻜
뻟
뻠
뻡
뻣
뻤
뻥
뻦
뻨
뻩
뻫
뻬
뻭
뻮
뻰
뻴
뻻
뻿
뼁
뼅
뼈
뼉
뼋
뼌
뼏
뼓
뼘
뼙
뼛
뼜
뼝
뼟
뼠
뼡
뼤
뼥
뼯
뼴
뼼
뼽
뽀
뽁
뽂
뽄
뽇
뽈
뽊
뽐
뽑
뽓
뽔
뽕
뽚
뽛
뽜
뽝
뽞
뽠
뽡
뽤
뽭
뽱
뽴
뽶
뽷
뽼
뽽
뾊
뾍
뾑
뾘
뾜
뾟
뾨
뾰
뾱
뾲
뾴
뾺
뿁
뿅
뿉
뿌
뿍
뿎
뿐
뿔
뿕
뿛
뿜
뿝
뿟
뿠
뿡
뿤
뿥
뿦
뿨
뿩
뿯
뿲
뿴
뿸
뿹
뿼
뿽
쀄
쀆
쀋
쀍
쀎
쀘
쀛
쀟
쀠
쀤
쀥
쀨
쀫
쀳
쀵
쀼
쀽
쁀
쁇
쁊
쁌
쁍
쁏
쁑
쁘
쁙
쁜
쁝
쁞
쁟
쁠
쁤
쁨
쁩
쁫
쁮
쁴
쁼
삉
삐
삑
삒
삔
삖
삗
삘
삞
삠
삡
삣
삤
삥
삦
삫
사
삭
삮
삯
산
삲
삳
살
삵
삶
삷
삸
삺
삻
삼
삽
삿
샀
상
샂
샃
샄
샅
샆
샇
새
색
샊
샌
샍
샏
샐
샒
샔
샗
샘
샙
샚
샛
샜
생
샠
샣
샤
샥
샦
샨
샬
샭
샴
샵
샶
샷
샸
샹
샻
샼
샽
샾
샿
섀
섁
섃
섄
섇
섈
섋
섐
섑
섓
섕
섗
섘
섚
서
석
섞
섟
선
섢
섣
설
섥
섦
섧
섩
섬
섭
섯
섰
성
섲
섴
섵
섶
섷
세
섹
섻
센
섽
섿
셀
셈
셉
셋
셌
셍
셏
셐
셑
셒
셓
셔
셕
셖
션
셜
셝
셡
셤
셥
셧
셨
셩
셬
셭
셰
셱
셴
셸
셹
셼
셾
솀
솁
솃
솄
솅
솆
솉
솊
소
속
솎
손
솒
솓
솔
솕
솖
솗
솘
솙
솜
솝
솟
솠
송
솢
솣
솤
솥
솦
솧
솨
솩
솬
솰
솵
솸
솹
솻
솼
솽
쇀
쇄
쇅
쇈
쇋
쇕
쇗
쇙
쇚
쇠
쇡
쇤
쇨
쇰
쇱
쇳
쇵
쇺
쇼
쇽
숀
숂
숃
숄
숆
숌
숍
숏
숐
숑
숔
숕
숖
수
숙
숚
순
숝
숟
술
숡
숢
숣
숤
숧
숨
숩
숫
숭
숮
숯
숰
숱
숲
숴
숸
숺
숼
쉄
쉅
쉆
쉇
쉈
쉉
쉌
쉏
쉐
쉑
쉔
쉖
쉘
쉙
쉞
쉠
쉡
쉣
쉤
쉥
쉨
쉪
쉫
쉬
쉭
쉰
쉴
쉹
쉼
쉽
쉾
쉿
슀
슁
슅
슆
슈
슉
슊
슌
슏
슐
슔
슘
슙
슛
슝
슠
슢
스
슥
슦
슨
슩
슫
슬
슭
슮
슯
슲
슳
슴
습
슶
슷
슸
승
슺
슻
슼
슽
슾
슿
싀
싁
싄
싈
싍
싏
싐
싑
싒
싓
싕
싖
시
식
싞
싟
신
싡
싢
싣
실
싥
싦
싧
싩
싪
싫
심
십
싮
싯
싰
싱
싲
싳
싴
싵
싶
싷
싸
싹
싺
싻
싼
싽
싿
쌀
쌂
쌄
쌅
쌇
쌈
쌉
쌋
쌌
쌍
쌒
쌓
쌔
쌕
쌘
쌛
쌜
쌠
쌤
쌥
쌧
쌨
쌩
쌰
쌱
쌴
쌸
썀
썁
썄
썅
썆
썋
썌
썍
썐
썓
썘
썜
썝
썠
썡
써
썩
썪
썬
썯
썰
썱
썸
썹
썻
썼
썽
썾
쎀
쎃
쎄
쎅
쎈
쎋
쎌
쎏
쎐
쎔
쎕
쎗
쎘
쎙
쎜
쎟
쎠
쎢
쎤
쎥
쎨
쎮
쎱
쎴
쎵
쎶
쎹
쎼
쎽
쎾
쏀
쏄
쏊
쏍
쏏
쏑
쏘
쏙
쏚
쏛
쏜
쏟
쏠
쏡
쏢
쏣
쏨
쏩
쏫
쏬
쏭
쏮
쏯
쏰
쏱
쏳
쏴
쏵
쏸
쏼
쐄
쐆
쐇
쐈
쐉
쐋
쐌
쐏
쐐
쐔
쐘
쐜
쐝
쐡
쐣
쐤
쐥
쐧
쐬
쐮
쐰
쐴
쐵
쐼
쐽
쑀
쑈
쑉
쑌
쑜
쑝
쑣
쑤
쑥
쑨
쑬
쑮
쑱
쑴
쑵
쑷
쑹
쑺
쑻
쑽
쑿
쒀
쒈
쒊
쒍
쒐
쒑
쒔
쒕
쒗
쒘
쒜
쒝
쒠
쒡
쒣
쒬
쒮
쒯
쒵
쒸
쒹
쒼
쒽
쓈
쓉
쓊
쓋
쓍
쓐
쓒
쓔
쓕
쓠
쓤
쓥
쓧
쓩
쓰
쓱
쓲
쓴
쓷
쓸
쓺
쓿
씀
씁
씂
씃
씅
씆
씈
씉
씊
씌
씍
씐
씕
씖
씜
씝
씟
씡
씤
씦
씨
씩
씪
씫
씬
씭
씯
씰
씸
씹
씺
씻
씼
씽
씾
앀
앂
앃
아
악
앆
안
앉
않
앋
알
앍
앎
앏
앐
앒
앓
암
압
앖
앗
았
앙
앚
앛
앜
앝
앞
앟
애
액
앢
앤
앧
앨
앩
앰
앱
앳
앴
앵
앸
앹
앺
앻
야
약
앾
앿
얀
얃
얄
얅
얆
얇
얉
얊
얋
얌
얍
얎
얏
얐
양
얒
얓
얔
얕
얖
얗
얘
얙
얜
얠
얣
얨
얫
얬
얭
얰
얱
얳
어
억
얶
언
얹
얺
얻
얼
얽
얾
얿
엀
엃
엄
업
없
엇
었
엉
엊
엋
엌
엍
엎
엏
에
엑
엒
엓
엔
엗
엘
엙
엞
엠
엡
엢
엣
엤
엥
엨
엩
엪
엫
여
역
엮
엯
연
엱
엲
엳
열
엵
엶
엷
엹
엺
염
엽
엾
엿
였
영
옂
옃
옄
옅
옆
옇
예
옉
옌
옏
옐
옒
옗
옘
옙
옚
옛
옜
옝
옞
옟
옠
옢
오
옥
옦
옧
온
옩
옫
올
옭
옮
옯
옰
옳
옴
옵
옶
옷
옸
옹
옺
옻
옼
옽
옾
옿
와
왁
왂
완
왅
왆
왇
왈
왉
왐
왑
왓
왔
왕
왖
왘
왙
왚
왛
왜
왝
왠
왤
왫
왬
왭
왯
왰
왱
왴
왷
외
왹
왺
왼
왿
욀
욆
욈
욉
욋
욌
욍
욎
욐
욑
요
욕
욖
욘
욛
욜
욝
욞
욡
욤
욥
욧
욨
용
욪
욫
욬
욭
욮
욯
우
욱
욲
운
욵
욶
욷
울
욹
욺
욻
욽
욾
욿
움
웁
웂
웃
웄
웅
웆
웇
웈
웉
웊
웋
워
웍
웎
원
웑
웒
웓
월
웕
웖
웗
웘
웙
웛
웜
웝
웟
웠
웡
웢
웤
웦
웧
웨
웩
웪
웬
웮
웯
웰
웱
웸
웹
웻
웼
웽
웿
윀
윁
위
윅
윈
윋
윌
윐
윓
윔
윕
윗
윘
윙
윛
윜
윝
윞
윟
유
육
윢
윣
윤
윥
윦
윧
율
윫
윭
윯
윰
윱
윳
융
윶
윷
윸
윹
윻
으
윽
윾
은
읁
읂
읃
을
읅
읆
읇
읈
읉
읊
읋
음
읍
읎
읏
읐
응
읒
읓
읔
읕
읖
읗
의
읙
읜
읟
읠
읤
읨
읩
읪
읫
읭
읮
읯
읰
읱
이
익
읶
읷
인
읹
읺
읻
일
읽
읾
읿
잀
잃
임
입
잆
잇
있
잉
잊
잋
잌
잍
잎
잏
자
작
잒
잓
잔
잕
잖
잗
잘
잙
잚
잛
잟
잠
잡
잣
잤
장
잦
잧
잨
잩
잪
잫
재
잭
잰
잴
잶
잺
잼
잽
잿
쟀
쟁
쟂
쟄
쟇
쟈
쟉
쟊
쟌
쟎
쟏
쟐
쟔
쟘
쟙
쟛
쟜
쟝
쟠
쟣
쟤
쟨
쟬
쟰
쟳
쟸
쟹
쟿
저
적
젂
젃
전
젆
젇
절
젊
젋
젍
젏
점
접
젓
젔
정
젖
젗
젘
젙
젚
젛
제
젝
젠
젣
젤
젩
젬
젭
젯
젰
젱
젲
젴
젵
젶
젷
져
젹
젼
젿
졀
졄
졈
졉
졋
졌
졍
졎
졐
졑
졓
졔
졘
졧
졩
조
족
졲
졳
존
졶
졷
졸
졺
졿
좀
좁
좃
좄
종
좆
좇
좈
좉
좊
좋
좌
좍
좏
좐
좓
좔
좗
좚
좜
좝
좟
좠
좡
좣
좥
좦
좧
좨
좩
좬
좭
좮
좶
좷
좼
좽
죃
죄
죅
죈
죌
죔
죕
죗
죙
죚
죠
죡
죤
죥
죨
죫
죮
죰
죱
죳
죴
죵
죶
죸
죻
주
죽
준
줁
줂
줃
줄
줅
줆
줈
줋
줌
줍
줏
줐
중
줒
줓
줔
줕
줖
줗
줘
줙
줚
줜
줠
줣
줥
줧
줩
줫
줬
줭
줮
줰
줳
줴
줵
줶
줸
줼
쥄
쥅
쥇
쥉
쥐
쥑
쥔
쥗
쥘
쥙
쥜
쥝
쥠
쥡
쥣
쥤
쥥
쥨
쥫
쥬
쥭
쥰
쥲
쥳
쥴
쥼
쥽
쥿
즀
즁
즂
즄
즅
즆
즇
즈
즉
즊
즌
즏
즐
즑
즒
즘
즙
즛
즜
증
즞
즟
즠
즣
즤
즥
즨
즬
즳
즴
즵
즶
즷
즹
지
직
짂
진
짅
짆
짇
질
짊
짋
짌
짍
짎
짏
짐
집
짒
짓
짔
징
짖
짗
짘
짙
짚
짛
짜
짝
짞
짠
짡
짢
짣
짤
짥
짦
짧
짪
짫
짬
짭
짮
짯
짰
짱
짲
짴
짷
째
짹
짼
짿
쨀
쨂
쨅
쨈
쨉
쨋
쨌
쨍
쨎
쨒
쨓
쨔
쨕
쨖
쨘
쨙
쨚
쨜
쨞
쨠
쨣
쨤
쨥
쨩
쨪
쨬
쨮
쨰
쨱
쨴
쨽
쨾
쨿
쩀
쩃
쩄
쩅
쩌
쩍
쩎
쩐
쩔
쩕
쩖
쩗
쩙
쩜
쩝
쩟
쩠
쩡
쩤
쩧
쩨
쩩
쩬
쩰
쩳
쩸
쩺
쩻
쩽
쪄
쪅
쪈
쪌
쪓
쪔
쪕
쪗
쪘
쪙
쪜
쪠
쪤
쪦
쪨
쪱
쪵
쪺
쪼
쪽
쪾
쪿
쫀
쫂
쫃
쫄
쫅
쫌
쫍
쫏
쫑
쫒
쫓
쫔
쫕
쫗
쫘
쫙
쫚
쫜
쫠
쫨
쫩
쫬
쫭
쫴
쬀
쬄
쬈
쬋
쬐
쬑
쬒
쬔
쬘
쬠
쬡
쬤
쬥
쬬
쬭
쬰
쬲
쬴
쬼
쬽
쭁
쭅
쭈
쭉
쭊
쭌
쭏
쭐
쭓
쭘
쭙
쭛
쭝
쭟
쭣
쭤
쭨
쭬
쭯
쭵
쭷
쭸
쭹
쭻
쭿
쮀
쮃
쮅
쮈
쮎
쮐
쮖
쮙
쮜
쮝
쮠
쮣
쮨
쮱
쮲
쮷
쮸
쮹
쮼
쮿
쯀
쯈
쯉
쯍
쯔
쯕
쯖
쯗
쯘
쯜
쯤
쯥
쯧
쯩
쯪
쯯
쯰
쯳
쯴
쯷
쯸
쯽
쯾
찀
찃
찆
찌
찍
찎
찐
찓
찔
찖
찗
찜
찝
찟
찠
찡
찢
찣
찤
찥
찦
찧
차
착
찪
찬
찭
찮
찯
찰
찱
찳
찴
찷
참
찹
찻
찼
창
찾
찿
챀
챁
챂
챃
채
책
챇
챈
챌
챎
챔
챕
챗
챘
챙
챚
챛
챜
챝
챠
챡
챤
챥
챦
챨
챰
챱
챲
챳
챴
챵
챶
챷
챺
챼
챽
첋
첌
첎
첏
첑
첗
처
척
첚
천
첝
첞
첟
철
첢
첥
첨
첩
첫
첬
청
첮
첯
첲
체
첵
첸
첺
첼
첾
쳄
쳅
쳇
쳈
쳉
쳊
쳌
쳏
쳐
쳑
쳔
쳗
쳘
쳟
쳠
쳡
쳣
쳤
쳥
쳦
쳧
쳨
쳪
쳫
쳬
쳭
쳰
쳲
쳴
쳸
쳼
쳽
초
촉
촌
촎
촏
촐
촑
촘
촙
촛
총
촞
촟
촠
촣
촤
촥
촧
촨
촫
촬
촯
촴
촵
촷
촹
촺
쵀
쵁
쵊
쵋
쵌
쵐
쵖
쵚
최
쵝
쵞
쵠
쵤
쵥
쵬
쵭
쵯
쵱
쵴
쵶
쵸
쵹
쵼
춀
춃
춈
춉
춋
춌
춍
춐
추
축
춖
춘
춚
춛
출
춝
춟
춡
춣
춤
춥
춧
춨
충
춫
춬
춮
춰
춱
춴
춸
춺
춿
췃
췄
췅
췌
췍
췐
췔
췝
췟
췡
췤
취
췩
췬
췯
췰
췶
췸
췹
췻
췼
췽
츀
츄
츅
츈
츉
츊
츌
츏
츔
츕
츗
츙
츛
츝
츠
측
츤
츧
츨
츩
츭
츰
츱
츳
층
츹
츺
츼
츽
칀
칇
칋
칑
치
칙
칚
친
칞
칟
칠
칡
칢
칧
침
칩
칫
칬
칭
칮
칯
칰
칱
칲
칳
카
칵
칶
칷
칸
칹
칻
칼
칽
칾
캃
캄
캅
캆
캇
캉
캊
캌
캍
캎
캐
캑
캔
캘
캠
캡
캢
캣
캤
캥
캦
캨
캪
캬
캭
캮
캰
캴
캵
캶
캷
캼
캿
컀
컁
컄
컅
컇
컊
컏
컒
컘
컙
컛
컞
커
컥
컨
컫
컬
컭
컮
컴
컵
컷
컸
컹
컻
컼
컽
컾
컿
케
켁
켂
켄
켈
켉
켏
켐
켑
켓
켔
켕
켘
켙
켚
켛
켜
켝
켠
켤
켦
켬
켭
켯
켰
켱
켲
켴
켵
켸
켻
콀
콆
코
콕
콘
콚
콜
콤
콥
콧
콨
콩
콪
콫
콬
콭
콮
콰
콱
콳
콴
콵
콷
콸
쾀
쾁
쾃
쾅
쾈
쾌
쾏
쾐
쾒
쾓
쾘
쾟
쾡
쾢
쾣
쾧
쾨
쾪
쾰
쾱
쾲
쾹
쾽
쿄
쿅
쿈
쿌
쿎
쿐
쿔
쿕
쿗
쿘
쿙
쿜
쿠
쿡
쿢
쿤
쿧
쿨
쿩
쿰
쿱
쿳
쿵
쿷
쿸
쿹
쿻
쿼
쿽
퀀
퀄
퀅
퀊
퀏
퀑
퀒
퀔
퀕
퀘
퀙
퀛
퀜
퀠
퀡
퀨
퀫
퀭
퀴
퀵
퀸
퀼
큁
큂
큃
큄
큅
큇
큉
큌
큐
큑
큔
큗
큘
큠
큡
큢
큣
큥
큧
큨
큩
크
큭
큮
큰
큱
큳
클
큵
큶
큻
큼
큽
큿
킀
킁
킂
킄
킅
킇
킈
킌
킐
킠
키
킥
킨
킫
킬
킯
킴
킵
킷
킸
킹
킺
킻
킼
킽
킾
킿
타
탁
탂
탄
탆
탇
탈
탉
탊
탋
탐
탑
탓
탔
탕
탖
탘
탙
탚
태
택
탞
탠
탣
탤
탬
탭
탯
탰
탱
탴
탶
탷
탸
탹
탼
턀
턂
턈
턉
턊
턍
턑
턒
턔
턕
턛
턜
턟
턥
턦
턧
턨
턫
터
턱
턴
턷
털
턹
턺
턽
텀
텁
텃
텄
텅
텈
텉
텊
텋
테
텍
텐
텓
텔
텖
텗
텚
템
텝
텟
텡
텢
텤
텥
텦
텨
텩
텬
텰
텲
텴
텶
텹
텻
텼
텽
톄
톈
톌
톏
톔
톜
톞
톟
토
톡
톢
톤
톦
톧
톨
톪
톮
톰
톱
톲
톳
통
톸
톹
톺
톻
톼
톽
퇀
퇄
퇋
퇌
퇏
퇑
퇓
퇗
퇘
퇞
퇡
퇦
퇫
퇬
퇴
퇵
퇸
퇹
퇼
툅
툇
툉
툍
툐
툑
툓
툔
툛
툠
툤
툥
툩
툪
투
툭
툯
툰
툳
툴
툶
툻
툼
툽
툿
퉁
퉂
퉄
퉅
퉇
퉈
퉉
퉎
퉐
퉓
퉗
퉜
퉝
퉡
퉢
퉤
퉥
퉨
퉬
퉱
퉴
퉷
퉸
퉹
퉼
튀
튁
튄
튈
튐
튑
튒
튓
튕
튜
튝
튠
튤
튬
튭
튯
튱
튴
튶
트
특
튻
튼
튽
튿
틀
틂
틄
틆
틈
틉
틊
틋
틍
틎
틐
틑
틓
틔
틖
틘
틚
틜
틤
틥
틧
틩
틪
틭
티
틱
틳
틴
틵
틷
틸
틽
팀
팁
팃
팄
팅
팆
팇
팈
팉
팋
파
팍
팎
팏
판
팓
팔
팕
팖
팘
팙
팚
팜
팝
팟
팠
팡
팢
팤
팥
팦
팧
패
팩
팫
팬
팯
팰
팱
팴
팵
팸
팹
팻
팼
팽
퍀
퍁
퍄
퍅
퍈
퍌
퍐
퍓
퍔
퍕
퍙
퍠
퍬
퍸
퍹
퍼
퍽
펀
펄
펅
펆
펌
펍
펏
펐
펑
펒
펔
펖
페
펙
펜
펞
펠
펥
펨
펩
펫
펭
펰
펱
펲
펴
펵
편
펹
펺
펼
폄
폅
폇
폈
평
폎
폐
폔
폘
폛
폜
폡
폥
포
폭
폯
폰
폴
폺
폼
폽
폿
퐁
퐂
퐄
퐅
퐆
퐇
퐈
퐉
퐊
퐋
퐌
퐐
퐑
퐒
퐛
퐜
퐝
퐠
퐡
퐢
퐣
퐤
퐥
퐦
퐨
퐩
퐰
퐴
푀
푁
푄
푈
푌
푍
푓
푛
표
푝
푟
푠
푢
푣
푤
푬
푭
푮
푯
푱
푸
푹
푻
푼
푿
풀
풂
풃
풅
풆
풇
품
풉
풋
풍
풐
풑
풒
풓
풔
풛
풜
풤
풩
풬
풯
풰
풱
풵
풸
풻
풼
퓋
퓌
퓍
퓐
퓑
퓒
퓔
퓕
퓜
퓟
퓡
퓣
퓤
퓥
퓧
퓨
퓩
퓪
퓬
퓭
퓮
퓯
퓰
퓶
퓷
퓸
퓹
퓻
퓽
픂
프
픅
픈
픋
플
픍
픐
픔
픕
픗
픙
픜
픝
픞
픟
픠
픤
픳
픹
픻
피
픽
픿
핀
핃
필
핆
핈
핋
핌
핍
핏
핐
핑
핒
핓
핔
핕
핖
핗
하
학
핚
핛
한
핝
핞
핟
할
핡
핢
핣
핤
핥
핧
함
합
핫
핬
항
핮
핰
핱
핲
핳
해
핵
핶
핸
핻
핼
핾
핿
햄
햅
햇
했
행
햊
햋
햌
햍
햎
햏
햐
햑
햒
햔
햘
햛
햝
햟
햠
햡
햣
햤
향
햨
햩
햫
햬
햰
햿
헀
헁
헆
허
헉
헊
헋
헌
헏
헐
헑
헒
헓
헔
헖
험
헙
헚
헛
헜
헝
헞
헟
헠
헣
헤
헥
헦
헨
헫
헬
헭
헲
헳
헴
헵
헷
헸
헹
헼
헿
혀
혁
혃
현
혅
혆
혈
혋
혐
협
혓
혔
형
혘
혛
혜
혝
혠
혤
혦
혬
혭
혯
혱
혲
혴
혵
혷
호
혹
혼
혽
혿
홀
홁
홂
홅
홆
홇
홈
홉
홋
홌
홍
홐
홑
홒
홓
화
확
홖
홗
환
홛
활
홣
홤
홥
홧
황
홪
홬
홮
홯
홰
홱
홳
홴
홹
홺
홾
횀
횂
횃
횄
횅
횆
횇
회
획
횎
횐
횒
횔
횛
횝
횟
횡
횢
횤
횧
효
횩
횬
횰
횴
횶
횸
횹
횻
횽
횾
횿
훀
훃
후
훅
훈
훉
훋
훌
훍
훑
훒
훓
훔
훕
훗
훘
훙
훛
훜
훝
훟
훠
훡
훤
훦
훨
훯
훰
훱
훴
훵
훸
훹
훼
훽
훿
휀
휃
휄
휇
휋
휏
휑
휘
휙
휜
휠
휢
휨
휩
휫
휭
휲
휳
휴
휵
휸
휹
휼
흀
흄
흅
흇
흉
흊
흌
흏
흐
흑
흒
흓
흔
흕
흗
흘
흙
흛
흜
흝
흟
흠
흡
흣
흤
흥
흦
흨
흩
흫
희
흭
흯
흰
흲
흴
흺
흼
흽
흿
힀
힁
힂
힄
힇
히
힉
힌
힏
힐
힑
힒
힔
힕
힘
힙
힛
힜
힝
힞
힠
힡
힢
힣
ퟐ

﨑
﨟
ﬀ
ﬁ
ﬂ
ﬃ
ﷺ
︎
️
︒
︙
︠
︡
︤
︰
︱
︳
︵
︶
︷
︹
︻
︿
﹀
﹃
﹅
﹋
﹏
﹒
﹖
﹘
﹡
ﺍ
ﺎ
ﺑ
ﺔ
ﺤ
ﺩ
ﺪ
ﺮ
ﺳ
ﺴ
ﺸ
ﻈ
ﻌ
ﻜ
ﻟ
ﻠ
ﻡ
ﻢ
ﻣ
ﻤ
ﻨ
ﻬ
ﻭ
ﻮ
ﻲ
ﻳ
ﻴ
ﻷ
ﻹ
ﻼ
﻿
！
＃
＄
％
＆
＇
（
）
＊
＋
，
－
．
／
０
１
２
３
４
５
６
７
８
９
：
；
＜
＝
＞
？
＠
Ａ
Ｂ
Ｃ
Ｄ
Ｅ
Ｆ
Ｇ
Ｈ
Ｉ
Ｊ
Ｋ
Ｌ
Ｍ
Ｎ
Ｏ
Ｐ
Ｑ
Ｒ
Ｓ
Ｔ
Ｕ
Ｖ
Ｗ
Ｘ
Ｙ
Ｚ
［
＼
］
＾
＿
｀
ａ
ｂ
ｃ
ｄ
ｅ
ｆ
ｇ
ｈ
ｉ
ｊ
ｋ
ｌ
ｍ
ｎ
ｏ
ｐ
ｒ
ｓ
ｔ
ｕ
ｖ
ｗ
ｘ
ｙ
ｚ
｛
｜
｝
～
｡
｢
｣
､
･
ｦ
ｧ
ｩ
ｪ
ｭ
ｮ
ｯ
ｰ
ｱ
ｲ
ｳ
ｴ
ｵ
ｶ
ｷ
ｸ
ｹ
ｺ
ｻ
ｼ
ｽ
ｾ
ﾀ
ﾁ
ﾂ
ﾃ
ﾄ
ﾅ
ﾆ
ﾉ
ﾊ
ﾌ
ﾍ
ﾎ
ﾐ
ﾒ
ﾗ
ﾘ
ﾙ
ﾚ
ﾛ
ﾝ
ﾞ
ﾟ
ﾠ
￠
￡
￢
￣
￥
￦
￨
￩
￫
￬
￭
￮
￼
𐌅
𐎭
𐎱
𐎹
𐎼
𐏋
𐨛
𐭠
𐭪
𐭫
𐭬
𐰆
𐰍
𐰖
𐰺
𓂭
𓂻
𓅿
𓆗
𖠌
𖤍
𖤐
𖦹
𝄐
𝐀
𝐂
𝐃
𝐄
𝐆
𝐇
𝐈
𝐋
𝐌
𝐍
𝐎
𝐏
𝐒
𝐓
𝐔
𝐕
𝐖
𝐘
𝐚
𝐛
𝐜
𝐝
𝐞
𝐠
𝐡
𝐢
𝐤
𝐥
𝐦
𝐧
𝐨
𝐩
𝐫
𝐬
𝐭
𝐮
𝐲
𝐴
𝐸
𝐺
𝐿
𝑃
𝑆
𝑌
𝑒
𝑘
𝑝
𝑟
𝑠
𝑡
𝑤
𝑧
𝑨
𝑩
𝑬
𝑯
𝑳
𝑴
𝑶
𝑷
𝑺
𝑻
𝑼
𝒀
𝒂
𝒃
𝒄
𝒅
𝒆
𝒇
𝒈
𝒉
𝒊
𝒋
𝒌
𝒍
𝒎
𝒐
𝒑
𝒓
𝒔
𝒕
𝒖
𝒘
𝒚
𝓁
𝓂
𝓐
𝓑
𝓜
𝓦
𝓪
𝓬
𝓮
𝓱
𝓲
𝓴
𝓷
𝓼
𝓽
𝔸
𝔹
𝔼
𝔽
𝕀
𝕂
𝕃
𝕄
𝕆
𝕊
𝕋
𝕐
𝕒
𝕓
𝕔
𝕕
𝕖
𝕗
𝕚
𝕜
𝕝
𝕟
𝕠
𝕡
𝕣
𝕤
𝕥
𝕦
𝕨
𝕪
𝕷
𝖁
𝖆
𝖉
𝖊
𝖋
𝖌
𝖎
𝖑
𝖒
𝖔
𝖕
𝖗
𝖙
𝖠
𝖮
𝖼
𝗉
𝗋
𝗍
𝗔
𝗖
𝗗
𝗘
𝗚
𝗛
𝗜
𝗞
𝗟
𝗠
𝗡
𝗢
𝗣
𝗦
𝗧
𝗨
𝗩
𝗮
𝗲
𝗴
𝗵
𝗶
𝗹
𝗻
𝗼
𝗽
𝗿
𝘀
𝘁
𝘄
𝘅
𝘞
𝘼
𝘽
𝘾
𝙀
𝙃
𝙄
𝙅
𝙆
𝙇
𝙈
𝙉
𝙊
𝙍
𝙎
𝙏
𝙑
𝙒
𝙖
𝙗
𝙙
𝙚
𝙜
𝙝
𝙞
𝙠
𝙡
𝙣
𝙤
𝙧
𝙨
𝙩
𝙪
𝙮
𝙷
𝚂
𝚃
𝚇
𝚊
𝚍
𝚎
𝚏
𝚒
𝚕
𝚖
𝚗
𝚘
𝚛
𝚜
𝚝
𝚞
𝚢
𝛼
𝜅
𝜒
𝟎
𝟏
𝟑
𝟒
𝟣
𝟥
𝟫
𝟬
𝟭
𝟮
𝟲
𝟳
𝟶
𝟸
𝟼
𝟾
🀄
🃏
🅔
🅝
🅞
🅦
🅨
🅰
🅲
🅷
🅸
🅼
🅽
🅿
🆈
🆔
🆕
🆗
🆙
🇦
🇧
🇨
🇩
🇪
🇫
🇬
🇭
🇮
🇯
🇰
🇱
🇲
🇳
🇴
🇵
🇷
🇸
🇹
🇺
🇻
🇼
🇽
🇿
🌀
🌁
🌂
🌃
🌄
🌅
🌆
🌈
🌉
🌊
🌋
🌌
🌍
🌎
🌏
🌐
🌑
🌒
🌓
🌕
🌖
🌗
🌘
🌙
🌚
🌛
🌜
🌝
🌞
🌟
🌠
🌡
🌤
🌥
🌦
🌧
🌨
🌪
🌫
🌬
🌭
🌮
🌯
🌰
🌱
🌲
🌳
🌴
🌵
🌶
🌷
🌸
🌹
🌺
🌻
🌼
🌽
🌾
🌿
🍀
🍁
🍂
🍃
🍄
🍅
🍆
🍇
🍈
🍉
🍊
🍋
🍌
🍍
🍎
🍏
🍐
🍑
🍒
🍓
🍔
🍕
🍖
🍗
🍘
🍙
🍚
🍛
🍜
🍝
🍞
🍟
🍠
🍡
🍢
🍣
🍤
🍥
🍦
🍧
🍨
🍩
🍪
🍫
🍬
🍭
🍮
🍯
🍰
🍱
🍲
🍳
🍴
🍵
🍶
🍷
🍸
🍹
🍺
🍻
🍼
🍽
🍾
🍿
🎀
🎁
🎂
🎃
🎄
🎅
🎆
🎇
🎈
🎉
🎊
🎋
🎍
🎎
🎏
🎑
🎓
🎔
🎗
🎙
🎞
🎠
🎡
🎣
🎤
🎥
🎦
🎧
🎨
🎩
🎫
🎬
🎭
🎮
🎯
🎰
🎱
🎲
🎵
🎶
🎷
🎸
🎹
🎺
🎻
🎼
🎽
🎾
🏁
🏂
🏃
🏄
🏅
🏆
🏊
🏋
🏌
🏍
🏎
🏐
🏓
🏔
🏕
🏖
🏗
🏘
🏙
🏚
🏜
🏝
🏞
🏟
🏠
🏡
🏢
🏤
🏥
🏦
🏩
🏪
🏫
🏬
🏭
🏮
🏯
🏰
🏳
🏴
🏵
🏷
🏸
🏹
🏻
🏼
🏽
🏾
🏿
🐀
🐁
🐂
🐃
🐄
🐇
🐈
🐉
🐊
🐋
🐍
🐎
🐏
🐐
🐑
🐒
🐓
🐔
🐕
🐖
🐘
🐙
🐚
🐛
🐜
🐝
🐟
🐠
🐢
🐣
🐤
🐥
🐦
🐧
🐨
🐩
🐬
🐭
🐮
🐯
🐰
🐱
🐲
🐳
🐴
🐵
🐶
🐷
🐸
🐹
🐺
🐻
🐽
🐾
🐿
👀
👁
👂
👃
👄
👅
👆
👇
👈
👉
👊
👋
👌
👍
👎
👏
👐
👑
👒
👓
👕
👖
👗
👚
👛
👜
👞
👟
👠
👣
👤
👥
👦
👧
👨
👩
👪
👫
👬
👭
👮
👯
👰
👱
👴
👵
👶
👸
👹
👺
👻
👼
👽
👾
👿
💀
💁
💂
💃
💄
💅
💆
💇
💉
💊
💋
💌
💍
💎
💏
💐
💑
💒
💓
💔
💕
💖
💗
💘
💙
💚
💛
💜
💝
💞
💟
💠
💡
💢
💣
💤
💥
💦
💧
💨
💩
💪
💫
💬
💭
💮
💯
💰
💳
💵
💶
💸
💻
💼
💽
💿
📃
📄
📅
📆
📈
📉
📊
📋
📌
📍
📎
📏
📐
📑
📒
📓
📔
📕
📖
📗
📘
📙
📚
📜
📝
📞
📟
📢
📣
📦
📧
📩
📫
📬
📮
📰
📱
📲
📳
📴
📵
📶
📷
📸
📹
📺
📻
📽
🔁
🔅
🔆
🔉
🔊
🔍
🔎
🔐
🔑
🔒
🔓
🔔
🔖
🔗
🔚
🔜
🔝
🔞
🔟
🔥
🔧
🔨
🔪
🔫
🔬
🔮
🔲
🔳
🔴
🔵
🔶
🔷
🔸
🔹
🔺
🔻
🔼
🔽
🕊
🕌
🕐
🕑
🕒
🕖
🕘
🕙
🕛
🕯
🕰
🕴
🕵
🕶
🕺
🖊
🖋
🖍
🖐
🖕
🖖
🖤
🖥
🖳
🖼
🗒
🗓
🗝
🗣
🗨
🗺
🗼
🗽
🗿
😀
😁
😂
😃
😄
😅
😆
😇
😈
😉
😊
😋
😌
😍
😎
😏
😐
😑
😒
😓
😔
😕
😖
😗
😘
😙
😚
😛
😜
😝
😞
😟
😠
😡
😢
😣
😤
😥
😦
😧
😨
😩
😪
😫
😬
😭
😮
😯
😰
😱
😲
😳
😴
😵
😶
😷
😸
😹
😺
😻
😼
😽
😾
😿
🙀
🙁
🙂
🙃
🙄
🙅
🙆
🙇
🙈
🙉
🙊
🙋
🙌
🙍
🙎
🙏
🚀
🚂
🚃
🚄
🚅
🚇
🚈
🚉
🚋
🚌
🚍
🚐
🚑
🚒
🚕
🚖
🚗
🚘
🚙
🚚
🚛
🚜
🚠
🚡
🚢
🚣
🚤
🚥
🚦
🚧
🚨
🚩
🚪
🚫
🚬
🚰
🚲
🚴
🚶
🚷
🚺
🚻
🚽
🚾
🚿
🛀
🛁
🛅
🛌
🛍
🛏
🛑
🛒
🛗
🛠
🛥
🛩
🛫
🛬
🛳
🛴
🛵
🛶
🛸
🛹
🛺
🛻
🜸
🟡
🟢
🟤
🟦
🟧
🟨
🟪
🟫
🤌
🤍
🤎
🤏
🤐
🤑
🤒
🤓
🤔
🤕
🤖
🤗
🤘
🤙
🤚
🤛
🤜
🤝
🤞
🤟
🤠
🤡
🤢
🤣
🤤
🤥
🤦
🤧
🤨
🤩
🤪
🤫
🤬
🤭
🤮
🤯
🤰
🤱
🤲
🤳
🤴
🤷
🤸
🤹
🤽
🥀
🥁
🥂
🥃
🥄
🥇
🥉
🥊
🥋
🥐
🥑
🥒
🥓
🥔
🥕
🥖
🥗
🥘
🥙
🥚
🥛
🥜
🥝
🥞
🥟
🥠
🥡
🥢
🥣
🥤
🥦
🥧
🥨
🥩
🥪
🥫
🥬
🥭
🥮
🥯
🥰
🥱
🥲
🥳
🥴
🥵
🥶
🥸
🥺
🥼
🥾
🦀
🦁
🦄
🦅
🦆
🦈
🦉
🦊
🦋
🦌
🦍
🦎
🦐
🦑
🦒
🦔
🦕
🦖
🦙
🦚
🦜
🦞
🦟
🦠
🦥
🦦
🦨
🦪
🦭
🦰
🦲
🦳
🦴
🦶
🦷
🦸
🦾
🧀
🧁
🧃
🧄
🧅
🧆
🧇
🧈
🧊
🧋
🧍
🧎
🧏
🧐
🧑
🧒
🧕
🧖
🧘
🧙
🧚
🧛
🧜
🧞
🧟
🧡
🧢
🧥
🧦
🧧
🧨
🧩
🧪
🧬
🧭
🧮
🧳
🧴
🧵
🧶
🧸
🧹
🧺
🧻
🧼
🧿
🩰
🩲
🩳
🩸
🩹
🪁
🪐
🪗
🪞
🪟
🪣
🪥
🪱
🪴
🪵
🫐
🫑
🫒
🫓
🫕
🫖
𠁥
𠂢
𠂤
𠇗
𠍱
𠎌
𠑃
𠔉
𠬝
𠯑
𠺕
𠿇
𡃁
𡈼
𡊉
𡊠
𡎋
𡎑
𡐔
𡔉
𡧰
𡨄
𡰥
𡵻
𢋡
𢜟
𢜫
𢢜
𢢝
𢦏
𢿘
𣖔
𣚃
𣞒
𣶈
𣶒
𤁰
𤎱
𤣥
𤣯
𤣰
𤥽
𤦮
𤨿
𤲟
𤲪
𤽂
𤾬
𥄕
𥕏
𥖝
𥘺
𥘼
𥙷
𥙿
𥛚
𥡥
𥡦
𥡪
𥣪
𥫟
𥯔
𥰸
𥳍
𥳕
𥶇
𥸴
𦐰
𦑘
𦓼
𦔊
𦘒
𦝠
𦣝
𦥑
𦩠
𦩹
𦴈
𦸂
𧄽
𧍧
𧪚
𧶠
𧶺
𨋢
𨓯
𨙱
𨚷
𨩱
𨪌
𨬋
𨯶
𨻶
𩅿
𩆸
𩇉
𩑃
𩟄
𩶬
𩷍
𩹲
𩽠
𪒔
𪗆
##O
##S
##G
##Y
##o
##n
##d
##e
##r
##충
##가
##c
##t
##나
##구
##a
##ち
##と
##も
##に
##眠
##미
##언
##데
##U
##A
##T
##E
##R
##N
##v
##l
##i
##C
##X
##증
##야
##마
##치
##h
##u
##k
##H
##L
##s
##强
##p
##f
##q
##g
##화
##성
##I
##산
##대
##교
##냅
##시
##다
##W
##J
##y
##금
##상
##2
##0
##い
##ろ
##う
##뜩
##十
##猶
##嬰
##兒
##慕
##잎
##학
##주
##x
##é
##b
##자
##유
##한
##국
##당
##w
##재
##형
##로
##진
##ㅡ
##조
##생
##각
##해
##서
##수
##m
##離
##신
##만
##3
##6
##1
##9
##4
##7
##홀
##츠
##운
##會
##5
##하
##핳
##너
##파
##티
##쪽
##지
##사
##규
##료
##임
##라
##우
##필
##짜
##황
##새
##여
##르
##실
##ピ
##ペ
##업
##농
##챌
##통
##8
##전
##보
##더
##고
##요
##落
##질
##까
##봐
##종
##호
##面
##블
##랙
##아
##민
##뚠
##졌
##애
##를
##쫓
##기
##누
##음
##편
##∩
##B
##ε
##어
##드
##역
##등
##리
##策
##층
##을
##천
##안
##松
##길
##슨
##처
##z
##つ
##や
##す
##み
##메
##딜
##바
##위
##두
##에
##스
##폴
##니
##포
##M
##들
##져
##束
##령
##맥
##내
##네
##쿠
##망
##ー
##ヒ
##î
##父
##ダ
##게
##따
##란
##태
##는
##千
##佛
##名
##經
##η
##λ
##ο
##ν
##체
##베
##이
##배
##è
##P
##경
##응
##식
##ㄹ
##앟
##ㅏ
##모
##D
##邊
##었
##오
##蘭
##레
##폰
##토
##V
##초
##원
##ㅅ
##반
##할
##듯
##꼴
##효
##첨
##ä
##강
##Q
##은
##목
##현
##희
##근
##ṭ
##ṅ
##정
##人
##j
##컬
##쳤
##ê
##프
##연
##장
##坐
##예
##采
##禮
##글
##거
##콜
##셀
##루
##놈
##창
##선
##水
##砦
##매
##계
##테
##팔
##트
##결
##끔
##닐
##곱
##머
##영
##選
##텔
##카
##ㅠ
##ㅋ
##食
##て
##표
##×
##달
##와
##제
##융
##준
##의
##롱
##저
##ん
##간
##갈
##딕
##님
##봉
##좌
##순
##급
##겨
##왔
##던
##∞
##た
##ら
##페
##財
##뜨
##려
##族
##맛
##단
##소
##평
##면
##랑
##능
##속
##됐
##으
##며
##감
##楽
##曲
##で
##舞
##踊
##る
##乙
##女
##戦
##士
##が
##目
##浮
##か
##く
##夢
##죽
##ウ
##갑
##⬇
##광
##채
##김
##홍
##렸
##범
##문
##ư
##ơ
##인
##도
##般
##纳
##税
##和
##简
##易
##꼬
##K
##탄
##워
##퀼
##番
##星
##코
##黨
##年
##獨
##立
##花
##史
##張
##付
##린
##達
##は
##歌
##を
##作
##っ
##렬
##쳐
##웃
##개
##친
##海
##과
##명
##命
##디
##Z
##F
##確
##극
##겐
##ā
##군
##칼
##동
##적
##틀
##양
##축
##맨
##열
##敎
##ü
##량
##푼
##젤
##악
##판
##윤
##중
##퍼
##비
##世
##代
##삼
##발
##키
##덕
##義
##쉐
##불
##넴
##옹
##쟁
##念
##さ
##춘
##혜
##총
##물
##ย
##ุ
##ธ
##า
##월
##세
##난
##郞
##살
##書
##훈
##취
##방
##옥
##雨
##法
##ð
##Þ
##軀
##올
##룡
##몬
##석
##웅
##ざ
##류
##初
##균
##끄
##러
##溪
##鄭
##氏
##남
##북
##관
##マ
##ノ
##ン
##맸
##펜
##遙
##노
##외
##ó
##等
##上
##郡
##太
##守
##ַ
##ׂ
##מ
##ְ
##ת
##ָ
##ּ
##샅
##백
##찬
##법
##ㆍ
##승
##こ
##だ
##훼
##협
##任
##р
##а
##с
##н
##я
##팅
##あ
##り
##服
##ò
##력
##存
##멍
##無
##차
##담
##淸
##뎃
##잠
##켠
##力
##땠
##氣
##堡
##타
##링
##多
##∇
##≤
##涬
##会
##気
##持
##の
##通
##じ
##合
##同
##僚
##見
##予
##感
##샤
##버
##집
##완
##본
##락
##솝
##부
##닉
##г
##е
##т
##욱
##し
##な
##술
##◯
##生
##哦
##칸
##そ
##ば
##심
##칙
##â
##얼
##투
##크
##뚜
##말
##軍
##병
##혁
##닌
##ㅎ
##ㄷ
##ㅇ
##ㅁ
##났
##공
##녀
##람
##눌
##환
##회
##작
##お
##割
##떡
##허
##方
##찰
##건
##ọ
##색
##케
##奥
##ワ
##プ
##装
##置
##ず
##쓰
##설
##き
##歿
##ç
##湖
##그
##액
##론
##🏻
##척
##ṣ
##ṇ
##검
##용
##잉
##래
##브
##쌈
##묘
##철
##꾸
##쭈
##궁
##빔
##到
##記
##분
##펑
##̩
##막
##햇
##🐥
##−
##√
##少
##卿
##변
##딥
##湯
##ッ
##ト
##コ
##끈
##ｯ
##ﾃ
##ｰ
##ﾚ
##罷
##년
##둥
##즈
##핀
##첼
##앤
##멀
##덴
##송
##렴
##痢
##끝
##院
##덥
##독
##富
##뱅
##먼
##範
##엑
##온
##권
##á
##뛔
##ⓞ
##ⓥ
##ⓔ
##ぼ
##ゃ
##避
##對
##함
##암
##날
##福
##日
##癒
##れ
##よ
##련
##美
##神
##Í
##잇
##벼
##움
##앉
##혀
##섬
##익
##댓
##座
##섭
##닷
##컴
##뜰
##히
##옛
##곡
##ﾒ
##ﾘ
##ｱ
##君
##풍
##옴
##嘯
##嶽
##림
##출
##약
##病
##着
##벳
##냐
##직
##릭
##窟
##펠
##숙
##싸
##놀
##록
##뮤
##션
##멱
##슛
##ロ
##ク
##リ
##ム
##ル
##テ
##ィ
##터
##무
##후
##일
##껄
##풀
##ю
##途
##衆
##悉
##就
##圓
##滿
##今
##랜
##キ
##합
##핵
##議
##큼
##런
##線
##и
##в
##ы
##й
##했
##ﬀ
##ß
##흐
##꺼
##ł
##돌
##커
##쉬
##닦
##혹
##팡
##ㄱ
##켄
##박
##틱
##ㅜ
##ぁ
##험
##돈
##天
##暉
##쩍
##짓
##à
##ṃ
##셔
##널
##宮
##점
##피
##플
##룻
##엔
##복
##明
##울
##였
##о
##웨
##츈
##事
##첩
##ḫ
##解
##빗
##폼
##位
##든
##밸
##㎥
##름
##뤄
##α
##ī
##臥
##핸
##衣
##때
##米
##之
##鄕
##聲
##덩
##枝
##イ
##タ
##긋
##징
##ι
##낸
##ậ
##切
##菩
##薩
##諸
##根
##智
##웡
##凍
##닥
##엽
##令
##빈
##뇌
##뉵
##쭐
##낼
##重
##塔
##け
##ρ
##벨
##觀
##죄
##詠
##ํ
##พ
##゚
##戶
##號
##걸
##았
##∗
##흨
##ぎ
##帝
##所
##以
##絶
##涯
##パ
##ナ
##ま
##갱
##關
##청
##ㅑ
##앙
##씨
##ס
##ד
##ו
##ֹ
##젖
##ø
##í
##王
##寺
##公
##中
##洞
##賞
##圖
##육
##행
##🎉
##춤
##河
##国
##번
##착
##徒
##委
##員
##雑
##務
##終
##わ
##せ
##試
##추
##묵
##죠
##콧
##始
##皇
##身
##極
##습
##行
##材
##二
##升
##น
##ส
##ข
##ม
##ว
##ิ
##ท
##鱗
##ド
##舌
##탑
##택
##랄
##条
##볼
##꿈
##ｦ
##ヲ
##못
##蕪
##領
##쥬
##房
##릴
##뎌
##톤
##相
##竹
##롤
##항
##률
##性
##흥
##혼
##슬
##렉
##🥺
##💙
##🌥
##촘
##ح
##م
##ي
##ل
##學
##멘
##붕
##곤
##잘
##ᴜ
##ᴛ
##ﬁ
##慮
##油
##ㄴ
##秋
##樂
##릉
##롬
##뻬
##럇
##뻐
##ú
##ö
##白
##둔
##ñ
##■
##制
##━
##┓
##里
##鏡
##녕
##즙
##題
##딩
##픈
##냄
##煙
##±
##у
##к
##탕
##情
##킹
##엄
##덱
##諷
##戾
##宇
##ớ
##則
##득
##졸
##能
##芝
##ャ
##姿
##出
##本
##当
##悲
##ū
##δ
##끼
##ч
##п
##д
##з
##計
##び
##퓨
##鈴
##답
##業
##럼
##月
##克
##子
##節
##ｐ
##ｈ
##ｏ
##ｎ
##ｅ
##ō
##패
##궤
##政
##뿍
##쌔
##的
##챽
##컻
##늂
##돊
##旬
##與
##셜
##一
##揆
##故
##튀
##部
##왜
##閉
##꿀
##舍
##亂
##솔
##聖
##理
##朝
##몽
##廳
##ψ
##穀
##工
##싱
##족
##율
##없
##뇨
##츔
##盜
##줄
##턴
##ŋ
##압
##닭
##절
##닛
##혈
##엉
##者
##른
##綸
##뢰
##켰
##릇
##탱
##퇴
##即
##文
##字
##禪
##칠
##捨
##럽
##잣
##넷
##탁
##털
##깨
##멧
##최
##쌀
##입
##귀
##욥
##캴
##伐
##큰
##載
##官
##ス
##밀
##쇼
##飡
##왕
##κ
##ά
##τ
##質
##刑
##억
##클
##至
##있
##눼
##刊
##馬
##毫
##빙
##렌
##별
##팜
##Ω
##意
##ữ
##小
##快
##耳
##납
##峰
##빌
##ˇ
##ก
##줘
##퐝
##냈
##잖
##읍
##筆
##註
##큐
##폭
##土
##現
##ネ
##電
##긴
##尉
##μ
##쓸
##間
##違
##繰
##返
##得
##聚
##랫
##♡
##헿
##헤
##깔
##되
##맞
##壤
##렁
##園
##л
##х
##時
##分
##陵
##품
##존
##킨
##흘
##國
##꿍
##짝
##례
##♭
##빠
##ょ
##像
##市
##正
##言
##鐘
##롭
##럭
##댔
##喜
##릿
##흠
##簡
##휴
##낚
##윅
##즐
##알
##흉
##ね
##絃
##琴
##밤
##韓
##撈
##랩
##夜
##店
##論
##ņ
##š
##或
##ど
##申
##げ
##駄
##켈
##冠
##볶
##綃
##用
##悽
##６
##２
##万
##５
##０
##台
##悼
##亡
##詩
##골
##丁
##쁜
##깐
##聞
##ラ
##ア
##ザ
##템
##팽
##罪
##탐
##乘
##윽
##툰
##슉
##後
##측
##벽
##둠
##침
##닝
##믜
##玄
##六
##潤
##ミ
##→
##쭉
##定
##止
##め
##참
##鬴
##욤
##슘
##줬
##攻
##思
##設
##拜
##興
##平
##엇
##賢
##벡
##엘
##處
##歸
##꾀
##妹
##밭
##뭐
##貫
##щ
##м
##祀
##路
##삿
##갓
##ほ
##έ
##ς
##雪
##術
##居
##カ
##廟
##손
##綠
##前
##ŏ
##🥰
##핫
##😎
##譽
##팍
##둑
##音
##®
##깄
##錢
##∼
##龍
##젠
##몃
##忠
##염
##頃
##陟
##鎭
##̥
##̀
##向
##減
##빛
##屛
##山
##껏
##娛
##藝
##發
##展
##區
##ㅌ
##잡
##爲
##壽
##已
##畢
##幽
##떳
##錄
##問
##境
##♪
##優
##火
##ᅲ
##활
##景
##ㅓ
##元
##향
##Ø
##겠
##ソ
##グ
##何
##雲
##諧
##텨
##變
##받
##컷
##仙
##膜
##芒
##격
##견
##될
##有
##資
##然
##州
##春
##짐
##깍
##８
##レ
##器
##팸
##촌
##숴
##곳
##箋
##엠
##交
##ユ
##듬
##畫
##밈
##フ
##様
##え
##◦
##맹
##븐
##쿄
##否
##瘡
##쓴
##沙
##傳
##皆
##ボ
##チ
##책
##口
##是
##流
##實
##狀
##於
##進
##而
##退
##ヂ
##貢
##뽇
##덤
##夫
##🥲
##飽
##ジ
##シ
##ズ
##容
##빼
##講
##앗
##ь
##吏
##논
##ㅂ
##십
##粉
##順
##痛
##벙
##岳
##귓
##禍
##首
##랠
##͝
##灰
##冷
##視
##絹
##풋
##江
##浦
##찐
##눈
##▔
##╲
##폿
##잔
##封
##條
##該
##オ
##バ
##립
##戰
##렐
##癘
##嘆
##º
##샵
##늙
##믈
##色
##章
##點
##顔
##狼
##🍩
##苨
##렵
##ؼ
##ش
##أ
##쭌
##妻
##萬
##死
##σ
##괴
##曰
##石
##城
##뚱
##⅔
##嘉
##犯
##榦
##化
##엣
##不
##敗
##蜓
##①
##캉
##萌
##直
##굿
##숭
##ب
##ط
##ا
##風
##뀨
##쑝
##盤
##삭
##紙
##렷
##또
##촉
##ᴥ
##된
##態
##짖
##밟
##컨
##헌
##五
##ご
##쫀
##商
##셧
##冊
##亭
##古
##饰
##研
##究
##🛍
##💓
##렇
##룰
##땅
##셍
##떼
##먹
##燕
##⃞
##걱
##⌒
##낭
##촨
##캠
##送
##센
##콩
##盧
##談
##異
##ゅ
##域
##χ
##є
##б
##넘
##血
##放
##起
##物
##켓
##꼭
##싀
##津
##ả
##넓
##葬
##喪
##◡
##╹
##♥
##ᗨ
##ᗕ
##齊
##帖
##友
##悔
##消
##虔
##ɪ
##ɚ
##寂
##託
##宗
##収
##것
##같
##깃
##💗
##成
##都
##♠
##∈
##틸
##탈
##信
##心
##覽
##擧
##눠
##受
##爭
##뷔
##벌
##川
##省
##内
##被
##为
##蒙
##뤘
##뉴
##낮
##祖
##짱
##莒
##ེ
##ན
##⅓
##百
##甸
##◀
##繹
##盆
##下
##ホ
##尺
##寸
##毘
##門
##劇
##帶
##復
##假
##也
##ﬃ
##퐈
##义
##셉
##辭
##靑
##ᐛ
##੭
##ㅊ
##쌤
##加
##盞
##去
##陳
##腐
##짞
##핍
##ㅈ
##댈
##刻
##餐
##슈
##ē
##德
##職
##께
##겼
##穴
##賓
##붙
##젝
##彛
##͒
##˵
##밥
##ḍ
##념
##開
##闊
##核
##빵
##轄
##團
##緖
##車
##띠
##뒤
##껴
##幡
##丈
##距
##香
##賊
##겸
##列
##높
##獻
##晴
##э
##객
##쯔
##ṁ
##옷
##᾽
##딘
##윈
##輸
##롯
##民
##禁
##歲
##펙
##个
##安
##祥
##新
##ブ
##붑
##知
##룸
##宰
##뿌
##災
##サ
##積
##∙
##曆
##캬
##켜
##켴
##ᴇ
##ᴍ
##ɴ
##ᴀ
##誌
##裝
##ゆ
##想
##ぽ
##˘
##邑
##兵
##メ
##ḥ
##学
##べ
##째
##먀
##∥
##句
##鉛
##夏
##핑
##杯
##健
##倒
##庭
##鷄
##갸
##ệ
##班
##覇
##樽
##렙
##稅
##許
##臟
##柱
##쪼
##漲
##쿼
##튕
##⑨
##넬
##빨
##匪
##祭
##筵
##話
##넨
##텀
##家
##믐
##델
##겟
##損
##失
##高
##授
##料
##投
##場
##支
##描
##述
##统
##计
##其
##旨
##β
##φ
##웰
##ï
##劫
##望
##満
##漠
##鑑
##宿
##뜯
##演
##算
##랐
##ュ
##춰
##ǽ
##勤
##打
##갔
##댁
##旅
##셴
##헛
##卷
##귤
##键
##词
##道
##主
##ш
##敬
##ω
##콘
##ş
##Ö
##表
##語
##즘
##碣
##幣
##ị
##밧
##긔
##式
##派
##ォ
##慘
##箇
##自
##在
##ㅖ
##モ
##𝟎
##쿤
##肅
##幕
##쨩
##礫
##揚
##稿
##좀
##푸
##웠
##腔
##細
##胞
##炎
##症
##因
##累
##굴
##랴
##稈
##ạ
##턱
##졍
##破
##●
##▼
##譜
##섯
##僧
##ǎ
##춧
##ב
##示
##決
##π
##輩
##찜
##替
##弱
##뼈
##꽂
##界
##標
##巧
##殿
##例
##특
##邪
##쌌
##應
##⇡
##퐴
##텁
##☞
##待
##낙
##ŝ
##仲
##ぬ
##草
##느
##九
##三
##텍
##셈
##깝
##닫
##싶
##않
##地
##形
##司
##斷
##꽃
##슥
##ì
##칭
##찻
##톱
##淚
##倂
##찡
##삐
##弊
##幅
##大
##畜
##ビ
##ຶ
##꒫
##ꎿ
##ベ
##ό
##υ
##八
##眞
##晨
##癌
##확
##숄
##島
##耶
##非
##足
##四
##單
##片
##刀
##쫜
##◆
##놓
##声
##枯
##泣
##婚
##次
##욧
##붉
##訃
##튼
##찹
##全
##紫
##킄
##푹
##쉰
##驛
##흡
##３
##壯
##æ
##앨
##봄
##運
##즉
##ı
##닼
##遷
##꾼
##돔
##華
##늘
##찌
##＝
##늬
##薦
##궈
##ػ
##ٔ
##ز
##ج
##溫
##찾
##隊
##附
##肉
##づ
##⑥
##칩
##컹
##喟
##늃
##뼽
##봤
##넌
##享
##仞
##兮
##庚
##寅
##🎂
##竪
##儒
##功
##쥔
##ू
##र
##्
##ख
##ô
##嗽
##햅
##～
##ㅣ
##і
##內
##デ
##럴
##🙌
##長
##波
##냇
##手
##造
##벅
##羅
##巴
##엥
##ờ
##半
##丹
##蜚
##又
##鳴
##遠
##획
##쒊
##앞
##᷄
##딱
##땗
##딑
##븰
##苑
##入
##亦
##爾
##🤍
##퍄
##뤼
##硬
##쇠
##荒
##趣
##벤
##聘
##牧
##ェ
##ゼ
##嬢
##ɯ
##옵
##렛
##뭉
##登
##縣
##좋
##幟
##來
##說
##槐
##ر
##ُ
##困
##味
##深
##裘
##室
##𓂭
##😢
##膳
##當
##留
##⊙
##♫
##❡
##☡
##☋
##ᴘ
##洋
##綺
##麗
##蹇
##슴
##窓
##🤣
##똥
##頑
##ガ
##ヨ
##體
##扶
##刺
##勢
##船
##殘
##괘
##귦
##욶
##將
##凉
##北
##ц
##鐵
##ギ
##頭
##舟
##킬
##科
##軌
##楡
##滅
##占
##盛
##욘
##殺
##第
##팩
##價
##ふ
##ぇ
##숀
##社
##説
##🍒
##접
##武
##婦
##エ
##挑
##動
##擇
##良
##峙
##🌊
##勝
##汗
##팬
##꿔
##ニ
##둘
##뎨
##ί
##旦
##走
##ゑ
##木
##坂
##特
##集
##씹
##뇰
##七
##²
##空
##１
##遣
##헥
##Г
##У
##む
##埤
##益
##我
##類
##핏
##쳌
##댄
##챙
##ร
##ี
##ภ
##ู
##딸
##刹
##周
##遍
##顧
##親
##格
##品
##뚤
##街
##樓
##팀
##俗
##況
##😋
##ĭ
##략
##늄
##了
##東
##西
##휘
##넥
##峯
##恋
##末
##뫄
##붓
##ỹ
##ᱍ
##썽
##겁
##岡
##윙
##헝
##ハ
##寫
##팥
##臣
##룩
##냥
##닿
##쫠
##⑵
##席
##紝
##˚
##랭
##曜
##잼
##쥐
##킷
##낄
##멤
##쏘
##뿔
##ᆢ
##θ
##👧
##紀
##삽
##峴
##苦
##度
##冬
##迎
##彩
##陶
##艺
##术
##뜬
##🍻
##棄
##ぱ
##많
##ぶ
##如
##蟲
##ㅐ
##낏
##껜
##씬
##碧
##岸
##個
##俯
##撐
##챗
##쵸
##햏
##及
##逸
##帛
##慶
##펀
##諒
##注
##폐
##蜜
##引
##黃
##遊
##램
##斗
##곰
##哺
##빅
##午
##象
##齒
##튤
##쨋
##씩
##蕩
##솜
##Ａ
##Ｐ
##Ｏ
##Ｒ
##愚
##床
##찢
##셋
##魂
##鳳
##퉁
##缸
##덮
##힌
##赤
##未
##咲
##誇
##扉
##ㅃ
##욕
##°
##□
##샀
##ع
##إ
##ث
##Ｍ
##섶
##깁
##젓
##枕
##콤
##帳
##앜
##癖
##蔽
##薰
##熱
##恩
##淨
##숲
##轉
##콰
##燈
##礙
##ẫ
##種
##步
##广
##对
##外
##开
##实
##施
##见
##基
##ㅆ
##쩜
##õ
##防
##衛
##機
##構
##层
##糖
##饼
##ᑒ
##딤
##⑹
##魚
##퀘
##ˤ
##骨
##壁
##宜
##察
##秀
##彰
##췌
##녔
##녘
##ョ
##迴
##婆
##겹
##💇
##疑
##胃
##𝐲
##튜
##å
##탤
##벗
##뭇
##詞
##吳
##曉
##蔓
##準
##莊
##護
##뼛
##菊
##쿵
##崎
##쩧
##府
##捐
##ᄒ
##쿨
##룽
##悌
##꼳
##働
##固
##聽
##奏
##舊
##ㄺ
##黠
##效
##治
##疗
##牀
##儻
##更
##韻
##答
##虐
##利
##ặ
##脩
##④
##⑦
##⑤
##∀
##≦
##摩
##什
##餉
##´
##▽
##숩
##므
##툴
##害
##⊥
##臨
##嬌
##越
##С
##Р
##¨
##헹
##훟
##❤
##멓
##ξ
##媾
##ⓓ
##築
##澤
##断
##絲
##致
##槪
##略
##ะ
##ต
##์
##比
##南
##戱
##姻
##從
##調
##勘
##透
##虛
##寶
##贊
##렀
##♤
##틴
##꽁
##籍
##ᴏ
##ʟ
##ᴅ
##써
##怨
##握
##쀼
##級
##🍑
##ć
##撰
##輿
##转
##型
##源
##仰
##祺
##ǒ
##쩨
##셰
##픔
##ℂ
##탘
##ù
##곀
##씌
##샹
##塾
##告
##藥
##産
##角
##씀
##흙
##厚
##➿
##뢍
##넝
##딪
##愕
##렘
##扇
##렝
##🐋
##챤
##∬
##管
##笑
##硏
##Ⓡ
##局
##💋
##誦
##續
##냉
##샷
##廩
##這
##翼
##堂
##옿
##怠
##ㅍ
##宅
##♬
##ừ
##깬
##善
##層
##戎
##姪
##몰
##４
##힘
##힐
##怳
##秉
##餘
##⑧
##来
##잭
##곽
##寨
##몸
##ë
##己
##橫
##峽
##딴
##可
##삑
##校
##찮
##륵
##掠
##뛴
##灼
##供
##別
##売
##輝
##｀
##恨
##겔
##Ｃ
##塞
##誼
##犬
##값
##뮬
##珠
##밴
##段
##嫌
##ｉ
##ｄ
##ｌ
##뽀
##奧
##ж
##岩
##壑
##遲
##킴
##奸
##★
##驗
##땜
##썩
##鍾
##劍
##ࡇ
##翁
##賣
##냠
##햐
##釋
##¼
##춫
##캡
##蹟
##嶺
##旗
##釣
##륜
##雜
##흑
##먄
##液
##塚
##々
##័
##យ
##វ
##រ
##្
##ម
##ន
##ទ
##ី
##៧
##곧
##Č
##呑
##邀
##野
##릅
##真
##毅
##鴉
##往
##핥
##랍
##쪄
##꼼
##ž
##ᆞ
##ᆯ
##낤
##ｗ
##虜
##椎
##巨
##擘
##醫
##菜
##廣
##兩
##金
##鄙
##牌
##塗
##貞
##屋
##ケ
##🚘
##甲
##ヤ
##ˀ
##덟
##密
##😱
##┳
##╯
##🖤
##💛
##ぜ
##ぞ
##党
##횡
##ɨ
##墟
##ŭ
##男
##샘
##費
##บ
##數
##ひ
##老
##ᴗ
##ꈍ
##斥
##ｺ
##ﾝ
##敍
##텐
##픽
##걀
##▲
##△
##γ
##稟
##ᆡ
##ᆺ
##母
##셸
##🙃
##🙂
##ゴ
##룹
##模
##果
##兼
##藐
##提
##艱
##難
##愁
##굼
##讐
##ض
##ٌ
##💚
##耀
##亥
##캔
##師
##蛉
##क
##ल
##덜
##댕
##谷
##夷
##캣
##偶
##保
##障
##淋
##繚
##乱
##ộ
##鉢
##빽
##暑
##他
##宴
##識
##蘿
##蔵
##밍
##쭵
##楚
##뺑
##期
##村
##玖
##땐
##瀝
##얔
##豆
##燃
##萁
##毒
##佑
##肺
##ٗ
##Ｆ
##ᅵ
##ぐ
##흔
##😉
##泊
##휼
##庫
##卽
##衡
##濟
##姐
##彌
##貴
##넹
##筒
##陰
##脈
##ỗ
##톡
##솥
##残
##署
##丞
##◇
##￣
##獍
##降
##ำ
##เ
##อ
##ื
##ง
##先
##億
##ゐ
##嵐
##裂
##隠
##光
##ㅚ
##弟
##챃
##ᵒ
##ᵔ
##ă
##ě
##ũ
##ĩ
##낳
##숫
##壻
##뇸
##귿
##좝
##쌍
##ྡ
##ོ
##བ
##🦔
##🐿
##🐁
##🐭
##纷
##争
##伙
##週
##ㅔ
##考
##鞫
##섴
##惋
##듁
##≫
##煞
##탭
##教
##썬
##ツ
##樣
##戀
##愛
##裡
##踩
##著
##壺
##酒
##츳
##녹
##玆
##쩝
##뿜
##氷
##劾
##촵
##寒
##濕
##첸
##覺
##騎
##ᆂ
##Ă
##홈
##鞍
##😸
##刃
##腺
##€
##逆
##숨
##팁
##量
##匝
##共
##戴
##乎
##휭
##ή
##쑤
##仕
##淡
##😆
##💞
##💕
##💟
##곶
##課
##꼽
##겅
##ś
##♗
##♘
##賜
##懸
##鼻
##役
##∂
##멩
##莫
##쟉
##侯
##놨
##虎
##威
##ﬂ
##즌
##겻
##삶
##数
##놔
##Ⅹ
##Ⅲ
##律
##톨
##助
##ヴ
##쳑
##祿
##稱
##앵
##寬
##ʔ
##ﾄ
##ｸ
##項
##耋
##綏
##焉
##샬
##欌
##큘
##횽
##줌
##갹
##琵
##琶
##晃
##銜
##怪
##專
##輯
##🎶
##쨔
##ห
##ด
##แ
##ゥ
##킼
##照
##慾
##ぺ
##啓
##跋
##９
##탬
##臺
##챦
##굉
##א
##敢
##兆
##깡
##掻
##젼
##妃
##ા
##窮
##脚
##컵
##랏
##쨌
##端
##辨
##帆
##뷜
##ý
##ァ
##詵
##熟
##煢
##끗
##吟
##盡
##봇
##訐
##맘
##息
##폈
##姓
##掛
##補
##布
##縫
##瓦
##쩡
##皮
##ň
##忘
##语
##쟈
##딈
##爛
##皓
##륙
##죵
##牒
##П
##Ф
##ồ
##豊
##햄
##Ｄ
##換
##鼓
##股
##系
##ʌ
##梵
##ʀ
##瓢
##Ï
##輔
##샌
##殼
##廷
##쌱
##ា
##ស
##ែ
##ខ
##댜
##몇
##텟
##群
##塊
##軆
##쎄
##듦
##ę
##矣
##納
##짼
##핃
##英
##雄
##ё
##隷
##퍅
##쓱
##왈
##볕
##빡
##続
##客
##훅
##̵
##編
##왑
##깥
##৳
##箭
##Ｎ
##샔
##꽠
##還
##姬
##浴
##场
##鍼
##療
##ǔ
##ǐ
##魎
##報
##乾
##癪
##祝
##ύ
##喩
##析
##ˋ
##∝
##쑥
##セ
##游
##³
##¹
##誰
##🌝
##庁
##營
##깜
##텅
##蜞
##樹
##菌
##멸
##룬
##總
##乃
##瀆
##🏼
##ㄲ
##Ｕ
##맡
##折
##疽
##쮸
##퀴
##＾
##獄
##泉
##힝
##左
##使
##軒
##永
##原
##町
##紅
##葉
##瀉
##↓
##摧
##輪
##찍
##듀
##齋
##찔
##頉
##彼
##哭
##劉
##𝟬
##𝟮
##쁘
##慰
##쌓
##˙
##♧
##헬
##絏
##奪
##뎡
##劃
##얀
##끌
##秩
##懺
##翊
##聯
##副
##괭
##ổ
##追
##醉
##힙
##脹
##멋
##و
##د
##除
##髥
##遇
##偏
##뷰
##蘊
##曳
##網
##畝
##坪
##修
##私
##ṛ
##魔
##ﾀ
##ｼ
##騙
##技
##対
##抗
##朔
##兄
##츄
##Γ
##ㄸ
##옌
##梅
##驅
##跏
##鑄
##끃
##읽
##怖
##샛
##⋅
##쯥
##윳
##販
##覈
##💜
##륨
##暇
##웁
##뱉
##놋
##謝
##췄
##¯
##귈
##쇄
##🤘
##影
##🧡
##∆
##速
##農
##귣
##껍
##퀸
##떻
##겋
##翮
##봅
##接
##딨
##ﾗ
##ｽ
##ｩ
##ไ
##ล
##ฟ
##ั
##펄
##椒
##❚
##反
##🦊
##井
##傷
##垣
##麓
##줏
##혔
##拌
##爺
##섰
##뚝
##֘
##֤
##ר
##몫
##쒀
##胸
##抱
##즛
##鼠
##马
##常
##彈
##눙
##近
##嬉
##녈
##쩔
##퉤
##具
##篋
##↟
##둬
##誣
##観
##匠
##届
##际
##肥
##览
##昧
##핰
##悍
##ु
##🍓
##竿
##由
##奇
##茶
##胡
##꿉
##映
##約
##播
##架
##줴
##側
##ϕ
##돗
##攝
##陛
##뜻
##뭄
##ᅠ
##ᆼ
##칵
##☆
##彡
##探
##印
##撥
##˶
##規
##됭
##敏
##鬼
##늉
##京
##캇
##ꇴ
##˂
##᷅
##๑
##認
##🙏
##Л
##恐
##뽕
##괸
##柳
##臂
##靜
##📷
##🍅
##▦
##疆
##얘
##냒
##씂
##倫
##팻
##曙
##ผ
##斂
##ắ
##짹
##캐
##騷
##묭
##톳
##𐭫
##𐭪
##𐭠
##켘
##衝
##擊
##微
##츤
##픠
##괄
##要
##튠
##裏
##包
##떤
##ώ
##娼
##邦
##ל
##ה
##갛
##냹
##첎
##옟
##싹
##參
##ק
##蠻
##쑹
##👍
##紋
##尾
##킥
##굽
##聊
##屈
##実
##ã
##魏
##ᗜ
##☘
##얄
##爻
##劑
##戒
##田
##滯
##쿡
##졔
##📘
##邱
##İ
##收
##忌
##抄
##菓
##卒
##롸
##퉈
##퉡
##떠
##≥
##∨
##↗
##늑
##믓
##隅
##突
##墳
##콥
##蓋
##鷲
##낫
##홉
##́
##ʃ
##ِ
##غ
##喝
##好
##컞
##빤
##ป
##唯
##虞
##菴
##阿
##織
##鞋
##⡱
##枚
##놑
##邸
##県
##麥
##🧚
##豈
##拘
##컥
##꽈
##궐
##背
##ˆ
##쭝
##諤
##Ｈ
##좽
##س
##ئ
##ن
##️
##❓
##蔀
##梧
##礼
##ї
##訓
##監
##蝶
##惱
##숍
##뿐
##眉
##끙
##멜
##結
##短
##請
##験
##辰
##險
##灘
##典
##牲
##養
##𝒂
##𝒑
##𝒚
##ً
##ִ
##י
##那
##쾌
##đ
##煥
##套
##ǫ
##袖
##艘
##穽
##卦
##쾅
##굥
##櫛
##댐
##낀
##땄
##찼
##汚
##撃
##🚑
##톽
##弦
##裙
##ુ
##瞬
##ｔ
##韶
##戌
##掌
##諡
##譯
##膠
##云
##⌃
##⇤
##🥞
##─
##셨
##稷
##潮
##𝚘
##𝚕
##𝚖
##𝚎
##𝚜
##긓
##ế
##躇
##貸
##秦
##頂
##掃
##낌
##卯
##于
##崗
##倉
##便
##取
##₂
##狗
##瞋
##倍
##隱
##떴
##젊
##囃
##妖
##羯
##磨
##춥
##◈
##弔
##졀
##싦
##ꠏ
##ꠇ
##奚
##乞
##尖
##퍽
##再
##Ｅ
##底
##溢
##踏
##荷
##夕
##渠
##寧
##旣
##🌳
##🌿
##過
##🌞
##呆
##ㅒ
##걔
##꺄
##댱
##給
##콕
##哉
##똑
##̶
##̷
##̧
##̢
##池
##淵
##💎
##ᅥ
##ᆷ
##才
##岁
##腸
##뛰
##碌
##梓
##迹
##讓
##寵
##括
##帽
##頓
##板
##活
##¸
##✧
##糞
##ポ
##좁
##靴
##🤭
##墾
##討
##御
##훌
##˔
##騰
##凡
##謐
##♩
##鋪
##跡
##쁠
##💐
##녁
##🥕
##됩
##烈
##뼉
##斬
##へ
##判
##맑
##擅
##驚
##홓
##属
##唱
##訴
##案
##碑
##µ
##Ÿ
##粘
##腫
##ު
##疾
##匐
##꼐
##渭
##階
##▿
##零
##韩
##运
##动
##指
##桃
##諱
##彬
##衾
##唐
##莖
##巍
##눕
##😝
##拔
##炭
##헐
##瓮
##剌
##륭
##嘘
##製
##ు
##వ
##్
##処
##ː
##盟
##志
##②
##롄
##孫
##征
##転
##射
##評
##첫
##럄
##鈔
##禽
##此
##疇
##賑
##ㅗ
##維
##履
##肢
##骸
##퐁
##ਕ
##კ
##飾
##宦
##꼈
##ㅕ
##拍
##ע
##↘
##弓
##뺄
##咄
##干
##ᅳ
##隣
##🧀
##猛
##엿
##ٍ
##ٛ
##獅
##洲
##듭
##🏪
##🏫
##🏬
##🏯
##🏰
##💒
##塵
##빰
##킵
##넙
##앱
##浩
##ｶ
##肆
##빱
##뻗
##눔
##¢
##Ｓ
##Ｖ
##最
##康
##配
##丘
##达
##融
##团
##倦
##圃
##땃
##밑
##毛
##庵
##諦
##擯
##輕
##眼
##暢
##歎
##톰
##儡
##搭
##뗘
##ʙ
##솟
##豪
##킁
##뻔
##鯨
##묜
##馭
##팝
##羲
##汁
##슷
##썰
##殮
##憂
##③
##츕
##𝗔
##𝗣
##債
##좆
##봑
##負
##ᅟ
##ᅡ
##ᆸ
##ꔛ
##꿩
##悛
##訂
##漢
##剛
##📓
##榻
##仁
##撓
##泄
##藍
##혐
##儀
##緣
##А
##К
##돼
##곯
##숑
##ש
##ם
##🛵
##썼
##쉼
##粧
##連
##탠
##郊
##余
##膚
##𝖼
##𝗍
##뱡
##乏
##ㄻ
##歷
##ت
##鱓
##ấ
##朋
##漑
##쁨
##黍
##뭔
##朗
##麻
##繼
##札
##짬
##点
##쿙
##雅
##ٞ
##ص
##랗
##꺙
##🌸
##各
##雁
##唳
##饌
##讀
##˃
##沢
##ח
##갖
##뻘
##웬
##ヌ
##Б
##慧
##哥
##港
##叉
##慤
##露
##🤓
##雖
##텡
##批
##걍
##됴
##渡
##复
##发
##肱
##縮
##ֲ
##ֶ
##猴
##엌
##켐
##똘
##싫
##펌
##坡
##諭
##밋
##칞
##饋
##髮
##呪
##ᵈ
##ᵎ
##빚
##粟
##粃
##긍
##穎
##廻
##林
##헨
##ช
##覧
##妄
##證
##索
##招
##ʰ
##僕
##卵
##💖
##뒹
##榮
##貿
##펴
##翩
##延
##ी
##爆
##쿱
##斑
##㈃
##㈄
##❗
##옻
##둉
##陽
##袍
##鳥
##丸
##垢
##却
##檎
##呼
##彦
##梁
##č
##頰
##＜
##庸
##่
##拙
##▷
##◁
##錦
##嗜
##疲
##吹
##飛
##緒
##蕷
##藻
##푤
##묽
##據
##뮴
##庄
##Α
##謠
##❙
##솕
##큻
##웮
##짤
##숌
##넣
##甚
##맵
##릎
##͡
##疏
##짇
##ف
##壇
##踞
##셩
##鉉
##훙
##챘
##候
##ఠ
##求
##举
##爕
##潼
##ٜ
##צ
##祈
##撒
##팎
##힣
##궜
##̣
##ͯ
##癸
##改
##責
##ෆ
##若
##吉
##🍃
##謀
##瓜
##矢
##斃
##َ
##짭
##죔
##廉
##迪
##윗
##💦
##牘
##ꔷ
##̑
##圈
##杏
##願
##蘇
##뮈
##샐
##囊
##巖
##🌫
##柔
##円
##滑
##回
##藏
##틈
##⑩
##þ
##環
##銘
##頌
##季
##畏
##赦
##童
##榜
##７
##素
##精
##얌
##튐
##뙁
##欠
##얏
##헣
##鑿
##協
##督
##进
##臭
##儿
##😑
##渚
##＋
##떨
##版
##衲
##└
##闇
##炳
##弁
##ˏ
##鷗
##▻
##탓
##垤
##뎅
##酋
##暴
##ủ
##応
##賦
##挺
##疹
##雙
##ㄶ
##😊
##꿪
##뜟
##쓤
##줧
##뎐
##券
##績
##曹
##艦
##鈍
##낍
##芎
##尊
##溝
##歡
##博
##勞
##ɞ
##̴
##ᐢ
##훗
##ᇰ
##귁
##쯤
##惡
##麁
##팓
##곸
##🍳
##♣
##ぴ
##═
##겉
##턷
##齬
##賃
##튓
##廢
##墻
##惑
##낯
##겍
##箱
##懟
##쬘
##〮
##須
##냔
##衍
##差
##孝
##쨠
##쥙
##暗
##舎
##抜
##荊
##땡
##ė
##👟
##벵
##憤
##挙
##票
##率
##既
##値
##쇽
##操
##伏
##統
##携
##幼
##拂
##暮
##沿
##革
##뎀
##貌
##娱
##宵
##菀
##很
##倾
##幇
##럿
##💪
##揖
##펍
##膽
##溺
##但
##气
##괜
##齪
##双
##响
##炮
##ྟ
##ང
##뇽
##짚
##앆
##惘
##楼
##ⅹ
##Λ
##롼
##歇
##🇸
##⑫
##猫
##얽
##˓
##˳
##̮
##ට
##ɫ
##蓄
##膿
##吸
##患
##섹
##勉
##把
##看
##从
##샨
##Ś
##急
##퓌
##篆
##碍
##担
##曬
##襲
##🌷
##徹
##旱
##糧
##Δ
##🥄
##畓
##😁
##➡
##擔
##伊
##墨
##딛
##굷
##쯩
##핲
##퉢
##堆
##넵
##玉
##ợ
##툭
##옸
##瑞
##序
##陣
##誠
##詐
##땀
##Ó
##돕
##泡
##霜
##씸
##췬
##幸
##ظ
##٢
##😡
##댑
##弾
##흣
##競
##将
##网
##站
##妾
##뺌
##ṯ
##橋
##ζ
##靷
##Χ
##ᩚ
##毬
##淑
##ẓ
##갤
##죤
##雷
##株
##遺
##챱
##⚡
##녜
##꒱
##狩
##ぃ
##◞
##✦
##瀑
##限
##巡
##낵
##懷
##伯
##썹
##잿
##껸
##맴
##練
##簾
##螖
##👻
##긁
##震
##ᵛ
##ᵉ
##ᵧ
##球
##빾
##즷
##퓮
##넛
##ֵ
##怒
##챈
##ż
##둡
##끓
##븅
##幢
##🍆
##偈
##懼
##悪
##罰
##몯
##홰
##웍
##앍
##杖
##館
##建
##燭
##쾧
##뮖
##셡
##娥
##붸
##鍊
##🔚
##👏
##랬
##릐
##奴
##얗
##傘
##ș
##륚
##쳲
##쏵
##饗
##翔
##匹
##ʜ
##ᴿ
##ű
##黜
##칫
##ᗝ
##̤
##ř
##깠
##⏑
##篇
##憶
##豚
##뀘
##쀘
##免
##疫
##需
##🍫
##飭
##🤫
##օ
##ռ
##ҳ
##植
##羕
##掩
##激
##쩖
##졉
##쏯
##븃
##큨
##鎖
##⁻
##헙
##靈
##潔
##ㅢ
##ὶ
##쓩
##몹
##染
##뾱
##＞
##覆
##預
##魁
##𝑬
##𝑨
##𝑼
##𝑻
##𝒀
##偵
##㎛
##訳
##潛
##℃
##ㅛ
##ധ
##参
##ϊ
##￡
##貨
##做
##😨
##匁
##쫄
##ᄉ
##霞
##꜄
##꜆
##菱
##ㅉ
##爐
##ᗣ
##○
##뻣
##顺
##횶
##왆
##벢
##쾲
##캅
##尋
##愼
##吐
##爵
##ⅱ
##ⅲ
##ⅳ
##ⅵ
##ⅶ
##젯
##軸
##欺
##ῶ
##𝐡
##𝐫
##𝐢
##𝐬
##𝐭
##𝐦
##𝐚
##͈
##獸
##몆
##𝙄
##𝘾
##𝙃
##𝙉
##蠹
##枉
##洫
##繕
##押
##針
##紗
##쾨
##텤
##軟
##פ
##뎈
##謙
##逢
##抚
##这
##些
##户
##갯
##址
##緞
##궃
##︎
##ᑋ
##ᵃ
##ᵏ
##区
##꺽
##纖
##㈂
##🤗
##춉
##깅
##揪
##뤽
##窺
##眾
##呈
##🥁
##爽
##룐
##牆
##清
##寐
##徙
##Ρ
##😍
##😘
##믹
##紛
##窯
##危
##뵚
##끛
##뇬
##팱
##劒
##錫
##짠
##뿅
##뼜
##읐
##恥
##벚
##藩
##퓯
##뱔
##갰
##ɢ
##돋
##權
##吧
##鶴
##妝
##긩
##팟
##漁
##蕕
##렿
##整
##傾
##縛
##瘠
##깰
##伶
##겤
##闗
##퓡
##촐
##酸
##閥
##買
##笠
##廊
##왼
##💼
##👨
##≡
##鷹
##件
##쬔
##ぅ
##訣
##ẩ
##큭
##뻤
##ɾ
##組
##綱
##ׁ
##끽
##꿨
##셕
##읗
##搖
##ᴠ
##ʏ
##덧
##Ô
##큁
##媒
##揷
##猊
##ə
##習
##솤
##壞
##흫
##郎
##濱
##硯
##経
##状
##붐
##̄
##住
##体
##温
##👀
##홋
##꾞
##굑
##꾝
##乳
##伽
##倻
##ॱ
##웽
##喚
##ֱ
##֗
##🏾
##꽝
##羊
##闕
##濤
##敵
##뻥
##兎
##疎
##竄
##粕
##ॢ
##🦲
##屬
##圍
##灊
##｜
##詳
##ở
##읏
##Ñ
##ầ
##Ã
##ƒ
##Â
##必
##吾
##戟
##🤸
##♀
##🌺
##🎻
##☃
##🦁
##旋
##孤
##괧
##撫
##鴞
##츀
##퐄
##貪
##欲
##停
##鮮
##뉨
##꾹
##눅
##診
##Ｗ
##💥
##恭
##듣
##妙
##욬
##닙
##郷
##耕
##Ｉ
##팰
##辛
##ـ
##杜
##鵑
##ⓒ
##休
##뷸
##ღ
##뢸
##衰
##含
##鹽
##簇
##訥
##畅
##떵
##繫
##奠
##뿡
##◎
##퐉
##ซ
##뒷
##寢
##昔
##촤
##牢
##緯
##程
##💫
##벂
##붷
##좓
##ů
##訪
##♨
##ذ
##낑
##풵
##띃
##덫
##晤
##閏
##믿
##흰
##È
##귵
##뜛
##頗
##儉
##异
##哨
##尸
##測
##ʐ
##央
##佐
##漆
##É
##汰
##슐
##奉
##门
##Ⱉ
##鎮
##低
##鬚
##迫
##ố
##鉤
##ᨐ
##😅
##耒
##遑
##嚼
##뫘
##똅
##边
##右
##辜
##漏
##殃
##◉
##銅
##┈
##خ
##ی
##唉
##瞭
##釜
##顯
##晝
##ᴺ
##ᴱ
##慢
##¥
##쐔
##勒
##ﾞ
##ｳ
##ﾆ
##鑾
##謁
##앰
##只
##奶
##牛
##ぷ
##ΐ
##承
##誓
##創
##늡
##墓
##詮
##增
##粒
##酬
##얍
##ń
##藟
##ʁ
##쩌
##ึ
##ใ
##จ
##잌
##𝐨
##𝐞
##𝐧
##̿
##🥵
##晶
##쟌
##☁
##ề
##晉
##萊
##寃
##循
##쭙
##駒
##ａ
##ｙ
##叙
##츨
##ʷ
##̫
##俎
##쭤
##徽
##桐
##Х
##碎
##蝴
##냑
##ᆫ
##婢
##奔
##貼
##갠
##퓩
##带
##볍
##佳
##穆
##ט
##檢
##辟
##ꇤ
##竭
##棠
##Ä
##咀
##変
##춝
##▶
##💧
##렅
##ఇ
##響
##뱄
##翰
##扱
##鹿
##娜
##ө
##씻
##ᇂ
##홒
##🗿
##🌴
##🌻
##🧸
##廛
##鬱
##᷆
##孟
##酌
##鳩
##ه
##춱
##磬
##膏
##符
##🍯
##붶
##뻟
##즳
##쥽
##刷
##舶
##Ξ
##宣
##舜
##똬
##痍
##敷
##盲
##듈
##碁
##翠
##睛
##🌈
##样
##潭
##隄
##備
##ぉ
##뽑
##🌹
##̊
##綴
##ゲ
##妓
##💤
##돠
##尙
##웹
##鼎
##ụ
##恵
##쨚
##警
##闡
##풇
##耗
##֥
##귐
##児
##综
##⃝
##竜
##腦
##첬
##簿
##ຮ
##ື
##ອ
##ນ
##ດ
##ີ
##曇
##쉥
##適
##喋
##备
##与
##잃
##斤
##脣
##뱃
##箸
##瞎
##蠟
##餠
##숯
##쑴
##傑
##▏
##宛
##엎
##冗
##胆
##늦
##蝎
##썸
##头
##级
##萦
##賴
##均
##狁
##뒀
##憑
##暈
##勳
##憲
##擣
##絮
##٣
##譚
##◠
##航
##憎
##混
##🍜
##🍖
##頼
##้
##ฝ
##็
##쿰
##郭
##蔘
##נ
##∵
##∴
##灣
##潢
##쪾
##推
##🙉
##🙈
##𝕠
##𝕦
##𝕟
##𝕕
##𝕒
##𝕣
##𝕪
##↙
##陸
##早
##伎
##岐
##溥
##宏
##걷
##🇷
##🇯
##🇵
##粲
##藿
##璣
##廓
##😒
##😂
##🙄
##ф
##쨙
##왉
##핿
##뗣
##끵
##散
##丑
##묻
##퓰
##훤
##ྀ
##ི
##ა
##왁
##샴
##©
##죡
##弄
##펫
##Ｇ
##횟
##錆
##⎨
##옄
##裔
##惕
##🍈
##辦
##崛
##│
##鬪
##繪
##畵
##綬
##楊
##찿
##幹
##ꈊ
##Ꮚ
##衢
##勵
##ʕ
##☝
##捕
##廈
##貧
##洗
##逕
##ℓ
##츌
##쒸
##繋
##뽚
##뢁
##엏
##갭
##끅
##移
##🔊
##쭨
##弘
##廿
##핞
##係
##О
##歩
##딍
##殊
##尼
##ɑ
##朱
##싼
##恚
##줍
##꒳
##㉮
##灑
##⃫
##엊
##🐻
##🐶
##🐹
##🐬
##🐰
##醒
##沒
##昨
##깻
##됨
##变
##젬
##칡
##컄
##럑
##쯳
##삗
##𝓪
##𝓴
##𝓮
##똔
##傍
##詰
##駁
##淫
##掬
##凝
##联
##癡
##俺
##飲
##뻑
##栽
##½
##勅
##첗
##닪
##씺
##閣
##롅
##뛉
##ㅝ
##Ε
##執
##爷
##剑
##ས
##呵
##沮
##陲
##媚
##囚
##뱌
##娘
##俱
##维
##久
##茹
##Ⲻ
##û
##袜
##业
##购
##펐
##옆
##웩
##炒
##涼
##삣
##串
##𝘁
##𝗮
##𝗿
##𝘀
##͙
##匣
##壟
##设
##悟
##왝
##쁩
##弩
##뜸
##솰
##닏
##Н
##蛇
##擁
##ٓ
##닯
##嚴
##画
##₩
##叟
##筲
##ᄏ
##🤪
##꾿
##쿸
##✔
##务
##퀀
##漸
##ʘ
##躑
##躅
##默
##值
##👶
##尤
##且
##촬
##⌚
##ү
##丙
##薪
##儓
##膩
##≪
##倘
##陞
##纪
##愈
##셌
##躍
##♦
##鞠
##듐
##隔
##渾
##ự
##읪
##욑
##蓰
##罹
##В
##ᴼ
##ᴷ
##ᴮ
##间
##产
##减
##咎
##ฅ
##李
##雀
##痹
##朴
##啼
##█
##꒰
##玲
##孩
##嗎
##툼
##ᠯ
##ᠵ
##ᠡ
##ᠢ
##싯
##섋
##줶
##췃
##崩
##奈
##œ
##懲
##섞
##畿
##孃
##뀐
##㷁
##👇
##ᴄ
##ᴋ
##歳
##搏
##몐
##퀵
##푯
##튿
##漿
##卄
##驤
##ى
##趄
##̆
##╮
##혠
##🔳
##ן
##🍂
##땁
##몄
##̂
##≈
##캄
##캘
##ʹ
##暾
##똣
##뎛
##箚
##戸
##旭
##擢
##辯
##姑
##笏
##ķ
##磁
##👈
##া
##উ
##ন
##্
##ড
##輦
##듕
##❕
##訛
##虹
##雍
##尚
##ḷ
##굵
##浪
##薄
##ϵ
##ぢ
##儛
##껑
##依
##🛁
##蠢
##瑚
##召
##叛
##쾡
##٤
##ῷ
##😚
##ứ
##쒹
##俊
##벩
##銃
##愧
##醜
##캌
##⤵
##堅
##強
##蔗
##価
##띔
##⬆
##胎
##̅
##큇
##옐
##嫡
##宕
##쉭
##鶯
##ğ
##庶
##첵
##┃
##ɛ
##飯
##⃛
##Ú
##𝓷
##𝓽
##𝓬
##튬
##綿
##咸
##👤
##👥
##👭
##ⅷ
##閦
##綾
##佩
##흗
##黑
##ᵕ
##医
##仇
##뱀
##뀌
##晧
##껳
##랿
##쩳
##뿩
##멈
##邏
##吻
##Ψ
##쵹
##🥬
##▒
##祚
##٘
##짴
##哲
##줋
##읃
##쀟
##꺦
##壓
##🎁
##団
##时
##专
##羹
##紹
##介
##觴
##崖
##✽
##柩
##漾
##宝
##亀
##巳
##𝖎
##𝖙
##띬
##졑
##籠
##͜
##띤
##◐
##禱
##顿
##兔
##밝
##̱
##ꪔ
##拝
##슌
##🥂
##🎈
##🎊
##儺
##称
##寿
##ゾ
##∪
##遮
##슭
##魯
##戚
##銀
##亞
##償
##વ
##噓
##鑛
##ף
##쉽
##쳅
##唆
##黒
##陀
##洹
##쮹
##寇
##닮
##🍾
##엢
##쾣
##솙
##🌼
##ג
##왓
##팠
##陷
##옮
##Æ
##葛
##惆
##悵
##꿰
##蒸
##充
##☺
##詣
##徑
##謂
##꺅
##쳇
##ㄵ
##璋
##似
##뎁
##῁
##㉻
##ﾍ
##ﾟ
##ﾛ
##ｹ
##蹈
##際
##≒
##뉘
##徵
##滴
##普
##捷
##⛱
##聴
##궂
##Ꙩ
##쭿
##홛
##얆
##팋
##縗
##뵹
##옙
##퓧
##퉓
##톲
##坑
##톈
##粱
##😭
##貳
##觚
##孑
##誡
##佚
##璽
##⋚
##쨍
##🤩
##竅
##紈
##כ
##沐
##ษ
##╭
##╰
##▕
##珍
##煇
##맙
##뵤
##湃
##魅
##̃
##馴
##ｒ
##늅
##額
##쏢
##픻
##풆
##꾩
##催
##킿
##돍
##쟰
##难
##奮
##쾃
##좍
##烏
##ך
##獣
##Π
##줸
##倆
##諜
##빕
##羽
##🍍
##罐
##꒨
##脳
##⑅
##暖
##朕
##叡
##棺
##絆
##剋
##芸
##徐
##牡
##珪
##攷
##⒃
##柏
##Ｋ
##🌆
##볇
##恤
##斉
##圣
##윷
##澗
##戮
##觸
##魃
##뀔
##꿇
##쳉
##筋
##愷
##灸
##逼
##嫁
##핱
##̇
##漫
##芳
##巾
##뻨
##릒
##쓋
##图
##振
##従
##ヶ
##苔
##莘
##柯
##笛
##戻
##陋
##排
##查
##完
##🚦
##🚥
##勇
##◑
##昭
##訟
##ｪ
##ｲ
##윰
##멕
##叶
##檄
##☎
##🍀
##増
##為
##陂
##掖
##앎
##每
##ｂ
##벰
##仍
##杈
##枒
##🐷
##抵
##땋
##戊
##😤
##昰
##▅
##▇
##▆
##▄
##껌
##맺
##囲
##◍
##쾟
##撲
##蓬
##郵
##👩
##泳
##諫
##蜀
##삥
##풉
##౿
##ᆻ
##潑
##ค
##渫
##𝐥
##챵
##뮐
##盗
##訌
##餓
##紧
##你
##ֽ
##彙
##峻
##邇
##柄
##뻀
##幷
##쯧
##ུ
##誕
##ᴂ
##겈
##穿
##쯉
##畔
##🕺
##🎵
##💃
##빳
##∽
##喊
##飮
##槍
##盾
##篤
##봬
##깎
##号
##拳
##뻜
##뇵
##쬭
##玩
##탯
##ᴬ
##ᴵ
##ᴸ
##ﻜ
##ﺤ
##ﻠ
##ﻟ
##ő
##쌉
##૮
##Е
##⋋
##獵
##쏠
##惠
##聱
##牙
##ź
##ĝ
##츊
##螭
##늠
##얻
##蟹
##듸
##꿎
##祠
##霧
##웤
##ὺ
##윌
##뽄
##🐃
##🐖
##̈
##簑
##믄
##藤
##🍰
##😯
##Ι
##Σ
##Τ
##Ο
##黎
##🔼
##詔
##푮
##볃
##퓣
##쾘
##룀
##ħ
##쌕
##竺
##羖
##酪
##攀
##ᴰ
##멌
##忡
##泰
##闥
##뵈
##謳
##卓
##🌱
##育
##퀑
##ٝ
##맬
##訊
##腹
##앓
##▣
##쭹
##🍋
##씜
##탸
##콴
##퓟
##隘
##⃘
##腋
##甁
##纜
##믕
##优
##员
##￥
##蔞
##勿
##箴
##眺
##鑊
##쫙
##惚
##螺
##娩
##叢
##慨
##捧
##뮨
##氓
##ე
##ლ
##ო
##ვ
##ნ
##ი
##轍
##叱
##🍏
##섦
##헑
##遵
##🇰
##🏃
##둨
##Ｂ
##囑
##💻
##ⓟ
##⑸
##쾹
##넋
##桑
##🍡
##🍤
##🤒
##😷
##🤮
##🤧
##🤢
##😵
##쳨
##腰
##洙
##🐸
##헉
##횐
##鏃
##哀
##努
##🧁
##雛
##🇹
##🇭
##겊
##僮
##⇛
##昏
##돛
##并
##瀾
##瑁
##蠱
##쭬
##慈
##✩
##😽
##脅
##鬥
##麒
##麟
##遁
##ɔ
##볏
##𝗲
##왠
##헠
##齧
##佶
##繩
##鎧
##砕
##녓
##譁
##茅
##証
##拠
##㈐
##潦
##굳
##脯
##醯
##侵
##賤
##絰
##熄
##昌
##∫
##隙
##肋
##씰
##蝕
##눿
##펭
##煎
##쏙
##秘
##漂
##Θ
##낱
##綵
##🐙
##罵
##侮
##🤎
##屐
##ˊ
##ᯅ
##閤
##沈
##衽
##师
##頹
##塡
##责
##职
##规
##后
##گ
##斯
##챰
##薊
##逝
##棒
##躬
##띵
##ƍ
##⑪
##⑯
##慌
##互
##詆
##椹
##臘
##듄
##繡
##饉
##疵
##抹
##瘧
##듘
##審
##査
##乡
##说
##샥
##밖
##ヘ
##▬
##☜
##┛
##崔
##嵬
##粗
##拗
##琚
##쉴
##譲
##떱
##没
##顾
##꒦
##ິ
##悅
##끊
##￭
##툽
##茫
##ｍ
##뷴
##떧
##웟
##턟
##쿐
##쉘
##헴
##坊
##꺾
##⎯
##歯
##밓
##퉷
##駿
##⇝
##砲
##ﾂ
##鋒
##亲
##찧
##醬
##륶
##蕉
##莽
##導
##쪘
##狐
##巻
##뾰
##壹
##拾
##̡
##싳
##齎
##尹
##堞
##👌
##ಿ
##凶
##卨
##뒈
##훕
##🚲
##⮚
##㏖
##繒
##釐
##錮
##堰
##頡
##獲
##𝕂
##𝕋
##𝕝
##𝕜
##좟
##┻
##颯
##隨
##募
##袵
##곬
##憐
##👎
##훠
##И
##됬
##溜
##鈀
##娠
##ץ
##緩
##ّ
##ة
##穢
##璧
##셐
##坼
##깟
##脫
##廡
##ा
##स
##व
##▫
##迷
##∃
##←
##🍚
##战
##Ｌ
##蠶
##贖
##㉰
##某
##곗
##🍴
##擬
##昱
##Ｑ
##۰
##쟝
##┌
##鰩
##磐
##끠
##뀦
##툐
##횿
##켁
##㉭
##Ы
##ᴹ
##ᶜ
##ᴴ
##奖
##阜
##핟
##웋
##∑
##芯
##퉐
##얇
##袋
##✿
##蠣
##寞
##💘
##𝙞
##𝙧
##𝙡
##遼
##촥
##㈜
##渺
##큅
##ᅴ
##🍎
##🍊
##뫙
##븣
##禎
##▸
##遂
##悖
##꺆
##鶻
##仄
##蓴
##ꯁ
##萋
##掘
##֒
##ͥ
##͛
##˒
##욆
##쉑
##Д
##🥑
##䟽
##耘
##뛍
##క
##갚
##祫
##芪
##闍
##梨
##霄
##蠕
##˜
##朽
##龜
##関
##섀
##叔
##崇
##Ḫ
##餌
##礎
##簋
##ㅀ
##峪
##닊
##瀛
##眩
##╝
##뤌
##챂
##̌
##햌
##М
##侍
##縱
##ह
##म
##त
##嵯
##௰
##殆
##ې
##壬
##濁
##🎼
##뗑
##🤔
##蒿
##撾
##✅
##衷
##厥
##錐
##셤
##耄
##鍪
##独
##种
##态
##挹
##鍵
##髏
##캑
##葦
##氎
##ℙ
##议
##机
##构
##侶
##弗
##筅
##狂
##冶
##笙
##챠
##陪
##霓
##췻
##伦
##冥
##単
##蜡
##켤
##💯
##燒
##ᑕ
##ᖇ
##ᗩ
##ᑭ
##怯
##⑴
##뭅
##忍
##꼰
##🙇
##伴
##≠
##Я
##쌩
##ą
##ق
##械
##樞
##쨘
##麾
##虧
##컿
##🍨
##桓
##띄
##ｘ
##貯
##̛
##糯
##텬
##◝
##趙
##軾
##賀
##꾁
##Ь
##𝐮
##슝
##쐐
##瘁
##튯
##隆
##顚
##്
##ദ
##ി
##潺
##탞
##욹
##햨
##〓
##⊇
##借
##纏
##눗
##밉
##🍬
##🍽
##澄
##톄
##鬢
##휇
##ᴢ
##↑
##놉
##볐
##范
##쏜
##祇
##섣
##酉
##ɒ
##謗
##滄
##貰
##鵠
##🐱
##挲
##腎
##녑
##ా
##ల
##ి
##报
##舒
##雰
##臚
##馳
##쏟
##빝
##濩
##蔬
##Ë
##ག
##Ⅴ
##弼
##🏍
##˭
##傅
##🐣
##쌰
##裳
##⑶
##鴦
##껫
##🇳
##纍
##稠
##읒
##撕
##憧
##悴
##⠀
##皎
##〇
##💨
##🚗
##孜
##终
##货
##超
##逐
##蒜
##閃
##™
##敦
##厝
##魄
##🍿
##🎦
##複
##▩
##꾤
##Т
##👰
##檠
##匈
##裹
##漱
##溟
##⋆
##徳
##갘
##켏
##🩸
##♢
##틍
##젇
##🪴
##援
##Ố
##첺
##쥘
##艟
##扑
##讚
##粛
##热
##泵
##딧
##ᄅ
##缺
##鈿
##됍
##旒
##퐐
##齡
##Ｔ
##🍠
##愴
##瀨
##僞
##☂
##帥
##閑
##㉡
##㉢
##𝐴
##𝐿
##𝐸
##𝑆
##𝑡
##轟
##틔
##😌
##駕
##歐
##膝
##ो
##प
##Φ
##恙
##촷
##裁
##씁
##絡
##檻
##굔
##➋
##屍
##✋
##𐰍
##𐰖
##𐰆
##刪
##🚰
##렜
##圭
##𐨛
##𐌅
##衫
##砂
##俠
##🎨
##ʊ
##ƚ
##ƞ
##慟
##藉
##🎺
##🎸
##🎤
##🪗
##🎷
##🔽
##図
##厄
##싖
##轎
##鼐
##両
##撮
##떽
##畎
##祕
##厲
##彫
##핛
##摠
##萑
##쎈
##🍣
##쫚
##栖
##▀
##👕
##唾
##ව
##ꇳ
##膺
##쇋
##霸
##豐
##蜂
##쐬
##ỷ
##𝓁
##筭
##⛸
##맀
##孔
##힉
##聾
##豎
##뜐
##Ｊ
##救
##Ⅱ
##閱
##쏊
##🤬
##恕
##晩
##덞
##乐
##🎣
##写
##懐
##🔻
##壙
##₊
##兢
##빻
##ﻴ
##ﻣ
##ﻼ
##챝
##핌
##괌
##🎅
##🦌
##홧
##禾
##밌
##ὤ
##⭐
##쉠
##脂
##肪
##欄
##녠
##腑
##룅
##❋
##份
##⊕
##嗣
##祔
##腴
##맷
##眷
##갗
##ལ
##歧
##〆
##卑
##😀
##蹻
##懇
##ㅟ
##🍦
##🍧
##둣
##🍪
##뺐
##랸
##闃
##Ả
##춸
##鷺
##结
##问
##蔡
##싄
##醞
##꾺
##僑
##ꉺ
##撼
##刲
##杲
##늱
##갏
##먕
##핡
##褥
##꿴
##芥
##证
##价
##🔅
##묄
##発
##籤
##栓
##夭
##㎍
##쨕
##驕
##吁
##🍙
##🍟
##舺
##😛
##웜
##☨
##按
##쑨
##힛
##贈
##🦑
##鷀
##済
##歪
##ᕬ
##墮
##Ｘ
##氅
##飢
##▪
##뵒
##쩻
##⇒
##∋
##🙆
##𖤐
##🥪
##📕
##ۿ
##娶
##诗
##꽤
##ॽ
##Ш
##Ц
##銑
##拱
##뚬
##趼
##貉
##剝
##煦
##⁴
##忽
##煤
##們
##✯
##☠
##륄
##ꇵ
##租
##ྲ
##窕
##Ж
##呂
##焦
##ک
##盒
##蛋
##庾
##箏
##披
##🔆
##檀
##櫪
##穗
##￮
##襟
##閩
##彿
##삘
##🍭
##🥧
##ъ
##🍁
##🌲
##Ì
##쾒
##텩
##뗱
##욜
##淳
##▧
##芷
##쟔
##슔
##讖
##苗
##핻
##🍷
##🍹
##峨
##鞮
##倭
##꿜
##奢
##嗚
##咽
##쉅
##愿
##盈
##悚
##🤦
##❣
##项
##諾
##閨
##𝕚
##틵
##덙
##犧
##โ
##뀍
##🇼
##숟
##恢
##좭
##🏡
##🏠
##탆
##┏
##꺠
##꾜
##뿟
##脘
##𝐏
##𝐃
##𝐀
##𝐓
##𝐄
##쩐
##늍
##뵙
##偉
##📌
##悄
##ฒ
##竊
##蘧
##棟
##뚀
##巫
##契
##逃
##뿉
##剥
##👦
##💏
##👪
##뼠
##ಠ
##贓
##页
##豹
##☹
##☀
##ʖ
##慙
##稻
##폄
##ߑ
##嶸
##🏄
##辱
##띨
##ᐡ
##髻
##핼
##땈
##曛
##閭
##잰
##̯
##죱
##떙
##앴
##젭
##✨
##鄢
##쫌
##븀
##禦
##앳
##頻
##隴
##◄
##盘
##颗
##럯
##釵
##𝒕
##𝒘
##𝒐
##𝒃
##𝒓
##标
##痰
##削
##蠔
##羨
##茜
##籌
##鈞
##🎬
##😏
##苴
##귄
##륷
##뽤
##쯽
##耐
##넉
##龕
##촹
##壅
##栄
##Э
##惻
##斜
##嗔
##遜
##⊆
##睦
##捉
##씽
##🦋
##董
##棕
##熊
##红
##视
##频
##妨
##🌾
##🌵
##💸
##殤
##狄
##쌘
##覃
##➖
##◟
##腕
##諛
##込
##輜
##芽
##雇
##伤
##妇
##簞
##裨
##냣
##培
##养
##잨
##蹌
##灯
##🙊
##깊
##朮
##踐
##🎄
##📸
##剣
##伝
##謹
##嶷
##恒
##땽
##抑
##🏽
##💝
##涉
##즑
##쭯
##뿨
##🍢
##캥
##稜
##휠
##👆
##企
##純
##⊃
##斧
##线
##謮
##惜
##ῳ
##֝
##얅
##닾
##昂
##闔
##瑟
##짯
##롑
##쭟
##🥒
##🥠
##쥰
##ɐ
##끕
##ᵀ
##祉
##뮃
##옚
##뜪
##룗
##땹
##븎
##퓕
##및
##💭
##经
##翻
##译
##斛
##誹
##놧
##뎬
##릆
##榴
##윧
##뱞
##뜱
##욡
##릔
##浄
##ր
##հ
##ն
##ե
##գ
##펩
##莧
##钟
##⊂
##찝
##😙
##큽
##允
##估
##쿜
##ⓜ
##ⓐ
##ⓣ
##🚒
##浏
##뽱
##遅
##姊
##孼
##礬
##륀
##匿
##塑
##🥦
##🥝
##🫒
##🫑
##勷
##稀
##蹤
##憺
##謫
##糠
##概
##ℒ
##╺
##⑮
##卜
##卮
##훸
##됋
##돖
##🎀
##艶
##😩
##긘
##慣
##阻
##莢
##솽
##닳
##薹
##諄
##⚪
##洛
##狭
##嶼
##屑
##푈
##컇
##햫
##얬
##寡
##寮
##┗
##꽦
##颺
##♂
##宋
##쉈
##엡
##烙
##萍
##囂
##ీ
##స
##ం
##ట
##ర
##톜
##緜
##錘
##卩
##쒼
##冲
##膈
##鏞
##떪
##伸
##텓
##볳
##젴
##諂
##墙
##録
##邉
##穂
##틋
##ㅘ
##廚
##鉞
##嘔
##뽝
##辿
##荻
##🖳
##痞
##縹
##緲
##耽
##쳔
##ｃ
##🔎
##鴛
##ӣ
##涵
##昇
##뺨
##🥛
##տ
##ո
##մ
##ա
##յ
##ի
##풰
##梢
##뱑
##쑣
##鬟
##洪
##뢴
##Ê
##썍
##깢
##ｊ
##ｕ
##茄
##菅
##ᶿ
##添
##籟
##뚫
##옇
##ɷ
##퀄
##皐
##💊
##┐
##껀
##邕
##劣
##潰
##귝
##𝐺
##櫝
##湍
##𝐝
##奘
##宸
##聰
##鉄
##横
##浜
##駅
##奬
##败
##沃
##过
##矫
##遭
##챔
##繆
##읕
##❄
##😫
##媽
##纠
##围
##삯
##騃
##낰
##ｇ
##먁
##ꠥ
##읻
##陜
##ể
##놘
##盌
##🌽
##꽐
##権
##ᄵ
##喉
##◔
##瘼
##愍
##搦
##ｖ
##函
##冒
##紐
##곘
##읨
##ფ
##据
##蜴
##爱
##护
##섃
##풯
##핚
##끳
##✮
##啊
##🐯
##乗
##毁
##📱
##◂
##ℴ
##蹄
##ᵞ
##鎰
##🃏
##无
##药
##꼮
##⚈
##橘
##힑
##🐀
##㏊
##ɟ
##辞
##🍌
##壚
##🧒
##쨉
##杞
##😃
##ｓ
##̋
##駆
##瘀
##ཀ
##꒪
##¬
##拏
##🌠
##읜
##닠
##쬐
##屨
##喻
##慼
##틄
##놷
##💍
##巣
##⁸
##썅
##匙
##褓
##⏰
##٥
##̼
##ཅ
##媛
##짙
##ᅯ
##酲
##蠌
##Ⅳ
##ﾊ
##Đ
##텃
##誨
##熙
##饔
##틉
##ֻ
##툅
##훨
##氈
##検
##솨
##雞
##趾
##帰
##攜
##倡
##姉
##땸
##✌
##셝
##턽
##ⁿ
##귡
##쳗
##킌
##冤
##ṓ
##葵
##❌
##쪙
##帑
##紳
##ǝ
##旻
##̬
##쏡
##𝗛
##𝗘
##髃
##슿
##봨
##켉
##쿩
##큵
##詭
##两
##吗
##⭑
##釧
##蒡
##槨
##牾
##❺
##ᕼ
##鞭
##헵
##댦
##삮
##푟
##採
##꺌
##೦
##蚩
##棋
##滓
##Ｙ
##嚇
##굣
##嗟
##迭
##稚
##喰
##闘
##🥚
##芚
##截
##効
##🍕
##諺
##扈
##᷇
##ཫ
##ᕱ
##켸
##ז
##焰
##脱
##佣
##맣
##뭍
##읊
##욋
##🥨
##🥖
##🍞
##🥯
##挾
##逹
##濵
##🔥
##疊
##쳥
##죌
##ศ
##뀠
##踵
##푀
##纓
##旺
##짢
##謨
##蠃
##罕
##苢
##ੇ
##৴
##ડ
##ે
##ং
##ँ
##ध
##े
##텝
##훑
##훔
##烟
##◕
##ⅰ
##쪵
##갂
##넠
##😇
##찴
##뚞
##幌
##葆
##🤛
##畷
##遽
##廬
##爍
##葺
##둾
##쨞
##쀆
##텚
##뚭
##涕
##쎼
##괠
##뎒
##ⓘ
##ⓝ
##𝙊
##𝘼
##쏴
##青
##东
##长
##✞
##뤠
##甘
##鵬
##瓈
##𝐩
##뱟
##ᴡ
##ᵘ
##𝗵
##𝗼
##𝗻
##𝗶
##𝘅
##誤
##爪
##几
##肝
##ద
##幻
##ヅ
##셾
##뜀
##띚
##滋
##凌
##ϋ
##擲
##ʾ
##👣
##🏊
##🍉
##🍇
##穩
##😖
##筍
##餔
##֨
##麽
##栗
##ꉂ
##ὴ
##둳
##श
##煌
##🤟
##Ş
##躁
##뽁
##惟
##ˬ
##払
##य
##🥔
##浣
##쓔
##藪
##惹
##產
##𝓲
##𝓼
##𝓱
##栳
##頸
##衙
##퇘
##苧
##न
##ग
##啾
##鋼
##憩
##壘
##鶏
##誥
##托
##脆
##😻
##俟
##콸
##労
##읆
##棚
##ɡ
##叫
##좔
##凄
##🔸
##멷
##짘
##姫
##佞
##书
##💔
##縊
##簧
##솖
##巷
##̞
##ὸ
##🖼
##ᐝ
##뒗
##駭
##俑
##营
##销
##覲
##悠
##ﻳ
##ﺩ
##ﻮ
##ﻌ
##ﺴ
##ﺍ
##촠
##🎋
##ꦿ
##㉯
##蓮
##🥗
##칟
##떄
##🥐
##鱇
##潜
##쌜
##彝
##귳
##귌
##뛚
##뼟
##뚦
##𝕡
##ľ
##ᄃ
##奎
##袂
##ք
##ւ
##թ
##⛅
##窄
##슁
##싈
##숏
##焼
##⛈
##苓
##툥
##朶
##噪
##樺
##츉
##徭
##倣
##햒
##🎓
##靡
##甫
##辺
##筑
##覚
##💡
##좣
##뿸
##흴
##㎡
##崙
##麤
##詛
##뭠
##멞
##춋
##셒
##뫔
##📢
##🐽
##妣
##ᅮ
##翃
##愾
##険
##🥱
##힁
##泥
##兜
##귯
##왐
##胥
##ㅹ
##ㅱ
##瀬
##咐
##쌸
##妤
##ﾉ
##깽
##잤
##┴
##ល
##ូ
##쥴
##澱
##胤
##罄
##ᐖ
##ゝ
##繳
##吼
##탔
##꿧
##耆
##ؒ
##ؑ
##ؖ
##ؔ
##ؓ
##ؐ
##嘗
##偽
##짲
##森
##द
##涓
##粍
##🙍
##뜌
##쭘
##鼔
##迅
##筩
##滾
##沼
##탉
##癎
##亘
##빴
##飄
##鴻
##樑
##좡
##˟
##炊
##鲜
##잴
##晦
##尿
##圧
##뼓
##ĉ
##🙋
##树
##볜
##违
##处
##单
##筏
##￢
##蛙
##깂
##駸
##肩
##叩
##酣
##챡
##츅
##閻
##堤
##嘴
##濛
##拉
##쏼
##꿋
##띳
##筴
##ㄼ
##놜
##🏿
##낟
##婉
##揮
##烝
##쫘
##猾
##掉
##Ở
##칰
##잊
##쑉
##썓
##댃
##兇
##絕
##볘
##న
##꼍
##嘛
##뀽
##燥
##吃
##칋
##餞
##뢡
##霏
##裕
##煮
##抛
##☑
##🚨
##￫
##恃
##Ộ
##횔
##騶
##😠
##ະ
##ຄ
##ຫ
##ລ
##ວ
##ງ
##帀
##삔
##걤
##竝
##❥
##👜
##봙
##ු
##픗
##陁
##닢
##샜
##痼
##ዞ
##ڡ
##휨
##硝
##俵
##돦
##뙤
##쪔
##📽
##Ā
##쒜
##閒
##쫑
##薬
##ᠮ
##ᠦ
##ᠷ
##濂
##汕
##ณ
##컼
##嬀
##汭
##娍
##퐨
##퐦
##寄
##撞
##覓
##髪
##燎
##裾
##汝
##릏
##묨
##먐
##倔
##儇
##🍗
##賭
##મ
##૨
##糜
##礪
##酵
##↔
##沫
##闈
##픕
##塘
##繁
##頬
##拭
##粹
##筮
##ˢ
##ઽ
##▂
##▃
##▁
##髦
##鱼
##햬
##쁌
##됫
##쾓
##啞
##Ⅷ
##臾
##녡
##갫
##兪
##髓
##🔺
##莉
##褶
##簪
##랇
##鸎
##푝
##🪵
##ʂ
##肌
##🦦
##뚪
##섚
##샠
##蝦
##╗
##롫
##쟿
##뫐
##⃚
##⃙
##흄
##荘
##๊
##☉
##🏘
##😰
##观
##Ț
##沛
##삵
##뽓
##曾
##縻
##헷
##쵶
##褻
##ົ
##ཽ
##誄
##〵
##蒲
##⑻
##汲
##旌
##뙇
##訝
##뮌
##ㅤ
##팕
##샙
##殖
##黄
##늛
##돵
##並
##慳
##깤
##瀣
##ㄕ
##ㄤ
##ㄔ
##ㄥ
##֣
##罇
##🧜
##侔
##⍋
##😶
##넜
##엾
##亚
##贸
##뽜
##蟄
##胛
##🍝
##獒
##豫
##ﾎ
##隈
##뺴
##┬
##ͫ
##ઘ
##냘
##댤
##翅
##濫
##쭓
##짧
##븜
##ⓨ
##쨖
##胱
##泌
##ᐤ
##窿
##鵄
##勲
##퐢
##棹
##ᶠ
##쮃
##꿬
##뙈
##⒝
##貊
##뫼
##🏝
##希
##氍
##£
##棗
##🌕
##⎟
##⎛
##窩
##濮
##🌘
##🌗
##🌖
##🌓
##🌒
##甥
##뇐
##侈
##젿
##핒
##簫
##￼
##ﺮ
##ﺸ
##턫
##霊
##鄰
##腿
##ම
##꼇
##뵌
##ঌ
##겡
##杼
##큣
##亮
##옘
##洽
##屯
##Å
##贤
##∧
##앝
##控
##賁
##薑
##瘤
##ヾ
##慚
##ٖ
##냨
##🦉
##📞
##쒗
##홣
##Ü
##歉
##龐
##ꃅ
##뽈
##翎
##穫
##ʱ
##ᵑ
##슙
##읭
##ţ
##🙎
##Ị
##槃
##쒈
##엀
##쾏
##竟
##誅
##记
##캤
##ญ
##沖
##俸
##횬
##紜
##뎏
##썠
##顎
##౩
##뎠
##觉
##弧
##専
##曝
##읖
##紘
##ⅸ
##뇗
##뭘
##巢
##⁷
##懶
##ຂ
##瘍
##풂
##尽
##🍸
##薇
##ỏ
##풬
##랼
##똇
##엙
##̗
##痕
##堯
##駐
##醢
##닻
##얭
##ヱ
##밡
##蚡
##促
##蕤
##😳
##⚇
##댏
##퇀
##뿹
##뙹
##掾
##襄
##篭
##嶋
##麞
##酊
##餟
##🛻
##🚛
##跳
##豉
##坤
##肓
##ར
##ٹ
##块
##贷
##款
##资
##划
##ك
##썘
##죰
##࿀
##蛤
##닱
##匡
##🦰
##삉
##鰒
##苏
##摶
##뒬
##悶
##큥
##飼
##⎜
##吠
##藷
##Ч
##흿
##倖
##鄗
##힞
##闲
##얹
##酷
##🥶
##睡
##꽥
##択
##艸
##庖
##뤨
##뵘
##ј
##넑
##뛞
##ฉ
##緊
##臓
##ǂ
##駘
##🚴
##찭
##좗
##봳
##𝚝
##祟
##矛
##鉱
##핖
##⅜
##坦
##𝙎
##𝘽
##𝙇
##ⓧ
##ḗ
##㦝
##絵
##겆
##먆
##較
##🍺
##탇
##瓣
##༶
##ૢ
##슽
##🛶
##柵
##斋
##綽
##🐊
##嬪
##혯
##唄
##舅
##醪
##鶹
##춚
##곌
##毎
##艇
##쎌
##✶
##✵
##✬
##풓
##隻
##豕
##⌓
##蟠
##紬
##🆈
##봡
##😮
##Ⅰ
##땨
##鑕
##߬
##婁
##蟆
##ṑ
##輅
##筦
##黛
##⨍
##磎
##𝐎
##𝐋
##裸
##鵲
##ˍ
##쐽
##휑
##琳
##晚
##̻
##ẹ
##识
##锅
##糊
##😣
##瞼
##𝑒
##𝑝
##墅
##砌
##꼿
##怛
##僻
##💣
##蕭
##堵
##组
##织
##逻
##辑
##珀
##𐎼
##𐎭
##𐎹
##𝒔
##ᄐ
##갬
##⋰
##뀜
##决
##胜
##负
##湧
##😗
##釗
##͟
##͞
##蜊
##휋
##煕
##뾊
##곁
##嫋
##₃
##讲
##痓
##ģ
##🦆
##琢
##訕
##🌶
##왱
##즨
##蛆
##🥓
##쫭
##脇
##縁
##÷
##🐾
##淺
##鏑
##˛
##ଵ
##츰
##Á
##帒
##🔔
##Ө
##🚙
##囿
##剩
##訶
##矜
##끎
##꿺
##蚪
##秒
##挿
##뼋
##쒽
##貝
##춐
##靺
##鞨
##荽
##咨
##쀥
##푍
##퓷
##ｆ
##ㅄ
##⒜
##幾
##瑤
##⊘
##蟬
##Ạ
##쓊
##뗾
##퉗
##뉓
##뭻
##༚
##̉
##🎇
##🎆
##琲
##몌
##뾜
##씦
##忧
##邁
##赛
##洟
##喧
##狹
##긱
##绍
##给
##认
##渴
##텽
##穡
##驪
##軔
##瘕
##쇗
##ɣ
##楣
##鉀
##啡
##춈
##ỉ
##쥥
##传
##权
##让
##协
##幄
##콱
##蒼
##蘚
##巓
##远
##帙
##銓
##擒
##🇦
##❀
##埋
##儲
##ూ
##😔
##쩤
##랔
##இ
##屠
##兀
##澹
##摺
##扛
##恣
##翣
##沂
##🎎
##쎾
##꾚
##늿
##딠
##✍
##럸
##𝕨
##ే
##⋯
##沓
##🥳
##虫
##⎧
##泛
##簀
##돢
##关
##팴
##컊
##헒
##쥜
##ཻ
##ཾ
##愉
##賂
##ᵇ
##蹬
##짣
##˖
##쨈
##۪
##챨
##잦
##痔
##綜
##酹
##쁊
##몲
##괨
##确
##↕
##胙
##ẽ
##厭
##燐
##杀
##튁
##픟
##횛
##튒
##쐮
##⁄
##蓼
##饭
##桌
##뺘
##↖
##겜
##😴
##癧
##돐
##🦐
##歆
##ˎ
##孚
##鰻
##셱
##🇩
##諍
##们
##况
##얶
##흒
##끆
##姦
##ỳ
##쿻
##헆
##ಎ
##ತ
##댯
##🔝
##ﺑ
##쬬
##嶂
##🐮
##齢
##胄
##왚
##ྷ
##🍵
##齐
##击
##藜
##֖
##⌫
##⇠
##ㅙ
##盍
##🥀
##🤑
##🟢
##怊
##뺙
##✓
##굻
##줙
##殉
##狎
##鮑
##涅
##鳶
##抽
##ˁ
##耉
##🧨
##삠
##🐈
##鯉
##귖
##뀱
##븡
##퍙
##礁
##沄
##啄
##媵
##Ṭ
##陆
##势
##퍐
##럃
##폘
##徨
##伍
##懿
##륌
##庞
##檗
##😥
##杳
##덯
##耿
##샚
##槿
##締
##籒
##∣
##髎
##볻
##戔
##🌅
##🌄
##🏙
##젹
##暨
##윫
##흅
##쬄
##ℝ
##蟻
##瓊
##ﺳ
##ﺎ
##ﻷ
##措
##猿
##켔
##臍
##瑛
##윕
##౪
##쑵
##鄲
##⧫
##휏
##ῇ
##倧
##槁
##Ű
##껡
##꼘
##🤤
##⎞
##⎠
##☚
##瘦
##椀
##风
##괵
##摘
##۶
##釘
##讞
##稍
##话
##໐
##㉤
##禳
##额
##缴
##𝙪
##𝙨
##𝙩
##쟤
##澮
##苞
##偕
##탹
##嫂
##杪
##휀
##̖
##쎙
##​
##涙
##唇
##璨
##즁
##傔
##仗
##鏤
##霹
##靂
##癬
##烹
##ད
##ᵁ
##ट
##च
##妬
##ᵋ
##욽
##넼
##뵜
##雉
##跨
##穹
##嶐
##힄
##힇
##깙
##𝚊
##𝚗
##𝒆
##𝒇
##𝒄
##趨
##👹
##戈
##탰
##汾
##ὔ
##ฮ
##🧄
##莩
##秧
##샏
##硕
##ັ
##໌
##໋
##໊
##鋌
##醇
##読
##🐐
##뱍
##ㄳ
##눤
##綁
##͂
##廐
##꒶
##鱉
##ᑦ
##돡
##챺
##囁
##𝗉
##𝗋
##🌰
##晷
##鄒
##؈
##詈
##왯
##뻉
##桜
##餮
##廠
##俛
##攣
##昼
##👊
##錚
##狽
##뫖
##☟
##둈
##뺗
##퓒
##槽
##콷
##🌟
##셥
##🌯
##꾑
##븟
##죕
##椿
##张
##拿
##੨
##怡
##触
##𝗧
##𝗨
##𝗗
##𝗜
##𝗢
##ᘏ
##ᗢ
##🎃
##💰
##楸
##宙
##広
##푭
##棘
##쥅
##撤
##߰
##羶
##٩
##姒
##ᒪ
##쟏
##눴
##ｭ
##쉉
##澁
##쒝
##॒
##羞
##𝑃
##𝒊
##𝒅
##𝒎
##汽
##촛
##拒
##횝
##盂
##◗
##🚣
##糓
##🧖
##팃
##😿
##𝚍
##𝚢
##嘲
##禺
##矮
##븝
##🐝
##좇
##瞍
##徴
##홱
##⌣
##❎
##뷘
##벱
##飩
##𝒋
##𝒖
##𝒍
##詁
##欽
##朢
##ŗ
##퐆
##⏬
##垂
##队
##츱
##☏
##腮
##🍱
##樵
##幀
##枷
##仆
##藭
##펆
##퍌
##쩬
##阳
##혓
##롷
##홇
##🖐
##ց
##ற
##𝐜
##𝐛
##⎪
##🇪
##쩅
##絢
##ో
##జ
##霖
##槊
##篪
##黴
##俚
##팆
##銖
##륏
##៊
##ុ
##ត
##ថ
##Ç
##鄉
##炬
##ⅴ
##饑
##嵌
##粥
##쌋
##흩
##静
##沉
##驥
##ằ
##🐳
##较
##ʚ
##👋
##゜
##猷
##𝕖
##宥
##ὲ
##评
##겪
##淪
##嚮
##👛
##ђ
##ћ
##蘂
##驩
##帯
##崽
##闪
##纂
##炉
##烤
##瞻
##瀟
##绡
##뭚
##듥
##昆
##坍
##塌
##삦
##秤
##🦾
##棍
##🥤
##🧋
##蘖
##嬖
##肛
##擦
##㉥
##堪
##钱
##̎
##顛
##甎
##嬋
##娟
##쭊
##뿲
##쏳
##윻
##韦
##✺
##븕
##ｻ
##阪
##翳
##妒
##簽
##埸
##皁
##︡
##堗
##圳
##뛀
##沆
##춿
##얿
##텶
##旃
##臼
##꿕
##⧸
##虑
##🚫
##큿
##攬
##ǚ
##👑
##🏆
##🥇
##ᄆ
##繞
##仮
##벧
##쬋
##痺
##弑
##勾
##罔
##呱
##簷
##ῆ
##ถ
##ⓢ
##菁
##絀
##ര
##踪
##💉
##癲
##彔
##ヽ
##펏
##늆
##悱
##謔
##Ọ
##誘
##꾱
##肘
##鬯
##朞
##ᖰ
##ᙏ
##ᖳ
##˞
##楫
##胖
##络
##舆
##论
##쀵
##🌤
##ˌ
##蛾
##툉
##꼉
##节
##舃
##鐸
##槎
##펅
##뮁
##柑
##辻
##֙
##瓿
##籬
##駟
##🚢
##磯
##ʤ
##ծ
##폛
##ẻ
##🖍
##🖊
##📔
##📙
##芩
##탙
##輛
##ᆍ
##屹
##瓷
##༝
##錬
##휃
##됔
##돣
##岬
##췡
##ૃ
##గ
##🏓
##🤹
##苾
##芻
##쳡
##皤
##匯
##뚸
##ꈨ
##ꎁ
##瞞
##諮
##ᅦ
##遗
##癈
##귻
##엪
##逮
##檜
##黙
##灌
##닡
##魍
##▥
##갉
##쵤
##캍
##큔
##衿
##얕
##삫
##훋
##ˈ
##🐓
##˝
##͚
##ʎ
##쮜
##췩
##쎏
##剧
##郛
##擾
##🦶
##娑
##옾
##뷁
##徧
##纁
##ᗊ
##雫
##డ
##త
##🤙
##𝛼
##𝑘
##숱
##찟
##皿
##쳣
##Û
##癢
##쩰
##窆
##룜
##厓
##뎍
##켕
##柒
##깼
##₁
##뻰
##蹊
##熏
##瑰
##⚓
##ˑ
##긑
##鱝
##🇿
##柚
##ɕ
##褙
##畧
##瑪
##竇
##ἶ
##霤
##预
##⎦
##质
##ယ
##်
##靖
##褐
##ᴾ
##ᴳ
##┫
##惰
##૦
##纈
##ཙ
##邠
##题
##瑣
##릸
##쟳
##쮖
##讎
##𝖔
##𝖗
##𝖉
##骼
##鱺
##它
##ễ
##💢
##汀
##દ
##濺
##髒
##総
##🫖
##满
##뺀
##𝙙
##𝙮
##輒
##◾
##駝
##𝕆
##𝗟
##𝗠
##𝗡
##顶
##醤
##Ν
##Υ
##Κ
##Η
##犢
##壊
##乖
##蘋
##銷
##쉤
##뵛
##Ⅶ
##⑉
##꽩
##풼
##뺭
##냎
##쥗
##컛
##訖
##赫
##洁
##嫉
##👂
##敝
##疼
##ɥ
##斎
##댠
##讒
##ﻭ
##갼
##熛
##滌
##๕
##貔
##貅
##戍
##⎣
##鬣
##⑭
##🚚
##०
##曖
##눞
##𝑶
##𝑳
##冕
##醋
##桥
##⅞
##🐢
##ﾌ
##쫩
##篁
##ᠳ
##ᠠ
##ᠶ
##蘆
##๓
##ĕ
##퓔
##💁
##뜹
##🦳
##氳
##𝙚
##𝙗
##𝙤
##𝙣
##敭
##١
##ᴊ
##鑰
##푿
##쑺
##뗠
##隰
##疢
##ꃼ
##씈
##蔭
##✖
##桂
##┼
##▨
##▤
##獗
##З
##콫
##땔
##ཁ
##ʒ
##🤲
##ฑ
##㎒
##⑱
##롓
##姸
##୨
##槧
##郁
##璉
##銳
##⁺
##쩠
##Š
##靨
##蝠
##➕
##灵
##犀
##№
##罩
##ꜱ
##譴
##錯
##ᕕ
##̠
##왘
##♿
##燼
##潏
##橐
##拖
##˄
##鄴
##貽
##켭
##馥
##姆
##弛
##鰲
##戲
##梳
##🥩
##৹
##੫
##겙
##湲
##ử
##ꪑ
##վ
##뗄
##💩
##勁
##紡
##땍
##돤
##🛸
##墜
##℡
##쯀
##瞥
##퍸
##蚣
##俳
##២
##办
##༥
##쬰
##靭
##랧
##빧
##慝
##𝐠
##鑼
##汪
##֑
##횅
##遯
##⇩
##쬴
##茸
##ꨄ
##殳
##📒
##彊
##돜
##😐
##릞
##😄
##켻
##坎
##몳
##앹
##ɹ
##곑
##疳
##憾
##뉜
##怎
##麼
##勸
##凰
##剎
##🦥
##瘓
##쨰
##켑
##髴
##蜺
##悸
##欣
##濯
##둗
##谿
##痴
##ଓ
##ⓗ
##ⓖ
##Ò
##麺
##諐
##🇲
##🇴
##呀
##빮
##볛
##뎎
##굄
##솎
##廁
##雹
##뿦
##뮸
##퍹
##旧
##🧺
##ഃ
##蓉
##퇞
##监
##֮
##荔
##𝔸
##祐
##촯
##춍
##▢
##ء
##🐏
##ㄽ
##ㄾ
##ㄿ
##跎
##脊
##읔
##帕
##뀹
##偸
##檬
##濠
##య
##ꄃ
##苒
##꒵
##闢
##裟
##廨
##뗀
##🤨
##🧐
##쥑
##抉
##杂
##插
##Щ
##헟
##즶
##跪
##錨
##逅
##➃
##ῖ
##棧
##🟨
##么
##ٚ
##퇫
##溶
##奄
##迦
##僉
##🤳
##畉
##鍋
##툤
##ﺪ
##緑
##芬
##犂
##誑
##掣
##쨥
##秌
##ᵗ
##윔
##嗷
##琉
##璃
##蟀
##붻
##웸
##맇
##竽
##亨
##⛵
##溯
##鯊
##🦪
##귑
##听
##𝙑
##𝙀
##𝙍
##𝙏
##𝙖
##𝙠
##楷
##똭
##璫
##馨
##❔
##电
##兴
##稼
##Ⅸ
##̸
##뀚
##랅
##넸
##紇
##퉂
##棣
##榔
##俣
##ŷ
##⇔
##玞
##ধ
##ক
##饒
##导
##梯
##츼
##刎
##컫
##扯
##醮
##갺
##̝
##͍
##̦
##̜
##̍
##̾
##͌
##͘
##͢
##͠
##珩
##寝
##씅
##燧
##꽉
##韜
##囀
##ǯ
##寓
##焚
##雕
##桩
##😓
##𤨿
##覡
##靠
##领
##ಥ
##扣
##燮
##蹙
##띈
##卖
##髢
##拓
##☕
##咳
##茛
##塋
##蜿
##蜒
##綍
##갶
##鵝
##现
##诛
##㉪
##芹
##ᔕ
##ᑌ
##쉿
##🅿
##갇
##煩
##魛
##늼
##卅
##謄
##鹏
##飆
##鲍
##尔
##뫬
##纲
##📖
##📗
##쯸
##獺
##🚶
##☐
##鎚
##툇
##俘
##￠
##₣
##ல
##ி
##눾
##땢
##옜
##芙
##뉩
##嘿
##싁
##閘
##穰
##啜
##곫
##戢
##蠧
##ெ
##ர
##ு
##க
##쐧
##쯜
##뤙
##ⓡ
##眹
##밷
##緘
##黥
##柬
##涎
##綻
##섕
##棲
##蛸
##뺇
##賻
##懃
##🔴
##閾
##夔
##Ս
##Հ
##徉
##檣
##牽
##🗺
##🧭
##🏔
##ᆮ
##✤
##˗
##釉
##搔
##📦
##팤
##牵
##禹
##֔
##쨒
##◌
##殯
##꿏
##풒
##둰
##샶
##⍢
##爇
##塼
##揭
##歟
##🗣
##嵩
##짌
##꺂
##넗
##箕
##봣
##딅
##葱
##絞
##꾬
##细
##螂
##뉠
##옭
##찠
##씃
##뎴
##睹
##뀩
##푌
##떟
##맟
##봕
##پ
##쐄
##끜
##큮
##쓧
##뎝
##砮
##랖
##篥
##뚹
##ؽ
##填
##鶩
##睫
##㎝
##蠅
##剖
##憬
##舷
##᷁
##賄
##뀻
##瓴
##즬
##ज
##퇏
##쯪
##밨
##楓
##ؿ
##껭
##싣
##벆
##譖
##쟛
##継
##蕊
##̲
##鉾
##퉉
##껇
##枏
##ं
##ड
##惶
##讨
##炙
##榭
##좮
##憊
##쉪
##琅
##玕
##뭏
##엩
##͓
##湫
##냼
##💌
##🌛
##塹
##뿯
##퐋
##쎹
##╱
##貶
##뷍
##ಂ
##ﻈ
##ﻨ
##ؙ
##ؕ
##📮
##먽
##驢
##🔐
##륽
##杆
##큑
##벘
##萄
##矩
##튈
##걋
##툿
##솅
##廂
##跣
##ᗰ
##碟
##沌
##㈁
##蕃
##볦
##똠
##룟
##뇝
##혤
##繽
##홳
##앢
##웎
##պ
##휳
##췍
##瞽
##蹠
##욞
##퓑
##큱
##ि
##🌙
##徊
##횴
##茂
##￦
##咫
##鯰
##뮹
##𝕀
##𝔹
##𝕃
##咒
##殀
##ս
##դ
##լ
##驍
##헼
##柢
##৺
##傲
##臆
##贼
##腓
##袱
##笈
##篌
##鴨
##ౌ
##ɲ
##湌
##鎌
##獖
##⚠
##ḙ
##餡
##낢
##⬜
##⬛
##❦
##淆
##呢
##儈
##뚍
##샼
##삸
##쩩
##맕
##🔫
##✂
##슯
##崚
##鹰
##볫
##눮
##룝
##ʻ
##🤷
##𝗞
##봌
##还
##哮
##𝙝
##캭
##⌔
##⊼
##騒
##黯
##樊
##惺
##瘙
##🍔
##뼘
##嗾
##调
##똟
##뜢
##솼
##댛
##🌨
##嚣
##뀟
##힠
##붤
##🙅
##🦜
##늪
##ဟ
##ာ
##မ
##ိ
##တ
##ပ
##ဖ
##ွ
##ဲ
##့
##랒
##𝑧
##菲
##்
##쇨
##嬴
##🥮
##ᄌ
##ᄋ
##梔
##謡
##蹕
##澈
##낕
##懦
##蕢
##ښ
##靄
##⛏
##澣
##း
##ု
##င
##☓
##≲
##痘
##댸
##췽
##泗
##ᴖ
##믶
##甄
##萱
##胝
##낣
##疴
##ፍ
##荏
##耇
##閫
##迁
##趋
##ܫ
##੦
##袞
##ഒ
##낊
##뒠
##𝗦
##⇓
##띱
##닟
##둷
##껯
##괿
##폔
##쌠
##쉖
##쥉
##젷
##뚯
##펒
##🔮
##巒
##묠
##肇
##农
##锄
##깈
##纯
##藁
##忱
##籃
##밬
##뢿
##櫻
##詢
##隍
##𝙆
##🅔
##🅦
##🅞
##🅝
##땰
##🙀
##燦
##씊
##뒉
##✘
##ᗪ
##赐
##꺵
##搶
##卡
##➜
##뻌
##듗
##蔑
##ｴ
##ﾙ
##鱸
##膾
##𝐤
##嘈
##멨
##瘂
##띰
##ᐟ
##𝟳
##噴
##녮
##쩙
##墩
##园
##譎
##껔
##ヰ
##൧
##幗
##珮
##蔥
##⌖
##騁
##喘
##◊
##麴
##펼
##蛭
##椅
##텼
##卉
##飜
##憚
##ℵ
##凸
##瀚
##畹
##槌
##앀
##렫
##踽
##👐
##챕
##뽽
##﨟
##Ễ
##瓏
##ϑ
##ܐ
##辣
##沸
##闷
##飘
##椽
##肖
##툠
##📃
##枪
##🫐
##쪕
##ʶ
##렣
##🏅
##肿
##欧
##眥
##ȟ
##ῦ
##暄
##暂
##缓
##沱
##ʸ
##醐
##뀝
##阡
##悒
##妊
##͖
##̚
##¤
##삤
##箔
##戯
##삖
##퇼
##À
##🅸
##🅲
##🅷
##🅽
##├
##ὐ
##줰
##죈
##仭
##뛸
##볗
##젱
##珉
##🎰
##邃
##턧
##텄
##ञ
##뜍
##֞
##阅
##读
##줈
##쐤
##𝗴
##𝗹
##⛔
##鴈
##旀
##죥
##银
##닆
##죮
##毋
##赴
##珞
##퉜
##❁
##푠
##⇨
##繍
##◒
##懣
##줕
##鞄
##쳭
##엫
##𝚞
##𝚛
##😲
##ť
##敔
##띝
##퓸
##厳
##멥
##寰
##蕘
##袴
##쵊
##㉧
##蟾
##痩
##虚
##̳
##荀
##惨
##毖
##룔
##榛
##뺏
##쀋
##퇓
##찆
##궉
##옫
##磋
##톼
##軽
##탷
##쉣
##솓
##깩
##딦
##묚
##쟣
##훦
##汇
##կ
##縄
##禩
##刖
##❅
##쬽
##岵
##넿
##ὰ
##ؤ
##桶
##ﻤ
##✳
##⍙
##⍜
##湎
##霽
##쵝
##렶
##됛
##畀
##鸟
##黏
##苣
##蛛
##ᠭ
##ᠨ
##쏭
##꽹
##묖
##웻
##겄
##您
##ヮ
##醴
##ଳ
##碗
##🟦
##넆
##봠
##轝
##买
##橈
##줠
##뵴
##📣
##圜
##뗐
##秊
##븨
##糲
##🦕
##显
##壕
##⑷
##뀺
##읓
##뺵
##댝
##摯
##櫃
##褪
##뽐
##돱
##騭
##돻
##尘
##埵
##ڠ
##ڬ
##Ğ
##뉼
##瞰
##乭
##Ù
##ẳ
##鵡
##虻
##⇀
##🩳
##틪
##텗
##둻
##쎠
##킠
##适
##驟
##媞
##湘
##畑
##酔
##鑱
##扁
##깧
##斫
##韈
##ﻹ
##敲
##寥
##짰
##쎥
##竈
##慽
##ⓚ
##⤙
##緻
##ǜ
##쮷
##왴
##랃
##选
##择
##哪
##约
##𝐍
##乧
##昊
##抒
##歴
##쫅
##ꎴ
##ꃋ
##셭
##뉹
##ｋ
##柘
##왬
##慄
##욯
##糸
##耜
##🤡
##栍
##큄
##좐
##挈
##痙
##튱
##疸
##櫚
##𝘄
##𝐖
##℧
##𝐒
##蓿
##⫣
##✰
##糴
##⦁
##葭
##𝖑
##埃
##薫
##넶
##봰
##≧
##ｧ
##ﾅ
##繖
##⫬
##𝒈
##ই
##甜
##曼
##瑠
##🐜
##⚾
##٠
##릧
##쇕
##贅
##蛻
##ᓫ
##컅
##쓠
##퍬
##Й
##🍐
##뷌
##돏
##믞
##챀
##펥
##汐
##鑽
##뫃
##홺
##뼴
##쀳
##拼
##贴
##褸
##餒
##遏
##🔓
##凹
##歓
##🧧
##🍛
##뉑
##繭
##卌
##ြ
##န
##ည
##ေ
##က
##켙
##Ấ
##闋
##傻
##֛
##뫌
##⌁
##✊
##喷
##嚏
##厉
##廃
##띡
##턑
##చ
##홹
##즤
##葑
##杵
##즥
##悃
##帚
##垈
##뭬
##갾
##胚
##둿
##ẵ
##篦
##쿅
##恁
##ฤ
##⚰
##🐑
##萸
##콵
##뿁
##웧
##릫
##챷
##앐
##躕
##쁑
##봆
##싍
##遞
##嵎
##˷
##ˣ
##揺
##蠍
##纺
##웄
##𝑟
##뇔
##裒
##먬
##蠡
##걯
##뒄
##쇤
##陈
##谢
##积
##溲
##桿
##쎗
##丝
##쵥
##쎢
##틭
##쪠
##곓
##톦
##컁
##准
##➰
##雩
##ⓤ
##ˉ
##藹
##栢
##换
##蹴
##첞
##웈
##빢
##픐
##뾟
##훿
##甕
##잏
##逋
##쫕
##쉌
##ᾶ
##ｮ
##泓
##浸
##靼
##💵
##🍲
##🥘
##婭
##藶
##屣
##蛑
##ဝ
##ဏ
##္
##ဘ
##ူ
##蛮
##ʿ
##밐
##왹
##হ
##𝖊
##壝
##朧
##舉
##擡
##⚆
##횇
##샸
##븯
##삞
##귇
##첾
##퓻
##ʳ
##轢
##㉲
##艮
##鍰
##😪
##懂
##坛
##🤝
##🧑
##伺
##敞
##🛏
##ἷ
##쮐
##뢾
##뺷
##🏌
##巹
##섁
##璜
##쉨
##豁
##蓏
##붇
##흊
##阵
##麦
##̒
##蠐
##쏚
##峡
##陌
##藕
##🐩
##🇧
##🥜
##觥
##苫
##띙
##팈
##🇽
##軫
##澔
##涆
##॔
##萃
##凤
##〒
##앋
##Μ
##畯
##쫍
##ᶸ
##哩
##碩
##̭
##🌭
##⁶
##Ế
##슼
##휵
##袒
##륮
##贄
##孀
##넭
##냮
##ℜ
##頏
##🥭
##孥
##雌
##🐠
##👉
##భ
##奭
##쮿
##퀛
##🐨
##묝
##鴒
##寔
##켚
##⚘
##琦
##鸣
##堀
##쥭
##羈
##۩
##۞
##怏
##盏
##烛
##灭
##똴
##๐
##ۇ
##籥
##ᘧ
##젃
##릻
##悰
##黻
##🤽
##뽊
##옳
##쒡
##쾰
##툪
##瑙
##긧
##费
##￨
##〻
##须
##笥
##璩
##윱
##뜜
##恂
##薨
##献
##柴
##늒
##㬉
##釀
##ꙻ
##॓
##৸
##滔
##퐡
##퐩
##햠
##轡
##🐕
##◜
##ᅧ
##쳄
##⍤
##謬
##폡
##柠
##癨
##创
##縷
##쥠
##宁
##慂
##굶
##🚀
##沴
##ᅀ
##擴
##悩
##긷
##梗
##뜽
##ᑎ
##쭅
##뱣
##ٺ
##싺
##냌
##쬒
##뒖
##竣
##樸
##劂
##归
##ㄨ
##ㄍ
##ㄜ
##ㄌ
##ㄧ
##剂
##晕
##顆
##渋
##⃜
##ㆅ
##杷
##倀
##ृ
##嶇
##↝
##犁
##ᔆ
##杭
##佾
##얣
##䨥
##濊
##韆
##탴
##┣
##硫
##㝵
##曠
##餃
##췟
##잒
##酎
##쓕
##촫
##Ē
##忤
##𝟶
##𝟸
##갽
##່
##潟
##퇑
##泅
##₄
##𝕤
##𝕥
##奩
##帷
##졈
##挨
##拶
##喃
##坰
##枋
##▮
##▯
##🏜
##🏞
##🏟
##忙
##⌛
##滞
##绝
##🐴
##룃
##덛
##►
##𝟫
##휄
##杉
##뀸
##ૄ
##긽
##닎
##꼸
##ʼ
##狒
##勻
##⊱
##쩺
##쨽
##뚕
##矯
##盐
##县
##縠
##뼤
##针
##缶
##핐
##핆
##픹
##୧
##傭
##车
##켛
##ʡ
##搾
##휙
##蘞
##莓
##苡
##▐
##蜍
##騠
##慎
##✪
##👖
##🧢
##릂
##凭
##栏
##핔
##푣
##섿
##턥
##룛
##뭼
##🔧
##씍
##蜮
##鑒
##챼
##旄
##扫
##ত
##渥
##紂
##习
##误
##顗
##茨
##梏
##隋
##扩
##跚
##֭
##呶
##咤
##렄
##眄
##芋
##儼
##莪
##ʧ
##읈
##✈
##踢
##ゞ
##뎢
##맫
##ْ
##弥
##猜
##耑
##콚
##愬
##罍
##筯
##找
##屏
##🥣
##熹
##🐘
##渣
##衊
##艙
##◃
##洸
##솸
##젰
##팼
##饜
##쐆
##뼯
##횒
##꿱
##깷
##뚥
##랪
##씭
##Ī
##𝙈
##ှ
##稽
##𝕔
##🌬
##瑕
##쎅
##ĺ
##લ
##ો
##喫
##횎
##겮
##팧
##祼
##🌧
##홌
##趺
##剄
##飱
##鳧
##슏
##꽔
##퇹
##콬
##쏮
##🚬
##曦
##΄
##姣
##丰
##临
##验
##础
##씐
##ͦ
##숕
##璟
##훽
##躪
##洶
##怩
##坏
##跖
##営
##⒪
##뛇
##럫
##슊
##❖
##𝖆
##𝖒
##𝖕
##誉
##졷
##넩
##쵭
##桎
##欷
##텰
##됯
##鶿
##ʝ
##꿅
##梦
##诉
##侑
##棵
##榆
##镇
##︠
##좩
##핝
##搬
##騈
##˽
##뤂
##喎
##脾
##ｾ
##∘
##燗
##牗
##훡
##蝗
##턊
##숣
##맲
##艋
##膨
##ᄇ
##竞
##텉
##֜
##劈
##틤
##🏢
##팦
##컭
##枳
##逈
##梟
##ғ
##쉆
##쮨
##拐
##曁
##珙
##ґ
##馱
##귅
##獪
##劓
##吝
##൱
##轤
##👯
##鷓
##鴣
##귱
##叭
##쌥
##좃
##琛
##챶
##Ɂ
##൦
##🐔
##엷
##햝
##뒩
##퉬
##틩
##襨
##Ꙫ
##朵
##졳
##璇
##鼈
##뒅
##뼅
##뻍
##냬
##뙨
##銭
##줳
##휸
##럦
##댷
##𝐇
##𝑤
##🩹
##뿴
##챇
##뷽
##课
##寤
##艭
##ᄂ
##֫
으로
에서
##니다
습니다
20
는데
한다
##er
지만
##on
까지
에게
어요
##ti
##he
##00
사람
##in
##en
아니
생각
라고
##or
입니다
##es
면서
다고
그리
the
때문
##al
##an
다는
대한
시간
10
우리
보다
합니다
사용
라는
어서
201
##ed
그리고
부터
경우
된다
19
##ar
해서
위해
아이
하나
##nd
너무
그러
of
가능
##at
##렇게
사진
그래
자신
##om
다른
그런
##tion
더라
따라
in
함께
##it
많이
정도
가지
##is
이나
##ic
들어
네요
통해
연구
시작
이상
으면
and
세요
해야
한국
##re
##ou
다시
##as
12
필요
11
##el
정말
문제
다가
도록
만들
##ing
오늘
대해
사이
경기
프로
마음
지금
200
처럼
가장
바로
으며
ㅋㅋ
모습
방법
지난
모두
보이
여기
##ent
진행
이용
##스트
사실
##지만
##ol
이렇게
또한
이런
같이
다음
는지
##ec
정보
교육
서울
이번
다양
사회
30
아요
거나
##et
나타
결과
15
는다
아서
위한
하지만
인데
관리
관련
모든
맛있
지역
제품
##레이
확인
##ation
상황
to
여러
##ro
이야
부분
관계
##le
##대로
그래서
처음
사랑
##ac
아무
상기
없이
다면
이야기
친구
진짜
이제
으니
이미
준비
스타
또는
가격
중요
는데요
##st
이후
조금
ㅋㅋㅋ
과정
상태
영화
그렇
com
th
방송
##ig
제공
내용
##구요
이유
어떤
포함
100
##이트
13
이러
구성
특히
설명
나오
돌아
세계
역시
선택
18
##il
전문
느낌
자리
지원
그러나
사업
효과
대표
동안
보여
14
해요
인지
발생
202
모르
##ver
니까
어떻
16
현재
ㅎㅎ
활동
기술
그녀
그냥
더라구요
만큼
아닌
미국
대학
분석
개인
대상
일본
어야
##부터
##am
시장
남자
##이스
소리
그것
위치
##비스
시키
##ur
선수
기업
추천
계속
얼굴
기록
학교
새로
직접
##ag
감독
##ul
에요
운동
##어나
치료
문화
건강
됩니다
여자
드리
여행
피부
17
##ve
의미
결정
생활
서비스
아직
자기
머리
중국
##id
실시
못하
이름
일반
도시
답니다
21
25
라면
##어지
22
먼저
들어가
어떻게
공간
그렇게
기대
경제
카페
물론
어느
영향
기준
##ce
##ter
아주
추가
려고
더욱
엄마
평가
해도
의해
여성
가족
##지막
시즌
얼마
배우
000
st
국가
상대
인간
##th
개발
알려
변화
최근
맛집
하루
24
이루
활용
##이터
마지막
방문
기능
이해
올라
##ow
for
고객
어려
정부
음식
비교
학생
최고
나라
프로그
구매
##os
마다
만나
요즘
도움
경험
무엇
is
50
관심
환경
을까
존재
ㅠㅠ
계획
지나
그런데
로서
##em
기본
소개
바라
##ch
새로운
전화
차량
주문
어디
투자
자연
거리
차이
##im
게임
공개
구조
프로그램
##니까
스러
##랜드
엄청
##us
##이크
라도
##ng
조사
이것
보험
인터
##od
작품
##으며
나가
##og
전체
위해서
기억
이날
감사
현대
인가
##거리
회사
The
찾아
드라
더니
##ad
상품
바람
기자
저희
기간
##이어
운영
그래도
##tt
결국
23
해당
아래
자료
국내
##다고
참여
199
자동
단계
상담
유지
##um
실제
사건
작업
##ts
시스
##ess
##머니
만족
완전
방식
따라서
con
설치
부산
밝혔
40
내려
##ab
그럼
기다
고민
중심
걱정
메뉴
매우
형성
##ep
능력
언제
중고
제작
한다는
행복
알아
세상
##ly
한편
00
표현
정신
적용
서로
국민
대로
예정
안녕
으나
영상
시스템
##ore
보내
##리스
밖에
##ir
결혼
순간
한다고
##리아
해결
분위
##스터
##tic
뉴스
기분
##ith
판매
발명
다니
기사
시켜
디자
##ity
##시아
그림
##레스
성공
분위기
제주
on
오후
수준
##BS
공부
증가
##스크
처리
연결
괜찮
힘들
##op
위원
##ay
##다는
근데
방향
대해서
나왔
##소리
보였
어린
거의
따른
아침
##운데
##ut
##라고
당시
수업
므로
##요일
이동
##부분
스럽
지방
##ri
이랑
누구
특별
최대
센터
한테
자체
무슨
##없이
정책
라며
병원
##ew
as
계약
노력
리그
데이터
##이지
자세
공격
기관
은데
청소
산업
형태
못했
행동
고자
##이드
나온
학습
##ot
역할
께서
##ttp
##어진
시대
더라고
주변
##라인
al
어도
##로나
http
##uc
사고
검사
pro
디자인
일부
커피
보호
내부
로부터
26
##oc
정치
be
인해
장치
혼자
촬영
역사
관한
##버지
으로써
아파
반응
##디어
당신
27
의원
일단
나와
##ati
In
with
선물
말씀
목적
##if
출연
부담
##ap
느껴
성장
가운데
포스
따르
28
고기
대부분
더라고요
구요
업체
살펴
신청
##인다
##주의
후기
an
다르
입장
제대로
피해
비용
화장
거든
가치
중고차
충분
정리
im
올해
동시
자유
기존
시설
re
드라마
질문
그대로
##ud
모델
셔서
음악
31
개월
주인
##ere
고려
각각
움직
스트
안전
시험
오래
노래
발표
못한
신경
나이
저녁
후보
##age
가져
인정
가까
아야
예요
##심히
드러
##자기
##ment
지요
ex
항상
오랜
궁금
코로나
##ate
발전
수행
확실
##ion
집중
조직
소비
이라고
인식
이미지
제도
유명
that
##포츠
느끼
바이
현장
자동차
kr
29
라이
선생
##통령
등장
개선
생산
도착
연기
요구
##다면
기회
프리
부족
정확
국제
대통령
조건
번호
주택
부모
판단
지속
여름
카드
주장
제시
그룹
발견
영역
그만
으로서
특성
마련
삼성
현실
얘기
달리
일정
경찰
대구
환자
책임
마치
or
##운드
안정
##ers
목표
인사
참고
위험
자주
매일
더라도
##igh
열심히
감정
표정
인천
건물
인기
목소리
우선
이전
TV
얼마나
##리어
플레이
마시
예상
이곳
대신
작가
장애
의한
아들
분야
깔끔
가진
나요
##un
고개
60
아파트
상당
이어
마을
요소
##이블
##라이
어렵
잖아
공동
시기
시청
was
가득
개념
분명
##로그
##립니다
##BC
일상
제일
##ww
규모
스러운
는가
중앙
영어
포스팅
예약
아버지
행사
아름
재미
500
이하
##ain
정상
##스로
종류
대회
www
##디오
원래
그때
##인트
스타일
장소
갑자기
조선
버리
사항
평균
##마트
##므로
지도
거래
##tr
다녀
강화
간단
##까요
이거
만든
알아보
려는
na
행위
##너지
나타났
라인
##ure
공급
금융
라서
올리
by
스포츠
세트
대비
주차
교수
스스로
##린다
아마
전자
일어나
제조
지식
과거
##se
요인
빨리
설정
전혀
브랜드
바라보
잠시
승리
wh
naver
특징
모양
이사
보도
여러분
경쟁
남편
빠르
의사
미리
당연
거든요
##and
사라
하늘
##ang
제거
35
##무리
나타나
식사
듯이
2015
##으나
상승
성분
##수록
2018
민주
직원
주요
오른
32
뭔가
미래
등록
비해
지난해
##아가
측정
컴퓨
2016
198
인생
사무
혹은
했었
오빠
살짝
##pl
가입
##어난
작성
드릴
아기
하나님
업무
예술
보인다
동일
앞서
요리
##우스
와서
학원
비슷
인터넷
##가지
온라인
올려
##ear
##vi
보통
외국
su
res
2017
날씨
마무리
300
무대
단체
언니
호텔
으면서
레이
전기
유리
블로그
연락
중간
스토
아빠
나무
공연
크기
2019
구체
전국
##전히
크림
미치
열린
본인
##러스
웃음
원인
기다리
주말
거기
##ak
2020
과학
사장
대화
수술
가슴
겨울
컴퓨터
다만
대전
소재
ac
약간
생기
##rom
##스타
공식
체험
2021
##ect
전략
오히
강조
통신
할인
de
##워서
인데요
금지
선발
저렴
살펴보
오히려
시민
##고기
어머니
부동
으시
스마트
증상
네이
다이어
자격
이건
이게
무료
감소
##동안
잘못
다리
의료
드립니다
선정
##ff
규정
버스
재료
포장
달라
대출
가정
##ist
01
블랙
매력
##ant
만드
문학
구나
물건
##벤트
bl
70
포인트
이벤트
고요
따로
해외
훈련
##one
오전
##ell
구입
완성
부드
36
단순
co
ch
작용
굉장
조절
단지
타이
노동
부동산
금액
으로부터
##거운
하이
높이
##이션
평소
회복
행정
전달
파악
##ous
조성
매장
떨어
##ong
제외
##다가
33
인상
은행
한데
시행
전쟁
현상
기초
제한
세대
속도
에너지
광고
범위
소설
기반
한다면
편하
절대
지켜
부르
집단
교통
##est
종합
사례
지지
차지
80
표시
실제로
안내
##iz
넘어
광주
확대
베이
아름다
바닥
도와
##ine
상세
캐릭
추진
##진다
바다
위하
아도
반대
2014
##자리
##qu
주로
우승
동물
장기
변경
비롯
교사
코스
시리
측면
남성
대하
버렸
전했
안타
멤버
예쁘
사이즈
눈물
인물
체계
시원
여부
으니까
##세요
시켰
강남
##ated
오랜만
검색
컬러
대체
화면
오픈
관광
시선
해석
대답
주제
##ence
다행
캐릭터
혹시
어울
##마자
굉장히
##ex
위원회
전망
부탁
적극
정의
완벽
귀여
##our
조정
소스
대학교
물질
여전히
운전
그게
놀라
이르
다이어트
언어
소식
달려
주민
자마자
가구
##게요
으려
##ip
테이블
아쉬
sh
45
시절
공기
##학교
are
Th
결합
언급
외부
근처
사이트
다이
불편
전하
성격
수익
식당
따뜻
북한
##able
점심
좋아
Ch
축구
소속
##vel
스테
영업
특정
점점
최종
의식
대응
보장
시킨
전통
##ial
구분
지하
예방
ㅎㅎㅎ
예전
어린이
관계자
신호
전문가
지구
34
나누
공원
위기
고정
연속
유럽
이때
부정
공유
떠나
어려운
쇼핑
통합
각종
상관
도전
##아지
구경
05
영국
장면
프랑
SK
미소
활성
내리
수원
##랍니다
복지
필수
심리
지적
의견
주식
기에
tr
장점
마리
부부
전시
저장
고등
회의
고급
시공
향해
최소
시리즈
##프트
신뢰
경영
KBS
##가락
##라스
기아
반복
사전
아프
불안
90
통해서
빠져
독일
pr
도로
둘러
MBC
자극
훨씬
반면
꾸준
롯데
경기도
바랍니다
시도
돌아가
월드
접근
전반
나중
방지
미니
인테
대중
보고
확보
효율
만약
선거
텐데
##ort
어제
이익
##메라
덕분
달러
담당
전부
랍니다
##ical
회장
진정
마찬
누가
주목
브라
생명
##려서
녀석
조합
마찬가지
예쁜
깨끗
네이버
느냐
##페이지
2013
##per
내일
홈페이지
인테리어
공사
초등
충분히
##드시
질환
##ting
##ich
반드시
냄새
요청
어깨
맞춰
그랬
논의
가수
차원
전해
sp
https
이론
유형
LG
기념
교체
인증
영양
진단
핵심
소득
주인공
마법
초기
스트레스
봐야
불구
에선
##텐츠
연습
된다고
소비자
바르
어찌
at
설계
분양
신용
들어오
image
불러
were
지급
실패
문의
통한
통증
##민국
Kore
##ok
트리
챙겨
동생
##rou
고양
치즈
선보
blog
약속
아동
오르
미안
계산
청소년
채널
분리
공공
벌써
공정
전환
즐기
2012
##러운
리뷰
직장
솔직
2010
별로
누군
흔들
연출
바람직
체크
긍정
출발
##학생
아닐
건조
시킬
42
수사
완료
직업
향상
절차
배경
실험
카메라
프레
##iv
을지
주의
학년
배치
가르
it
##ard
참조
대한민국
##아들
최초
적절
올라가
수학
St
떨어지
##ight
##000
하고
실력
마이
편안
더불
신고
려면
##ia
클래
미술
신체
빠른
독립
여유
회원
from
차례
태도
임대
그런지
로운
아내
SBS
프랑스
자아
시각
##pp
##호사
37
부위
자원
습니까
수용
자랑
##리카
건설
그럴
제안
##ue
##해서
반영
할지
분류
38
이끌
출신
기타
마스크
너무나
##으니
다운
울산
나타내
핸드
##른다
성적
국회
친절
박스
##ans
조용
강의
포기
희망
어떠
노인
유의
의해서
신기
소유
me
과제
##orm
41
바탕
##ies
2000
그린
비율
상호
식품
아무리
앨범
##art
비밀
일으
색상
강한
##ill
stud
입력
197
가게
수상
도입
##duc
강력
##ld
##피스
매매
야구
일어
수정
인한
어쩌
휴대
배송
2011
##ase
출처
##ents
법률
수도
클릭
조심
돼지
후반
가을
출시
02
으신
몰라
##ign
준다
동작
통하
##다보
세포
협력
데뷔
그만큼
무리
창업
내지
상당히
혜택
##ub
사망
##래도
##★★
법원
##all
스페
##ance
##일리
꼼꼼
충격
부상
생겼
수리
걸어
헤어
##한다
et
성과
this
en
죽음
비판
55
다며
확실히
크리스
##end
상상
2022
놀이
세기
us
그려
교회
진출
기계
스토리
cm
회전
보상
##영상
드디어
변수
메시
김치
수입
힘든
음료
허리
공항
디지
조차
순위
참가
등급
올림
범죄
우수
##ory
글로
건지
득점
유아
아무래도
le
단어
본격
그저
적당
화장실
겁니다
재밌
ad
온도
답변
보유
현지
네트
청년
실내
인터뷰
고통
##ord
왼쪽
##ib
였으며
##ews
동영상
구축
##hone
소녀
냐고
된다는
맥주
노트
근육
입구
##out
2009
슈퍼
누군가
생긴
침대
의하
연합
지키
똑같
장난
도서
으므로
공장
생성
청구
기획
골프
가리
##워크
계시
가스
잠깐
2008
##fer
##어들
##act
39
##나무
취업
메이
건축
참석
완전히
나름
방안
둘째
시점
##ys
대기
끝나
03
52
나머
자녀
##ach
##NS
감염
긴장
##ram
사상
점수
이웃
인도
언론
디지털
오리
유사
살아
제어
마주
한번
포토
체육
나머지
48
상처
게다가
치킨
단위
몰랐
자꾸
장비
아름다운
추출
논문
근로
바뀌
##져서
##ge
그건
활약
프리미
43
근거
##ations
들어갔
##ition
재판
당연히
ㅠㅠㅠ
제보
사과
착용
tel
아까
패션
수단
무기
우려
##젝트
미디어
지정
확정
으러
##ens
권리
화이트
##ave
comp
##ary
주일
봐도
잖아요
소화
제기
셔야
검토
배포
문자
토지
부여
받아들
마사
줍니다
진료
인구
꺼내
재산
##ust
불리
연장
투어
##무원
dis
올림픽
멀리
##ass
통계
흐름
외국인
44
졸업
그램
항공
출전
케어
움직이
자금
##olog
타임
파일
가까운
120
동네
길래
주소
형식
의도
한계
수비
연예
공감
교정
per
펼쳐
홈런
스파
not
빠지
##니스
PC
글로벌
일찍
조명
꾸준히
라운드
새벽
시술
러시아
드렸
가끔
##iti
##ephone
전력
달성
편의
이루어지
telephone
소송
가방
실행
##답니다
일까
##시스
버린
조치
혁신
케이스
##ther
##ail
se
맞추
개최
51
자고
수지
타입
Fig
주방
##ual
수요
2007
자면
지수
어려움
보관
예측
할까
inc
네트워크
화학
장관
폴리
들려
당황
대사
던지
부재
주위
선배
최대한
대형
복수
오른쪽
떠올
콘텐츠
Un
건가
매출
관점
신문
##ork
느낄
동기
맞춤
유일
차별
패턴
든지
투수
we
바꾸
##ob
##어도
cl
나올
정체
좋아하
비행
##50
충전
확장
유기
시티
성능
한정
에스
블루
봅니다
심사
mm
건데
04
여야
##ie
un
모바
예수
고용
돌려
자산
개봉
커플
##ext
프로젝트
흘러
기기
특수
ind
교과
홍보
특허
아시아
원칙
강아지
평화
##oll
09
명령
만난
##ress
어울리
보조
의지
필름
갈등
그동안
파이
ㅜㅜ
취득
수분
여주
경매
표면
무단
전용
모바일
코드
치아
들어간
에어
수영
재미있
나타난
가볍
모아
메인
46
##30
관찰
##ark
디스
두려
강하
##나라
성인
고양이
생일
##카오
대단
int
편리
복합
아가
심각
08
양념
메시지
눈길
데일리
개정
우주
모형
코리아
내년
언제나
06
덧붙
감동
함유
웨딩
줘야
규제
철학
이뤄
유치
블록
부문
섭취
ar
당하
응답
전투
##enc
기구
아이템
그리스
##국수
inter
자본
하우스
##전자
변호사
##터리
흡수
km
민주당
종이
축제
아닌가
실천
##ost
작년
민족
196
링크
매체
추억
##hen
시트
이란
파티
배달
##ult
관객
피자
전원
##조건
pl
##ack
초반
##다니
습관
합격
강원
금리
과연
다수
##iver
당장
110
느라
스티
결론
여서
대리
마감
논란
미친
can
경계
원하
소중
검증
교환
데이
07
걸리
열리
발달
천천
했으며
##ER
해진
용기
진심
타자
등등
심장
노출
근무
복잡
허용
결제
천천히
정해
무서
아우
임금
스크
첫째
개별
물리
미세
적합
##군요
한지
추정
주도
무시
엘리
통제
무조건
모자
고마
비타
모임
감성
태양
아닙
신규
합리
##form
2006
##으면
주차장
SNS
##ond
적어도
체제
별도
확진
##라도
합의
식물
Re
본다
뿌리
가까이
##gh
호흡
모드
해졌
드려
##러드
의심
사무실
##erm
화려
남겨
선호
증명
안심
무한
미용
보증
이외
서류
손상
최선
금방
한참
거짓
kg
도구
아쉽
전재
이어지
유도
혐의
go
감각
이닝
부인
49
그걸
바디
배출
핑크
다소
400
예능
법인
나아가
스피
흥미
누리
경향
ab
이내
통과
rel
벗어나
메모
가로
47
Al
워낙
원장
지내
의자
##ast
동료
출판
어쩔
걸로
너희
그러므로
프라
아트
올렸
수많
투명
표준
접수
which
##니아
심지
##10
품질
소통
프레임
2005
올랐
숙소
구하
제출
밝혀
무릎
봐요
고서
##사자
산책
##ook
이쁘
트레이
지점
##플레이
반찬
스위
비타민
구역
발라
수출
공주
이탈
##eth
갈비
크로
귀여운
##ung
나갔
익숙
##etw
실수
의무
새우
주행
저자
국물
우울
##ber
로써
거쳐
##ind
마저
예산
뛰어
불과
##ational
##20
생겨
평생
카카오
주체
통화
##디션
마케
와인
par
움직임
불가
검찰
보건
마침
아르
웨이
캡처
번역
54
챔피
차단
클럽
65
동의
댓글
150
고소
문장
매물
시청자
응원
하락
멋진
경력
항목
되게
sy
모듈
##ide
75
예비
요금
sc
풍경
테스트
투입
자세히
거주
sm
매트
##어져
다녀왔
새롭
스케
접종
했으나
##enti
이리
설립
엄청난
제주도
협회
64
##yp
각자
나서
집안
##ific
##특별
손가락
고등학교
거부
##오르
스튜
레드
신발
어쨌
대책
정당
균형
손해
끝내
마케팅
have
갖추
정원
나와서
샐러드
즐길
부드럽
발매
백신
할머니
##리드
##ace
##합물
느꼈
전주
심지어
##리티
##ative
리더
만났
화장품
사정
공무원
마사지
신선
출력
내내
앞두
빌라
커버
입술
접촉
아무것
스프
천연
이기
최저
는다는
종교
동아
저기
조각
풍부
알리
99
점검
플라
면역
오프
그곳
고르
계신
하하
단독
패스
눈치
민간
자격증
이성
케이크
데이트
장착
확산
깜짝
즐거
53
임신
정식
보수
전개
라니
기름
플랫
깊이
버튼
구비
Pre
고생
자치
##ome
복귀
어른
##oun
소년
향후
##ED
56
페이지
던데
화제
입주
된다면
인하
##ice
아닙니다
독자
제목
지배
기판
##vious
체결
모여
##av
분기
취향
다루
거실
질병
##역시
나갈
전공
협의
필터
재정
##ari
다섯
파트
규칙
파워
클래스
케이
군사
드라이
핸드폰
그나
Table
인근
토론
치과
체력
계란
취하
귀엽
KB
피해자
키우
증거
감자
str
보냈
##란다
##CT
기울
mod
애플
줄이
수집
지나가
Con
##ors
월드컵
엔터
유통
면적
진실
레벨
59
선행
누나
이걸
종료
비록
추구
전세
아저
방어
데려
2004
##다른
유니
작동
인공
##ik
##ST
극복
지인
반도
아저씨
##와서
일기
담사
냉장
데리
무언
문제점
구현
계기
연령
완화
위원장
그릇
과일
내게
상징
스마트폰
기도
는다고
1000
과목
철저
으실
유발
굳이
억제
이래
비중
형상
##ose
찾아보
바이러스
군요
dif
형사
걸음
설마
유산
솔직히
##cess
##IN
ml
볶음
투표
스카
단백
eff
저런
콜라
이재
##마스
요건
이혼
남기
자라
분노
연애
돌아오
흐르
계단
도망
획득
나온다
살아가
프리미엄
눈빛
보일
##ech
ne
나섰
경주
##간다
센서
간식
모집
도서관
폭발
문항
자식
##IA
##ee
황제
57
역량
정규
당일
용어
판결
편지
Pro
가요
오일
##ath
맞이
재생
즐거운
금속
후회
58
엔진
순서
연계
imp
대장
##인지
중단
##시오
66
피하
뉴욕
##AR
싸움
무사
페이스
촉촉
순환
세탁
옛날
you
PD
우유
축하
기재
본부
그날
남녀
주가
효능
all
칭찬
한화
가만
증권
에게서
수록
승부
대박
수치
##roup
제국
조립
파스타
편집
##ry
두산
##준다
##리오
나눠
선언
연관
끼리
소프트
더군요
중소
배터리
##튜브
di
고백
유튜브
파크
그렇지만
스튜디오
간편
쳐다보
아닐까
##ra
이른
구워
##ution
덧붙였
소문
has
나쁜
옵션
가이드
부대
인용
study
##화점
2002
권력
면접
##낸다
Korea
가벼
이승
처분
구단
출근
거대
만남
공통
단순히
무언가
상가
탄생
##erv
반도체
실점
야채
##ivers
##AN
취소
지니
##볶이
떨어진
그러면
아울
안경
2003
he
적응
을까요
95
신부
정서
아카
피아
헌법
전형
pre
자는
이루어진
단백질
##머리
No
오염
뮤지
자전
정기
인원
As
손님
정하
명확
담배
CO
다행히
##AT
커뮤
들여
사라지
커뮤니
단말
확률
어두
사유
김태
##서트
아메
든다
매운
조화
##버스
##tive
##ime
쉬운
KT
순수
Ac
그거
드레스
61
마르
스킨
심하
필라
피곤
알려져
귀찮
##nal
72
떡볶이
ev
메이크
경남
주관
휴식
##바로
수신
장식
기여
예뻐
공동체
관람
숫자
##로운
베스트
밴드
안쪽
채권
늘어나
텍스트
결승
전지
힐링
위협
##pt
##르트
아웃
지난달
am
비트
겨우
전날
도면
수수
불법
##로드
US
무선
간다
파괴
단점
통일
##tical
##스토
초점
논리
유용
두께
들리
쓰러
원리
##키지
cons
종목
하드
##시간
##데이
개방
강제
63
##een
일요일
no
아예
며칠
첨가
그러니까
에이
실현
연주
정성
들어왔
게시
퇴근
가시
패키지
가상
걸쳐
주거
우연
얼른
시사
##니당
개혁
MC
특이
죄송
ph
훌륭
##ph
84
택시
사태
김정
관절
넘치
##리트
독서
뜨거운
창조
섬유
이젠
처벌
돌리
끌어
##str
tv
인력
##are
고추
오토
서버
신축
키워
세력
##특별시
무게
박사
건너
서울특별시
무려
한가
접속
정확히
##stem
뛰어난
Com
##anc
플러스
대충
창원
오랫
로드
지상
셔도
##은행
스킬
타인
anal
사업자
rep
공포
Next
강사
백성
노트북
누르
뷰티
주사
지닌
베트
예고
##ased
평범
##물관
렌즈
62
보안
##다리
기운
한숨
폭력
##ree
130
##ater
헬스
김민
##ection
주기
나선
실질
바꿔
왜냐
정비
##ould
뮤직
신랑
900
소금
업계
열정
김영
냉장고
센스
저항
마이크
체중
연금
현황
스페인
베이스
밝히
양성
터치
코팅
모니
600
천만
비싸
출산
디스플레이
넘어가
유닛
끄덕
메이크업
드러내
자전거
포르
##fl
지하철
##광역시
찾아가
Previous
이스
##SS
und
##11
rec
통상
##ey
양식
##ound
부품
아무튼
##테스
해소
##산물
으려고
물러
점차
동반
종종
박물관
전극
세월
신분
##시다
불량
즐겁
음성
발언
채워
##레이드
줘서
결코
빨간
애니
비디오
변신
클리
지향
85
조작
##NA
청주
위반
멀티
보스
하얀
수강
느낀
세이
do
답답
전북
왠지
실시간
##저트
독특
##tiv
못할
구간
des
##ive
##다란
화합물
살인
기다려
이정
주간
집행
활발
미만
##so
중량
니깐
죽이
show
베트남
여인
잠실
##아버지
백화점
67
##케이션
알려졌
마트
포항
에겐
메모리
디저트
Korean
외모
콘서트
휴대폰
아무런
챔피언
##끄러
딸기
위주
마늘
##고리
강도
토요일
무역
양상
출장
용품
실적
멈추
##te
##주얼
라디오
세우
현금
시세
##ite
문헌
믿음
##반기
##도우
발휘
벤츠
194
파리
나쁘
설문
82
승인
조리
일치
##바닥
부천
IT
경비
부드러운
reg
운명
골목
혼합
입맛
만날
채무
방해
초대
##환경
골드
길이
손실
##res
##하나
##mer
전송
differ
문서
버전
77
##ility
대상자
##에도
드릴게요
신나
합성
대학생
단일
68
못해
클라
페이
국립
극장
직무
자율
샤워
##의원
윤리
연인
형제
역대
은지
##걸이
곳곳
계열
부착
변동
지시
매입
새끼
##ish
생존
vs
This
경로
사로
app
천안
high
매수
복구
돌아왔
바이오
대처
김성
는다면
아이폰
도덕
외교
아라
##af
cont
상대방
아스
저하
놀랐
74
특유
쓰레
근로자
의문
당했
머물
구속
용량
내려가
먼지
##너무
시인
드림
였으나
즉시
하위
눌러
탄력
떨어져
협상
케이블
##트리
##tin
결혼식
에어컨
개시
2001
##etween
계절
무척
##ata
한국인
가공
지표
단기
골라
부작
##ology
ob
이수
정지
부자
##rib
탈출
sign
유로
##earch
리스트
일자리
붙여
가졌
변하
오피스
주먹
##스크림
그치
##ile
채용
매년
##yr
싸우
##웨어
고맙
괜히
의회
담겨
아이스크림
피로
ass
애정
평일
달달
너무너무
sub
pol
##어났
##세서
상하
상자
감상
가사
##aus
진다
가려
마스터
tw
조용히
리얼
변형
빠진
전면
##겹살
man
깨달
가만히
##이너
아마도
사기
영원
연수
유행
사로잡
민감
리스
인형
사내
exp
그대
삼겹살
원정
220
공인
모른다
성남
희생
으셨
진입
견적
##CC
##yl
연예인
##구나
황금
코너
800
이렇
대선
gen
소수
영혼
옮겨
거짓말
헤드
between
장르
짜리
내렸
놓치
id
인수
압력
69
##컨대
71
텔레
group
볼까
가루
##int
일어났
박지
드래
미션
수제
모니터
직전
##러리
##뉴스
거울
끝난
시계
88
부서
농구
로봇
보인
오직
##우드
소장
호주
##ON
향하
정수
##oci
##ood
최적
포스트
신속
##ame
드려요
구멍
상위
디스크
와이
한국어
FC
##갈비
산화
##테일
지켜보
연구소
캠프
부지
토대
Ar
코치
모를
##ular
고구
근본
어용
넉넉
연구원
만화
##ues
분명히
이틀
농도
그나마
##iversity
도쿄
뒤집
어차
이민
창문
##tern
그라
모으
목숨
싱글
##스레
선사
기독
드러냈
##워하
수면
입학
지각
##말로
기법
##덩이
news
유입
간장
그럼에도
머릿
오랫동안
원자
어차피
색깔
쓰레기
방역
마켓
라이브
커다란
##으로
중독
봉사
잘라
그리스도
촉진
org
아크
의뢰
이자
재단
##ysis
##거렸
혈액
ag
검정
테크
세워
요약
##tim
느껴졌
##란히
차트
비행기
일지
하여
팀장
76
트위
##ove
취급
더블
##ax
혁명
보완
아미
펼치
영입
인권
게재
초밥
메뉴판
가질
농업
초코
소요
의혹
##마디
캠핑
급여
매주
반사
고속
##OR
셋째
유학
달콤
생물
의학
대결
디바
학과
허가
조기
염증
오브
form
성향
DB
##렉스
타이틀
카운
##하면
NC
버거
주름
투자자
중학교
##보레
모터
##토록
상부
세금
티켓
합류
Sh
향한
국어
출입
출구
근대
##찌개
73
져서
실리
##웨이
신세
저작
##ates
조성물
이탈리아
소감
##아리
스테이크
trans
##ci
교실
생태
서울시
로맨
도대
당한
홍대
세종
올라오
78
휴가
학기
하나하나
카톡
##마토
파라
들어온
대안
양파
전남
their
리조
개막
탄소
삭제
타이어
담긴
거치
##로우
##기업
##드름
둘러보
염색
101
환상
마크
선고
속성
세부
감기
라이프
제발
다가오
이럴
거듭
##사고
비싼
성형
아픈
##agram
해운
객관
불렀
올바
월요일
은데요
챙기
판정
##ism
패널
쉐보레
저번
경북
시내
비즈
본질
퀄리티
인연
돌아온
위생
에서부터
구동
마친
포트
##란드
비하
입원
셀프
올린
##집니다
##TE
이쁜
도대체
쇼핑몰
단단
반려
십시오
계층
아닌데
혼란
흔히
알려진
아아
79
경상
비상
생리
야외
선두
Se
개그
당사자
없애
욕심
이중
정권
돌파
로마
몬스터
##본다
195
81
설비
광장
SM
연극
공지
Sp
val
한쪽
여긴
일산
여드름
크리스마스
끊임
향했
##니어
140
입찰
필라테스
친환경
고유
강원도
걸까
생각나
##oy
바깥
서구
운행
제약
##가운
op
과장
육아
압박
화재
bm
잔뜩
장례
카이
구이
보고서
고향
타워
##저기
한글
샴푸
진로
##ating
군대
얼음
여기저기
가량
메타
열렸
기독교
거두
86
유연
호수
붙잡
주년
##ple
튀김
##tit
내놓
아이스
180
임시
정말로
발행
신다면
심한
타당
one
##가루
이슈
기호
부장
솔로
김종
96
어릴
홍콩
십니다
An
발급
패배
푸른
크루
경쟁력
98
무용
타격
즐겨
##ction
but
매니
##뜨리
대우
명칭
확신
보존
기쁨
AP
영웅
임상
##cl
아울러
bmw
매달
일으키
##티브
흘리
메이저
설사
up
검출
위로
택배
고전
향기
##ne
전후
노하
거절
두드
##어요
부진
가죽
홀로
##OS
학문
대만
짜증
##iss
##velop
테마
윈도우
좌우
먹이
할아버지
##stagram
무너
어느새
공중
담보
남북
##IC
250
편의점
들이
식감
컨디션
스러웠
실장
날아
92
일어난
욕실
구름
의존
실망
##나타
금요일
아메리카
갖춘
인류
지연
acc
바른
착한
##ural
오해
##ons
공모
배려
바지
변환
종일
갑작
사냥
소주
잠재
예컨대
기원
more
##어졌
94
드린
분산
보험료
니까요
랜드
아이돌
분해
매개
기다렸
쌍용
조언
자아냈
pos
구석
트위터
Res
vari
역전
##ian
오늘날
University
이태
##생활
##PG
바위
보습
##EN
##ㅋㅋ
스크린
외관
심판
★★★
감지
영광
than
어쩌면
어리
일시
돼요
경기장
##데미
들어갈
out
걸려
##ire
지혜
Tr
교과서
떠오르
절반
학부
my
직후
##old
어색
아카데미
이온
빌딩
약물
우린
한마디
드러나
교류
코트
창출
트렌
줄어들
##row
다름
아님
성비
비주얼
진지
보드
충족
소고기
키즈
복원
초록
그레이
중개
오류
도중
난다
두피
흔적
구원
책상
사법
소자
매번
부작용
원고
진동
##비아
tvN
사물
쿠폰
##포트
대략
용인
##ied
프린
묘사
회생
##ES
##reat
수수료
저지
키스
오로
##가스
##io
플래
까스
아쉬움
라이트
그런가
자살
일자
눈앞
무지
##나이
been
육성
cell
##아내
언젠
89
김지
패드
스티커
창작
영향력
뮤지컬
반짝
왜냐하면
당첨
노하우
AI
다를
피아노
유동
김현
수능
##ower
경고
##나다
박수
오버
아이디어
He
resp
추출물
버섯
용도
##둥이
구성원
97
감탄
붙이
버려
spec
중소기업
##대문
시킨다
학회
##ted
em
마세요
연료
고장
신중
한잔
액션
지위
사이드
디바이스
##ning
기부
서브
부러
초과
클래식
87
푸드
권한
날짜
댄스
수납
아우디
신화
Cl
해양
##ock
지사
신혼
빛나
치열
##잡이
time
##어버
분포
수립
스러워
##ix
##ick
레이저
KIA
곱창
보낸
받아들이
입시
누워
전제
종로
##외선
프라이
이모
중계
김해
동부
등판
190
명예
##티지
생길
스키
만족도
동원
병사
아름답
강릉
떨어졌
배제
교통사고
무섭
##께요
83
1990
##ild
방사
하부
##드라
회로
##aw
system
미사
운용
##fter
바퀴
과자
##센트
also
##란트
##dition
##라리
아니면
##보드
곧바로
엑스
반지
제정
당국
질서
가벼운
동화
러브
보단
특별히
##입니다
아쉬운
##ake
준다고
미용실
태어나
안주
접시
입증
성취
삽입
라떼
원주
게이트
몇몇
어머
##RA
해피
추세
버터
소음
누적
빠졌
브리
실무
분당
쓰이
제법
상업
전설
안양
입자
##inal
##미널
한방
produc
##교육
인정받
##남도
고마워
딱히
부채
편한
성경
It
일간
불만
##now
##TS
##먼지
트랜
개성
##들이
##저것
연어
이것저것
충돌
창의
급하
작전
돋보
연합뉴스
적당히
원피스
맥락
1999
아나
##릭스
하이브
와중
##ects
자국
샌드
어떨
채소
결심
bo
지휘
##opyr
여의
레스토
외출
레스토랑
든든
살려
은근
1998
연대
가깝
##ults
엄청나
리라
응시
연말
악화
클렌
김동
두려움
탐색
호기
터지
91
es
마구
##런스
저렇게
글자
걸렸
##세스
간격
대학원
컨설
편성
##루션
모래
여론
제자
브라운
노란
매콤
최상
파우
##옵니다
수소
채우
LED
cor
니당
##PS
el
배고
돌아보
아시
지도자
under
We
갤럭
법무
FA
체육관
도시락
불교
##데이트
일종
노동자
모른
창고
갤럭시
사료
내장
700
초보
사용자
초콜
닥터
바보
협약
어려워
193
Kim
타점
지나치
의외
스토어
브레이
##르르
##북도
##로스
되돌
명품
사라졌
업데이트
환영
other
각도
부처
지출
이행
det
물품
기지
이적
원전
삼성전자
평등
NO
꾸며
어쨌든
##tics
##레인
정국
볶음밥
인분
소파
##현진
기대감
충청
쿠키
구리
비난
방금
예시
##어질
##바이
제이
윤석
inv
level
De
비빔
192
김밥
유해
##ethod
문구
매치
해제
들어서
보편
진화
요새
공작
리조트
신인
부딪
소방
##식간
##con
상장
산출
이루어져
최신
상실
유가
유저
허락
fe
검진
전신
을수록
국수
마땅
호소
##메이션
머릿속
노선
간판
이지
어둠
so
##TA
토마토
몸매
##ae
처방
##스티
냉동
냐는
##어리
주연
학자
일행
5000
막상
재난
##les
##카락
단말기
머리카락
순식간
##ely
척도
도출
속하
원룸
고대
160
지대
김재
욕구
도달
바쁘
감안
크리
용이
미세먼지
눈썹
깨닫
mg
##ise
바쁜
걸린
##ade
취미
햇살
청와
장미
필드
##action
work
비닐
이마
##view
오피스텔
93
압도
연승
이영
대행
암튼
던가
베이비
such
베르
##스턴
선보이
기어
요렇게
캐나다
청와대
푸짐
##이즈
튼튼
JT
취약
화성
자책
회계
유효
##uth
브라질
Ex
서양
pp
소품
털어
##여서
##걸음
##ct
따위
comm
분할
사후
욕망
장사
회담
여겨
다스
보여준다
IP
침해
전이
뚜껑
##저히
1997
하이브리드
고고
펜션
찾아오
##ty
적혀
LA
방학
마디
파란
돼서
김포
해질
어부
contr
니다
당당
살리
될지
원료
청약
애기
세일
운송
설득
추석
축소
봐서
목록
감싸
보충
##페인
pres
월세
##이도
평점
유치원
토끼
스터
##프라
대가
손흥
내면
##ven
취재
스펙
간접
비스
폐기
CD
손흥민
본체
총장
학위
##ID
구별
##무지
혈관
##ubl
문재
##ool
물가
소형
포즈
맛나
fl
런던
손목
##일보
##ement
##ric
본래
자신감
언젠가
gl
##ann
##소년
##릅니다
현관
102
아끼
난리
토트
영업시간
마냥
##징어
비치
##FA
한우
술집
모발
작곡
##동자
##로리
지루
프로필
재능
##구리
당선
납부
괴물
그리하
페이스북
테이
##회사
주파
날개
견해
식탁
급격
망설
입법
계좌
##ized
JTBC
개입
##ink
어라
컨셉
회수
전문점
KBO
증진
플레이스
대변
##너스
액정
Ab
렌트
수시
입지
커뮤니티
메틸
소정
게스트
##ange
over
바란다
방침
이겨
상단
안방
원활
연상
워크
클로
##둘러
가져다
부리
빼앗
괴롭
뱅크
II
##che
방탄
001
##ital
날카
솔루션
청춘
벌이
부과
태국
##aph
복용
식단
첨부
파트너
실용
과도
점유
노리
서술
##ected
부가
##tain
토크
후원
여수
fact
세련
##ma
육수
일체
화보
사실상
new
sur
톡톡
달라지
##ency
##echn
떠난
어마
##ene
##ox
##irst
##반도
신다
##ization
주저
후배
마당
워터
야간
##rop
미쳤
##ug
들렸
침묵
하트
레시
어딘
올바른
버릴
의상
회견
매각
리버
끊임없이
플란트
기상
##친다
로스
정답
배당
산소
##ever
스카이
우연히
강렬
심해
배상
샘플
짬뽕
써야
using
위대
충남
##ov
##fic
서서
거품
##끄럽
횟수
생선
즐거움
비전
총리
##rough
SS
its
업종
유전자
예의
풀리
내린
##elf
##OP
##소드
자네
Wh
만성
양육
##ature
일제
지리
내밀
analysis
##크림
음주
pati
였을
used
터미널
화폐
레몬
어지
비대
계수
아티
SP
네티
ver
전압
남부
표지
##어내
##바지
소원
##ros
그랜드
낚시
2023
치유
속눈
##거나
신상
흡입
##쳐서
##acter
철도
평택
##EC
set
김수
왕자
##ays
##uct
간단히
##아이
마라
원단
##ron
med
임의
시나
중반
연방
하여금
당해
행하
널리
##구역
분자
네티즌
귀족
커지
다녔
군데
멋있
탄탄
##ll
##ins
갈아
전술
칼국수
속눈썹
성립
오징어
조회
트레
놀란
해운대
실습
탈모
##ale
마셔
Le
##카드
몰려
임무
양쪽
부하
소독
자존
눈동자
아뢰
실리콘
드래곤
보증금
숨겨
요양
맨날
신라
진주
스페셜
남겼
시그
접착
펀드
용서
표기
그래픽
박정
제작진
기차
예민
설레
카카오톡
연패
줄기
추적
model
양산
##세대
col
##라이트
사무소
꼬리
비서
유래
##IS
##메달
아리
고령
분쟁
기한
지명
signific
스코
가라
등기
흰색
재무
국토
수다
히트
대법
진리
##랑이
연봉
##AS
뿌려
카라
컴백
벌어지
there
한층
안산
긴급
구글
밸브
관광객
전액
##IP
미스
교재
넘기
중대
해물
천장
시상
써서
##트라
아가씨
최소한
수직
종래
공학
폐지
incre
좌석
폭스
develop
신사
저축
##ft
소서
##구니
펼쳤
미드
##ings
3000
고수
감히
빈도
210
하수
왕국
##인드
재질
##ough
개요
타운
##oh
그림자
가져가
two
국방
리모
##가요
학점
크로스
벚꽃
비즈니스
소모
구미
이종
전년
##ET
슬픔
애초
세제
연휴
min
주자
사자
중재
##포구
##갑니다
시야
예선
카니
연맹
전파
부스
컨설팅
대지
할게요
고도
걸어가
일부러
법정
공제
돌렸
정면
민주주의
국정
AS
옮기
유무
##ole
악마
CP
사원
흔들리
마쳤
놓여
##ank
##부르
지우
##hip
귀신
dec
약한
벤트
typ
장군
##미터
컨텐츠
가해
이토록
Ad
##ures
안타까
스프링
차라리
##orld
발굴
재현
돌아다니
GS
맛보
감시
소프트웨어
발사
압축
티비
부활
po
밝힌
채택
##por
기후
##unction
함수
##트로
단면
For
취지
##토리
넥센
곤란
나간
반전
신설
모닝
음원
플라스
##저스
만두
살피
##ah
플레이어
토트넘
incl
밀려
##그레이드
매니저
업그레이드
##ollow
요가
선보였
Ph
아냐
디자이너
이용자
듬뿍
승점
이쪽
아프리카
가동
국회의원
디테일
강추
data
전도
한도
유전
나아
ST
스탠
##80
반성
발광
이주
레시피
물어
##피아
##ash
전사
못한다
gr
으세요
연산
리드
스틸
존중
이슬
두부
단장
법칙
설탕
서면
수십
정착
싱크
##ife
갑작스
br
##ium
애니메이션
모았
한복
갈라
향수
선박
심플
으셔
멋지
##12
음식점
##나물
갈수록
바삭
보입니다
나타낸
지성
공략
구해
어우
카르
신앙
##ression
partic
몰입
김진
들어와
화물
어두운
EP
색감
##ner
척추
파주
영화제
꼼꼼히
잡아
용산
함량
##der
텐데요
bec
내역
높여
임명
##vely
주머니
서초
소환
가난
test
exper
차분
prov
내세
고찰
방치
해수
피고
볼넷
마셨
자궁
어려울
인체
늘어
발목
은은
삼진
노조
안보
부평
문명
트러
엉덩이
미술관
김준
신비
##정부
num
##oo
##테르
아토
will
재활
본문
여섯
##ability
초콜릿
##opyright
서서히
고무
진술
레인
전복
##OM
성실
##몬드
내려오
중구
qu
조항
장난감
더러
에이스
스런
사연
112
##어로
they
학술
레알
신한
시골
우측
류현진
원작
호르
후속
코코
뉴시스
접하
바나
연구자
쿠션
스승
바닷
거친
된장
다녀오
##은이
테라스
주파수
에피
##합니다
다가가
슈팅
수목
아름다움
이어졌
로맨스
코인
이득
탈락
pe
인치
##아웃
다시피
그리하여
시범
MS
심심
최강
##레이션
잡히
##브이
춘천
호기심
성별
범주
줄여
볼까요
목욕
use
유대
이스라
증후
가까워
몰래
지났
##ments
##일러
##드리
코어
오렌
인프라
성질
무난
할까요
햇빛
대립
하단
You
이만
지불
밀리
가르치
군인
르노
##fore
into
##바람
열매
포도
카니발
가설
프리미어
이불
아쉬웠
다짐
꿈꾸
자이
아픔
똑같이
송도
강남구
무서운
억지
히어로
육체
니트
목사
한반도
해야지
충실
이치
##EL
놀라운
초래
로즈
##AM
습니당
그간
세라
연간
마침내
##ages
부드러
##베리
뛰어나
족발
참치
공화
수고
##박스
##eral
새해
##넌트
고구마
마법사
박람
##iew
상이
아미노
How
인재
잉글
될까
지분
플랜
##트롤
혈압
##스포츠
라면서
##↓↓
각오
등산
잠들
최우
포스터
공단
##eng
동양
오가
다닐
##위치
차려
플라스틱
융합
갑니다
배우자
어르
하우
1995
도장
된답니다
significant
정작
부적
탁월
해변
중합
##ause
위안
트로
입니까
비추
##럼프
클렌징
1996
인접
간호사
ins
해라
보라
화상
팝업
도우
##eld
고리
사인
해방
쾌적
경사
때로
갤러리
무렵
카레
after
기적
언더
##ize
전방
배워
##수수
멘토
우동
includ
CH
물고기
본사
생애
살아남
으리
가문
Bl
시크
##사리
이스라엘
떠올리
떠났
온몸
장수
##40
첫날
앵커
필자
뿌듯
서둘러
첨단
이어진
이달
티브이
뚜렷
##AC
대체로
105
##ness
어떨까
sec
기뻐
1980
나란히
버티
당근
벅스
서울대
미칠
신장
results
소지
##IT
##오프
미모
##퍼스
대여
빌리
소멸
장례식
다녀온
method
만일
트러블
체인
##블리
면역력
일관
인문
정밀
던져
##ants
1994
follow
한데요
AD
his
빌려
오프라인
##먼트
온갖
억울
닷컴
##──
지민
발효
문득
BM
코딩
보정
오렌지
브레이크
그분
##AL
회식
##저리
로고
기쁘
운전자
호르몬
올리브
명시
##ount
쿠팡
포지
마약
화환
폐쇄
비누
발걸음
##ble
##ull
메일
생생
부당
관하
일까요
용액
개국
식민
재배
지르
폭풍
term
박람회
보급
참으로
한창
아크릴
배운
컴포
##셔츠
이라
캠페인
##FC
이준
학업
극본
지갑
여지
그야
##ety
IC
##동생
해져
선진
주부
한강
마실
녹화
영등
더더
이념
맥스
based
공시
레이트
세척
한약
##지능
인공지능
생략
도어
수급
특집
다정
다이아
개설
베리
다운로드
페르
사이버
##60
##운서
때리
천재
매도
여신
##uring
미루
##려고
궁금증
##eg
아나운서
피드
동탄
무거운
청정
아메리카노
영양제
임차
스위치
미터
어째
수석
다크
양자
직구
간호
진한
이어서
되찾
미스터
학력
트랙
여의도
##ym
##러지
##OL
여건
if
시위
only
##조합
키워드
모색
수성
##디아
샌드위치
진영
착각
선명
남양
어르신
고지
탐구
김상
랄까
대륙
따라가
변인
공고
체질
문법
혹시나
상속
캐스
타율
리프
휴무
know
클리닉
세팅
##EM
컨트롤
타이밍
글씨
지옥
허브
추측
어휘
요법
직장인
##ulti
배울
##ines
노화
수령
은퇴
베어
세븐
유진
우정
적립
스타트
##uman
##ao
유재
일방
191
당뇨
through
고시
해상
컴포넌트
몰아
주어진
탑승
##ption
##arg
111
실정
온다
##its
해설
혼인
명단
담당자
윤석열
지원금
예외
170
아니하
맡기
##ournal
가르쳐
녹색
풍성
##모습
##ute
흥행
더더욱
##atis
차가운
ap
건네
나노
주입
##ful
사안
어려웠
소매
커서
열차
코디
##istory
이른바
dep
상큼
Co
쏟아
##und
##코올
##쓰기
##ocial
비비
모시
화살
물류
이뻐
으라고
비로
반갑
had
전교
최악
박근
##ective
어찌나
플레이트
감량
##ike
사양
테라
유산균
삼각
간절
Pr
Sch
골든
##베이터
똑똑
선임
윤기
AM
계정
과시
수련
숙박
about
트렌드
각질
cr
좌측
딱딱
##드라마
트라
구장
##plic
나뉘
##itive
세균
##urn
천사
무관
냉면
무상
도저히
##직자
단호
두꺼
##ords
##스키
전라
지침
막내
병행
한동안
who
중점
##air
exam
번지
신생
마력
요기
방영
태어난
mark
과세
##formation
중얼
알파
동해
상사
##70
##난다
마카
사운드
쫄깃
##렉트
##ulation
공약
규범
수평
벤치
제네
지자
아티스트
##ited
신세계
부호
껍질
##워드
강동
남긴
충북
마드
면허
supp
Eng
인가요
출간
일간스포츠
자외선
토너
교육청
밀착
따지
흉터
기온
##au
##페이스
이대로
조세
달랐
저거
편입
흥분
##alth
조개
##밀리
에피소드
##번에
보낼
콜라겐
영주
피지
##바겐
외치
주주
폭스바겐
수영장
섬세
지붕
##온다
플로
감추
배관
냉각
피스
cap
Lee
네일
니스
머신
크루즈
도심
일러
응급
PM
불행
의장
그제
빠질
##스카
한입
었었
귀여워
##ences
말투
올릴
원형
메르
나타날
일어날
스님
보리
증대
##혀서
쳐다
빠져나
##소년단
##멘트
아일
적정
개편
##ions
Pl
##세포
절대로
레이스
MB
보여서
모이
드라이브
블로
강점
방탄소년단
했으니
##ier
IS
도리
##버리
PS
불꽃
어때
엘리베이터
상식
았었
농촌
##iter
알코올
Med
에다
트럭
격차
수호
##ject
리더십
플라워
뭔지
function
타선
주스
##조리
PT
New
사리
송파
통장
yout
##리케이션
최다
난이도
셀카
내려놓
로그
이경
##삼성
char
십니까
일반인
시나리오
수산
##cept
안면
증후군
##DI
근접
수유
이력
##itt
갱신
발현
제재
정해진
##ider
유출
포켓
##AP
문재인
동구
신입
전적
DM
정품
오이
부사
집니다
피부과
위상
드셔
타일
트레이닝
어렸
대법원
알레
##셀로나
코미
patients
바르셀로나
증정
non
비틀
개통
##ases
내주
달래
르노삼성
그런대로
교차
##hes
##olution
기장
스웨
쿼터
감당
##산부
##러진
Mar
나눔
매직
AC
main
존경
가드
명절
##루미
은혜
늘리
단원
떨리
싸이
##봐야
노려
year
해명
전시회
기저
한답니다
절감
과외
ID
넘겨
보강
##urr
한두
la
when
정우
research
울리
동대문
행운
##외과
물량
##공사
lear
마나
김희
오사
MY
루수
이드
프로모
UE
##over
##어마
오로지
합병
인과
치르
##uthor
짐작
한결
103
대량
Vol
허위
초청
게이
만지
350
세웠
선별
##운전
마루
맞춘
우드
##ublic
배열
분말
중국어
우울증
Be
상관없
본점
초음
하하하
공방
추격
동사
지으며
어마어마
여도
CJ
구도
엄격
class
진보
한자
구강
##90
단편
포털
클라우드
불고기
징역
스러움
가져오
##오스
##산동
건대
바뀐
보컬
전동
바나나
그야말로
간주
거뒀
나타낸다
지능
국무
단부
잡지
품목
폭행
유체
응용
맞춰서
상인
##화물
방수
부각
##래요
##conom
서민
티셔츠
정류
앞선
장어
동향
하반기
서부
정한
perform
지진
볼륨
줄어
소련
첼시
우아
주전
##파이
유성
each
노드
동그
명성
캡슐
마우스
글쓰기
어린이집
그려졌
떠올랐
산다
요원
##네스
process
계곡
투구
인성
경과
심화
여왕
##cer
##드로
##son
셔츠
기소
극단
상반기
선교
ES
암호
학부모
궁극
##ateg
구상
세미
패러
끄덕였
주세요
추운
전류
칼로리
car
##ha
말리
추후
극대
노예
수월
different
고집
화이
격리
기세
들으면
필리
해안
may
104
차리
내뱉
정화
섹시
어딘가
치우
시체
계셨
애매
##hed
인쇄
정형
줘요
밸런스
랭킹
숨기
낮추
아반
캐스팅
사단
외식
파인
파도
는구나
물음
탄성
010
나옵니다
sim
세정
회귀
der
★★★★★
고교
심정
나이트
게끔
재발
CE
신곡
##회장
비명
대인
##프레
백만
사각
점프
지난번
우크
이명
##문화
구제
로션
회피
공산
더욱더
사령
##포터
소위
상환
언스
##미지
다이렉트
##ental
배웠
트럼프
참가자
로워
대개
끓여
방울
탑재
disc
신성
식별
중도
수량
##OD
우리나라
수명
##소통
누수
Instagram
att
리바
##진영
cult
의사소통
수요일
명의
##OC
국장
멈춰
주력
##yn
커뮤니케이션
빨래
커튼
동남
시집
사시
HD
세용
신차
유혹
스피드
성수
천하
지자체
우산
##RI
##하니
반발
꾸미
스쿨
야지
중년
복음
키트
녹음
맞대
초음파
슬라
현명
머니
CC
일본어
손잡이
비로소
두근
로우
브로
필기
상관없이
프로모션
이대
치매
dist
김경
##oul
담백
자르
##투스
약하
##ici
당분
던졌
##br
동맹
##팡이
강해
박근혜
자부
##OU
장갑
소아
##놀이
벌어진
##처럼
##스틱
##ode
가속
농담
염려
##led
121
분량
시켜서
사라진
##afe
장인
성숙
포괄
무인
초등학생
돌출
체형
텐트
당부
망고
##욕장
신학
진학
튀어나
판타
##up
목요일
으론
이끄
의류
##ities
보석
선제
유의미
화요일
농장
meas
포착
##app
수동
밀크
어떡
색소
집합
##ological
코미디
##me
출생
보여준
비자
##빨리
artic
##ential
이별
these
오리지
보육
들어올
통로
훼손
##다수
루프
스포
230
마드리드
애견
모은
그래야
달려가
마왕
몰라도
광명
통치
##도로
##ined
의정부
침착
볼게요
해진다
피드백
서사
음반
예배
할수록
개개
발음
지워
김연
동굴
배정
단축
배양
On
원가
동점
부를
젤리
서열
다룬
달아
현행
수험
##라이언
익히
실체
부근
모공
돌아와
알킬
시상식
CG
낯선
화사
Journal
상한
집계
간담
well
타석
고위
125
Gr
강서
예매
날리
상해
슬슬
모던
안성
아일랜드
##거래
복도
유독
##ible
이송
거북
늑대
환율
모험
입금
##권자
스케줄
캐리어
실버
106
시달
연락처
속초
003
이어질
조만
달린
중복
철거
가라앉
웨이팅
무겁
자제
퇴직
시아
이병
월급
약해
연이
액체
으니까요
아시안
조지
어야지
국산
##런치
##erson
##ducation
관여
구두
##22
SD
지극
지냈
내외
리아
플레이오프
##다듬
분비
이소
1993
마녀
법안
익스
거칠
##시장
1992
대용
방출
배수
언덕
##tm
드레
상금
관해
구로
인민
준다는
저렇
Br
에틸
회화
고등학생
소소
신다고
##크리트
변기
ML
Ind
까다
튜브
무장
수백
메리
중화
투여
둘러싼
##ane
따져
hy
상주
Stud
소유자
유기농
다중
세운
파견
##거지
미네
협조
##먼스
320
서귀
이목
콘크리트
돼지고기
##ina
first
본원
##관계
머무
하우징
기둥
동력
만만
메디
다면서
mon
환불
아산
입국
국적
##시코
위장
how
꼬치
모의
절망
아세
뒤늦
열기
막히
송신
해산물
목동
115
##ved
테러
담론
이현
터널
##아아
Comp
##태프
나타난다
별다른
성당
프로세스
##키스
##▼▼
배신
노릇
알맞
입사
과감
인피
엔딩
##다지
막대
올라갔
her
당기
새겨
재개
관통
내보
남쪽
엄지
마마
전선
##방울
김용
동성
치환
축적
목격
##ties
폭탄
달하
감수
마운드
호랑이
마비
습득
퍼포
##OT
퍼포먼스
벨트
사우
세로
이뤄지
##ye
친해
구조물
붕괴
손톱
재고
##걸리
집어
돋보이
치명
##99
산정
음식물
센트
집사
실증
출현
메가
이라도
스위스
노후
태형
##단지
미팅
청결
아반떼
미사일
Or
촉구
한눈
where
손바닥
조만간
농협
민원
해리
철저히
##쟁이
CS
red
서귀포
실감
실업
통보
틀림
잃어버
##uk
퍼지
은가
친한
무력
MD
닭갈비
증시
외면
전역
소외
자책점
들러
결과물
막걸리
성우
제사
강호
부끄러
상무
소용
으라
일원
포크
TH
관리자
억지로
롤러
원조
녹차
안타깝
구독
요거
김광
##반찬
##RE
관념
리듬
앞둔
신동
싱싱
게시판
콩나물
##박이
절약
지체
캠퍼스
프렌
부합
흡연
천국
##ict
리버풀
광역
연재
유쾌
계급
##평가
알루미
김기
너머
긴장감
most
진하
스리
친정
##etwork
시킴
간담회
FI
이룬
믹스
시카
공격수
빨라
적시
환기
포지션
분배
실태
쌓여
일곱
자발
인턴
지난주
사방
전담
사이클
둘러싸
##ived
리필
식구
def
건가요
##man
122
범인
캐시
IN
갖춰
아랫
모노
##뜨렸
다니엘
큐브
본능
사귀
순천
비유
##ics
가계
1991
Cor
금메달
임산부
알바
근원
논쟁
There
##ms
##88
찾아왔
당초
손질
증폭
##리스트
왜곡
However
All
때려
밀도
인해서
객체
##ield
나비
경화
의의
##ily
사제
청하
대다수
유익
read
실린
처지
##레나
##두르
잉글랜드
##que
포드
정류장
석유
도포
태평
날려
내쉬
만점
some
smart
단골
권장
허벅
악기
사도
클린
더운
##글라스
cre
sk
한때
import
##고사
인터페이스
슬픈
푸르
객실
베란다
소셜
Col
1970
강요
개수
정적
의료진
간혹
가리키
코란
관할
까닭
일대
##배우
국내외
복사
dem
##힌다
##tions
배기
벌금
효력
스피커
맡겨
살균
군산
조그
취임
##버섯
##cent
##az
##MS
브이
후방
남양주
effect
신념
열쇠
불어
조카
태풍
무너지
조식
폐기물
부추
그릴
후유
need
원격
##테크
마른
어학
지경
당분간
실전
##긴다
관측
te
집중력
미역
infl
compar
##연히
고는
표본
디아
비벼
세차
다저스
보전
대역
인디
페어
야기
터져
##르기
블라
목걸이
분사
십자
알고리
##val
기성
##진구
세탁기
##구석
가하
맞서
이마트
나타냈
반가
해체
소나타
강연
명백
연동
En
심의
##ision
any
Figure
오디오
김대
마신
수축
시흥
##lement
심리학
테이프
1988
뜨겁
에다가
단다
##교통
북부
김혜
DNA
특약
유니폼
어이
제압
헤헤
진공
240
SC
우스
상승세
준수
스트레
노원
경찰서
##두리
짜장
탱크
##제품
권위
##체스터
내원
변이
복부
유력
이브
##세지
Im
value
##자치
mo
요한
편해
히히
파스
##의자
end
구청
LTE
자문
##셔널
그다지
원본
주류
##13
rate
민법
제네시스
병력
찬스
##현동
농사
루타
살해
sam
##15
라기
##raph
고인
두루
평면
통산
SU
##경기
바꿀
##커스
수건
출고
##book
스터디
오지
평창
협박
버린다
박찬
끌어올
114
윌리
오사카
밀접
인자
비극
조종
더욱이
인격
아토피
기숙
스무
rem
허벅지
산화물
건전
커리
투쟁
open
##lish
이재명
행보
출범
려던
알렸
라스
EU
part
북쪽
123
Sc
##IM
단자
증세
청담
무사히
시력
영원히
높였
해치
##포르
character
리바운드
타수
후드
스캔
집회
귀국
부른
브루
kt
집착
벤처
위탁
라인업
격려
놀랍
조달
##gg
사라져
met
스틱
영감
초월
출원
속한
원한
Intern
그래요
##스트라
동행
폐하
##AD
김병
##에이
차이점
늘어난
약정
취해
##니티
액상
##tis
저주
호박
필리핀
노무
러닝
자매
자존심
멕시코
##ks
서명
##하루
착하
달라진
김선
영문
태어났
종족
##ights
여우
돌아갔
제형
copyright
##ward
벌레
총회
number
판사
마티
제로
거론
입체
좌절
펌프
프랜
##sy
오리지널
다시금
##ube
유재석
디젤
야경
세무
이윤
퀴즈
present
그쳤
불펜
정자
##angu
##시경
미생
##곡동
스파이
게시물
어머님
애인
곡선
USB
중개사
고스
박성
번거
식이
제휴
걸어서
수확
신종
119
울음
재건
냄비
이리저리
하이드
##입구역
추워
날카로운
장벽
##aj
##ience
##고루
대항
연신
맨체스터
죽여
유희
파운드
회상
판례
알루미늄
웃기
And
남다른
알고리즘
Man
##로움
Me
끌려
##무게
Fr
가전
미군
뜨거
정장
real
찾아온
글리
몸무게
워싱
공구
웹툰
베이징
유선
하도
##십니다
관중
화분
To
피트
출석
cent
무늬
##tal
##DP
먹거리
장례식장
author
##tig
아무렇
가열
거트
면모
옥수수
교양
아쿠
영구
##oss
book
##ai
treat
덩어리
##own
CL
안개
저격
건립
##구정
find
중립
토리
##꿈치
밑반찬
줄일
본다면
##ivid
봉투
카운터
개개인
금전
##mun
돌입
가져왔
골반
주최
거래소
Su
올라왔
특화
성명
꼬마
즉각
##77
발송
정직
고문
야당
파산
ser
브런치
찬성
##임스
##부인
##uss
유모
##FP
드물
시드
##조선
체포
탄산
##비전
both
##라미
듭니다
축복
##oph
청소기
PR
er
동쪽
트래
108
아닌지
양도
지문
규명
메이드
비해서
생겨서
압구정
출판사
고작
사직
##부로
어딜
연소
아이콘
앞세
안동
##ince
반죽
이메
예뻐서
시중
모니터링
바빠
PP
피할
##남동
Ass
떠오
캘리
##끄러운
영재
NE
##atory
가짜
사소
손길
보물
##gram
선도
저리
##ris
##arm
control
대중교통
교대
한식
횟집
레전
법령
쥬얼
##니즘
higher
##hem
연설
화자
중시
홍삼
기울이
발병
또래
소액
지주
##받침
##akao
nm
매트리스
더위
루트
리포트
마카롱
techn
옮겼
##net
개체
##try
##김치
양호
제고
##orth
관광지
day
숙성
##시마
공격력
매출액
htm
차기
휴게
activ
온천
에드
Dep
효소
트윈
##드려
LC
협동
##스티벌
##aily
별명
실비
정통
페스티벌
그랜
대조
드린다
급속
예뻤
정교
##14
##분석
받아들여
소망
found
미나
##닉스
전해졌
무덤
곁들
발산
월화
##납니다
##PGA
##어날
AR
##지스터
마인드
신하
서점
##운동
##ert
이진
mean
포맷
속상
레슨
신도
까진
낭비
털어놨
살림
출마
우와
아담
대명
##볶음
대폭
클러
프레스
그쪽
인종
도둑
레오
골고루
손쉽
National
타경
type
어쩐
유엔
ed
명세서
##는데
선글라스
개그맨
각기
우위
임원
대세
해수욕장
유인
못지
워치
정준
먹방
원천
일본인
연식
다가왔
모순
질투
##orted
선전
옥상
del
김승
스팀
장학
기저귀
걸릴
승강
조국
왕실
행진
##ves
세심
유적
식민지
무거
조례
##oon
##LE
생계
원두
365
##ording
서쪽
제임스
오메
평상
쏟아지
상공
남매
경유
쌓이
##ern
살펴볼
폴더
##18
공업
냠냠
마차
##혜진
##ody
도모
헤이
ㅡㅡ
넷째
##렉션
MV
안겨
양말
HP
단속
커스
부담없이
Str
요런
360
struct
이방
##iod
끔찍
대금
studies
활짝
아팠
절로
풀이
##덜란드
상영
반환
진이
챔버
레전드
파장
##ator
찌푸
면제
est
네덜란드
에코
##store
article
CEO
long
마그
피크
달라질
##타임
##숭아
your
유나이
##als
our
sch
쓰여
AN
갈색
떨어질
##줌마
공백
물체
볼트
나와요
유나이티
##키퍼
cells
이메일
게장
대접
패치
##BA
##느리
경선
고발
호평
##리안
모음
지부
이루어질
남친
계약서
국경
오디션
자칫
net
길드
돌아갈
골키퍼
주석
상의
판타지
뷔페
면담
흔한
낙지
일환
반해
충성
대본
협업
그립
크레
원내
함부로
확립
하필
##구이
##16
수시로
자이언
일련
챌린
비례
싱크대
189
##CTV
아줌마
잇몸
서식
입소
저절
패밀리
공자
로버
조이
봉지
##ribution
신지
김소
마요
연도
후유증
##퀘어
급증
김주
리어
발렌
일수록
coll
실물
조상
빈곤
기일
키로
후쿠
##US
그래프
1989
아미노산
발레
무침
##osed
El
저절로
cafe
벽면
힘입
차장
대원
뒤쪽
아깝
칫솔
##센스
입안
의약
이길
113
접한
나마
진흥
CF
내비
높일
선착
마산
##종원
협정
갈아입
성폭
흘렀
##크스
요금제
social
AT
##25
##기름
동아리
글쎄
임기
불쌍
양심
해지
##꾸미
거라
GT
끈다
appro
디즈
##잖아
자켓
mL
더구나
모리
식기
접근성
무작
퀘스트
베이커
##테랑
##acy
슬리
국밥
미러
치마
활력
색다른
##저나
으리라
스트레칭
대외
부실
순대
거제
카테
한꺼
그나저나
한꺼번에
적자
피고인
가중
터키
트랩
##vir
명사
무실
인조
광경
여사
포수
##파크
태그
CCTV
##서야
케익
각국
이유식
칼슘
students
여학생
고사
여정
##베르
숟가락
젊은이
정제
##MA
Park
슬림
큰일
##lex
훈훈
데스
송이
##round
GB
세자
##ograph
일러스트
mem
급히
숯불
life
열려
##치기
kakao
어째서
달렸
배추
identi
평양
##항공
##셉트
Sci
냐며
쌍둥이
지친
##도전
산행
추신
그라운드
fr
원망
재원
이제야
serv
몰리
##iness
드러났
##버그
강남역
계실
공익
무더
끼치
창가
해져서
##ㅋㅋㅋ
벗겨
승진
상품권
일으켜
신생아
낙찰
아로
안다
흘러나
Key
파손
취한
##ination
누리꾼
pur
맥북
난방
오세
##타인
MP
##atch
OS
##atic
가슴살
사거리
엑소
체내
선수단
로움
절실
간신
시어
##23
광학
꽃집
야생
알아볼
책임지
good
성령
##차림
smartstore
제조업
html
##버님
##닷컴
##lear
무한도전
파우더
까먹
꺼냈
##66
드실
##eter
##ople
4000
하루하루
##게임
고쳐
박주
황태
끼워
놀이터
찾아볼
독점
소진
징계
중학생
시켜야
결승전
밥상
분과
삼국
스태프
리프팅
와야
알차
손수
애써
간부
운동장
##til
##DA
should
내재
could
관해서
달걀
Review
like
공헌
재수
으려는
same
간섭
계승
##ten
spe
고분
라운
숙이
부지런
브레
장악
##데스
어느덧
그림책
cy
them
베테랑
지칭
##닐라
inf
design
리스크
##17
새콤
해고
루이
살펴본
몰라서
나인
화학식
##튀김
명문
들려왔
바울
##co
##uction
post
고치
상권
##very
히로
1960
지극히
친화
한양
근황
추위
##ently
기체
econom
사당
##OW
정치인
낭만
##GF
equ
오케
주고
##19
##ices
consider
기숙사
##하하
핑계
할리
형편
건축물
날아가
##총리
나눌
만져
어여
##aper
중동
##돌이
북구
외국어
임차인
스웨덴
수당
콘셉트
##VE
파이프
사은
네이트
##암동
결말
모인
입가
토익
get
권유
프로세서
교육부
##가포르
##처리
싱가포르
양주
견디
반박
코일
dire
레이어
보람
쇼파
슬쩍
나사
실종
편견
감옥
종사자
나선다
비리
##렌토
instagram
산후
추락
1987
약점
파고
그만두
Fe
310
장기간
강세
렌탈
상표
포럼
마스
전경
최후
산림
가입자
##그러
분열
씨앗
학대
order
BMW
마음껏
UN
금강
깜빡
목포
위력
더라구
문화재
사격
three
서정
앞쪽
##네시아
낸다
대수
재직
동서
##ration
##rel
복숭아
지목
동참
부시
블럭
기인
심상
다던
obs
SH
에르
현수
미지
납입
피우
입단
블랙박스
부회장
겁나
다채
구운
영리
view
기금
단정
##타르
대치
두려워
폭포
추신수
##일드
보행
충동
한껏
EX
세안
변해
회관
##viron
##화문
마포구
스윙
크라
맞대결
추상
##uch
오라
골랐
버림
condition
수비수
광범
##바다
육군
텔레콤
그늘
탐지
으려면
워싱턴
VS
Pol
##타페
전기차
절제
카리스
고른
투스
협의회
배구
알레르기
ret
부엌
스텝
실기
학사
##커트
런닝
시급
##사랑
애교
일일
##셔리
107
그치만
다닌
럭셔리
고구려
라던
스냅
기르
방면
움직여
유난
##마크
넷플
넷플릭스
##든지
loc
##ense
목적지
##stit
relations
총선
훌쩍
백종원
체온
키움
1500
case
구할
던전
쓴다
##파이어
Rec
문어
약관
멜로
##ula
result
잔디
놓인
슬프
중지
부산광역시
##버거
경기력
330
##업자
공화국
풍기
멀리서
방사선
Dis
가위
줄게
불안감
변호
베네
전진
끄덕이
vol
마찰
숙제
##EA
##산화
견인
자취
출국
들어와서
비빔밥
부른다
##artment
핸들
파라미터
활기
##우리
셰프
이광
천지
침체
##내리
펼쳐지
고스란히
번쩍
역세
공존
면세
드로
빙수
because
남아
##apan
폐차
스테이지
망설이
grow
외쳤
##erg
conf
급식
종속
스파크
Sy
스푼
웬만
##브리
화가
신한은행
본선
##스테
FM
절단
##사스
##일으
불러일으
여권
Par
노사
힘드
강좌
농가
통신사
뒷받침
인지라
지름
##풀이
##aining
타이거
윌리엄
끓이
부수
입대
팔찌
불가피
오락
직면
세이브
무심
##tively
기생
종영
차림
bu
하차
후식
DJ
##바라
카운트
cal
현미
여행지
상점
NH
올라온
Research
인도네시아
이따
##바이트
어린아이
석사
품평
말미
침입
##배기
뛰어넘
명동
중문
불빛
가격대
갔었
덮밥
프랜차
대목
필러
유물
##인물
변함
존재감
고가
외곽
requ
키보드
텍사스
way
데미지
부패
용병
이원
호남
신뢰도
잡혀
대변인
양국
원산
인승
##소득
포르투
걸림
기미
리본
태권
프랜차이즈
Fl
조형
발리
스퀘어
##24
##cc
##풍기
간략
전장
450
침투
##디움
납치
분홍
자니
##겠다
주고받
오마
함정
이슬람
유료
촉매
비결
##inis
벌어졌
지기
특강
바라봤
찾아내
슬라이
일으켰
내릴
사은품
움직일
My
particip
약국
여태
출혈
베개
용매
##패드
다이아몬드
비오
고조
뒷모습
리치
더군
채권자
##eration
##ocus
##GA
귀한
미생물
만기
운반
화소
증명서
트랜지스터
기침
돼야
유방
퍼센트
민망
채무자
앞장
then
world
공룡
뽐내
바닷가
Am
코믹
KG
during
정령
다치
베이지
##타이
##슬러
암시
저택
침실
##더스
놀러
쟁점
투기
차갑
특가
스코어
오를
보답
##oad
드립
##구장
지나갔
Ag
human
몹시
통통
##사이
소변
쉬워
식량
각성
사막
임하
출제
##두부
##느님
##icro
북미
불쾌
##천동
신촌
합계
해군
비법
여호
환호
미아
더라면
말라
픽업
##ral
##배추
전무
최애
과잉
이터
챌린지
매월
한옥
결의
##26
##ouse
가진다
그루
다지
스며
##ociety
마취
마블
유망
가져온
여전
트리플
베이커리
군수
래요
알렉
약화
형광
##코드
태양광
##anguage
올레
##bs
재빨리
테니스
농민
정글
회색
##센터
강정
도박
청장
나빠
드릴께요
법무부
대국
캡쳐
클리어
방송인
광범위
##ING
체리
간신히
개소
권고
란다
호감
멀쩡
아이디
교복
답니당
나눈
서랍
##ectr
경찰청
변했
##직원
영양소
받침
자재
##roduc
##레이터
였으니
기절
컬렉션
하느님
스타디움
뒷면
##agement
슬로
영장
갈까
공용
aff
레일
식욕
##조림
영수
재학
what
떠들
부양
파격
둘레
위성
##ren
다네
순이
스케일
DS
햄버거
근력
모기
예술가
자본주의
왼손
##ries
대왕
액자
##여행
CM
Go
tem
민트
점령
##테나
넘어서
소득세
소울
합쳐
organ
라멘
에버
##베이스
중순
곰팡이
이시
출동
##가리
고난
요정
##관리
로그인
일으킨
정복
##44
대거
짐승
##티나
135
expl
능동
상향
유수
물려
팀원
대요
드라이버
태극
##erved
개정안
EC
총괄
##any
어쩜
치료제
각지
워킹
블루베리
너스
##은편
network
성찰
이래서
선출
specific
gu
188
맞은편
SE
혐오
##져야
텔레비전
정동
현역
##oid
Inter
국왕
코칭
허허
##행위
두툼
온전히
채팅
호날
호날두
광택
##명수
백작
##필더
##보기
미드필더
anti
treatment
Mod
무제
동상
울려
##스틴
##웃음
##reen
적절히
나뭇
양배추
시신
여동생
청량
탕수
슬퍼
오븐
아실
아버님
장성
휴지
불량자
견제
fre
레지
허공
깊숙
스노
신탁
하인
GM
상수
시정
증언
헤어지
수습
원목
신청서
교장
추첨
빠짐
간지
열린다
종사
##머스
##코인
그레
##다발
빼놓
급한
들여다보
나설
남구
돌이
오크
투싼
##철수
할로
아바
장마
등장인물
물러나
중합체
##정동
period
연고
새삼
판교
스타일링
오만
지형
development
떠날
배틀
합동
서기
중공
109
찰칵
CT
편히
##세이
교원
패딩
명소
차선
구절
조약
미미
별개
소름
쭈꾸미
those
탄수
DC
알림
지킬
IM
주지
마음대로
Japan
발동
종양
애플리케이션
public
김유
보살
피터
돌아올
오메가
부럽
sl
##폴리오
포트폴리오
쓸데
잔치
소리쳤
정문
##법인
무서워
우편
호스
시카고
##33
용지
예금
commun
bas
모범
용사
망치
에릭
##모스
##ally
상술
##amp
PL
솜씨
가디
불타
쌀쌀
얼룩
기술력
원문
information
##orts
현대인
self
단풍
암살
쓰리
##ross
디즈니
소이
지훈
수원시
##어먹
화이팅
질렀
##ease
##75
상추
##노스
우크라
사지
analy
실은
점포
후문
##베이
비트코인
bit
강민
즈음
이나마
associ
카리스마
상세히
영통
허니
강경
조합원
정돈
응답자
광안
##pr
Cent
Is
번개
경제학
비단
상체
쌀국수
##렌스
low
공휴
영토
돌보
재해
진도
##news
##익수
멍청
이태원
쏘렌토
이은
이순
사면
being
사망자
유난히
명함
would
늘려
진열
텍스
다큐
미필
진상
세미나
극찬
합시다
##쿠스
사모
노려보
위함
해장
##andard
Car
상쾌
현대차
bi
세르
리터
슈가
116
종로구
양평
제게
##대표
가마
힙합
프로그래
성동
정재
세계관
acid
두꺼운
누릴
자석
환하
##데요
가르침
투데이
흔하
가든
워시
헷갈
보호자
노래방
강변
논술
문신
##시스트
마주치
News
물티
공휴일
노라
쌓인
아홉
##icy
소홀
쓰다듬
호응
휴일
##28
##isk
이어폰
트랜스
양측
이왕
사형
설명서
위축
박지성
루카
선우
속옷
느리
온통
포탈
##ery
몸체
섞인
잔여
아울렛
개미
fil
급등
유한
레스
동계
루이스
indic
multi
생체
저것
철수
움직였
바꾼
멸치
휘발
분수
정수기
물티슈
백현
##부르크
바닐라
셔요
feat
꽃다발
##FT
off
인덕
급격히
선진국
연하
일회
노르
치약
통영
남궁
see
결함
라우
박영
전당
하아
항체
관장
로비
입문
##줍니다
제니
직선
Cr
싼타페
##지방
##ets
트레이드
십자가
간직
그렸
정전
삼가
순차
신임
size
여고
라벨
버블
무실점
##따라
prop
센트럴
시가
육회
##vironment
기질
남동
막판
자수
후면
##na
노란색
의약품
관세
품절
##aking
음료수
다물
돌아다
발표회
메탈
차마
420
견고
살살
염두
OO
경관
오스트
여름철
절개
스포티지
당대
탕수육
coun
김윤
팬츠
수송
에프
MA
아주머니
깻잎
이놈
더워
중견
효능감
강서구
구만
지장
아이유
부담감
어묵
원소
##무진
among
##aterial
블로거
showed
카테고리
돌기
provid
WD
핑장
##드레
개구
백제
순정
키친
겨울철
넘나
##usion
블루투스
오산
휴양
여파
##meric
금세
날렸
##omen
라구
##야마
sugg
생물학
간다고
미스트
정산
##김없이
진행할
담임
##line
Li
OST
보쌈
복장
민사
소나무
power
흘렸
보여요
Je
박병
쏘나타
이분
흡착
경상남도
##그리
동북
박해
잊어버
하체
ear
조망
##테이너
걸친
대면
우즈
조제
탄수화물
아베
영등포
구사
선형
재테크
##alu
##테이션
유모차
도발
밀가루
양태
거둔
##프로
보이스
이효
휩싸
128
풍미
동아닷컴
변명
English
스쳐
머금
Si
잉크
장단
##와이
##비치
##93
빨간색
수천
아키
전산
처치
개조
민중
볼거리
오름
태우
아르바이트
도라
멸망
사신
ET
IL
넘쳐
돌봄
이색
다구
데이터베이스
지치
중국인
고성
막힘
젓가락
##년기
동남아
느니
당할
1985
바스
한라
청산
메밀
About
##ples
바늘
가맹
단서
산하
식빵
정인
낯설
딜러
수위
라미
망가
##소스
군주
여보
add
##ather
사업장
6000
베드
광화문
상상력
나옴
무효
예식
납니다
갑상
림프
약자
청사
보조금
썬팅
발전소
김형
##비드
비정
산뜻
역학
외환
시크릿
##데기
##꼬리
페닐
##ests
나트
원했
##istics
길거리
풍속
118
조율
나눴
외형
##마르
시너지
발자
삼촌
수박
태연
행성
chang
어리석
##sych
오페
매진
Americ
기량
내성
학급
131
##어붙
위해선
그랜저
레버
승객
유격
##uality
균일
커졌
years
마리아
질주
줄거리
쿠퍼
Tel
people
가평
조아
태아
사퇴
##ogn
입양
데려가
모금
시료
알라
##agn
강수
질량
황당
##ional
Per
dom
##티아
들어간다
오미
항의
132
개척
려나
##ck
동전
드럼
맛난
안드로
어쩐지
입점
힘내
##osis
랜덤
프라이드
Gl
선조
선비
정립
건수
화력
##봐도
##VA
성형외과
관료
예언
토스
올려서
1984
모자라
So
##ectively
소극
진정한
러쉬
야무지
자영
##ured
##톨릭
절연
관계없이
어둡
과실
마술
##질러
다스리
드론
쿠페
Des
##마다
맛볼
addition
바랄
하얗
대리인
서적
소집
명확히
바베
##ION
올라갈
느껴진다
포르테
important
블라인
한류
흑인
매칭
##지르
sol
멍하니
사명
실로
서초구
##다닥
##havi
속삭
어스
밝혀졌
일일이
노을
무수
와우
##ior
줄어든
나간다
determ
lim
she
폴리에
Ne
대주
도미
related
대대
안겼
양보
전작
##45
기하
골프장
의뢰인
나르
##gen
항공기
won
구슬
인피니티
영남
생소
연비
PA
타투
올라간
들려오
MVP
리오
##보리
공짜
동경
뚝딱
수반
##LC
보험금
재판소
pH
차관
찰나
숙련
여배우
대북
서장
임대차
혼합물
오니
우물
##퍼니
사탕
중원
##outh
갈치
강성
자질
##TV
Det
자란
##은색
가치관
민영
이겼
정유
환급
오른손
CN
의거
정조
정사
##HD
공통점
넘겼
들으
again
칵테일
메달
어이없
MK
서포터
세리
시동
누워서
##브라
두기
상소
심층
용해
자부심
내산
밤새
김원
램프
금호
서해
차근
할당
광교
홍수
러스
유승
##obal
경연
##겨운
해결책
대문
장부
피식
블라인드
배불
오타
이선
##거진
범행
##sh
와이어
##ope
fam
OK
습기
황후
total
8000
눈부
근린
##포동
sel
바꿨
경호
외상
치러
NP
컴퍼니
##끼리
로맨틱
TOP
리부
이식
##타리
박상
lead
진해
내려갔
대단히
복제
정점
##usiness
while
무공
##잔치
사회주의
개막전
bel
주니어
factors
구용
미학
안테나
mat
##wn
수식
영지
poss
고래
종시
호호
##범죄
냉정
1986
조별
토로
부속
전수
다듬
퍼져
환원
면은
동아시아
Seoul
##르륵
털어놓
숨겨진
바베큐
묵직
접착제
변한
서운
##주택
표출
전망대
##ality
체감
으니깐
아용
별거
코스트
스톤
안도
기뻐하
##관절
수렴
장시간
항암
올스타
포스코
second
로켓
미라
##파서
CR
산모
옵니다
접합
185
연기자
##특별자치
위쪽
구석구석
모션
상생
후자
##de
##특별자치도
농축
물결
연희
##질랜드
##itter
잔인
충주
나타났으며
China
many
기력
내용물
evalu
느낀다
뉴질랜드
워너
인삼
곧장
수료
쟁이
미쳐
박경
세인트
제주특별자치도
age
##ention
공세
라이벌
끝났
땅볼
엘프
지켰
positive
동정
##27
달려들
전성
##ividual
가령
복면
할리우드
스미
##cri
양반
촛불
추리
##엑스
뽐냈
우대
도민
ques
교도
늘어났
답했
신전
려니
찰떡
팔꿈치
neg
지저
퍼스트
업로드
정은
플라이
스테이
히어로즈
블리
전염
##래프트
부유
유교
log
베타
learning
목살
겁니까
빈티지
자몽
미처
##ton
김구
다급
##alk
##adi
당사
proper
관악
오션
##other
##65
##천구
공모전
일품
행해
주저앉
동방
빵집
이집
133
모유
변비
스물
인대
##증권
세면
원심
카츠
폭로
이집트
여대
달라졌
child
박진
이데
즐거웠
얼리
쫀득
프로토
##urs
초상
틀린
봐야지
사용법
##abor
중기
포근
사마
티저
play
웨이브
아연
안티
노스
정렬
표적
콜라보
거니
굴러
용역
이루어진다
System
##샤브
대파
본성
자분
통지
##land
내려서
질리
코스피
몰라요
규격
박세
마이클
칼라
aut
소견
동요
은근히
relationship
##hib
사설
타고
##같이
되돌아
##ohn
개운
익산
##밀히
##십리
pop
될까요
애착
지퍼
Bi
빈번
번갈
서원
청라
impro
compl
proble
바이올
막국수
싫어
주역
##버터
오토바이
KCC
샤브
체어
못해서
김은
페인트
##오카
##tice
올라와
교반
비평
최정
작곡가
tistory
몽골
어긋
전승
124
느껴질
##ission
계십니다
익혀
샤브샤브
pass
유령
자작
책임자
단맛
위법
칼럼
이걸로
미인
벌였
##티드
inves
THE
근래
나날
돌연
##vis
##런트
벽지
오키
##폐물
##etter
광산
막혀
바라본
대용량
잔류
##두근
김장
스릴
시멘트
풍선
장려
조연
sever
김정은
물들
성산
여가
가산
설거지
웨스트
##로워
prom
물씬
이룰
점착
드문
확고
모호
복무
##ps
##무실
##TN
state
Sm
어려우
back
똑바로
명상
업자
아마존
파란색
망원
시비
반대편
찌르
서재
죄인
SN
불길
외장
치료법
BL
컨테이너
##으므로
wr
티아
원자력
버디
김치찌개
전차
gover
냐면
이연
보름
친척
##TRA
평상시
음주운전
고아
사역
대부
cc
접목
페널
흘러가
사계
앤드
왕복
##inc
려다
머스
종아리
재판부
도망가
적시타
경희
공영
조수
Sec
스마
추모
##21
##35
##urther
117
뒤돌
여덟
##모로
고추장
##osp
가압
아래쪽
경영자
다니까
레저
윤곽
인내
보일러
어시스트
지쳐
호전
종결
Hz
신형
주어지
##ables
poli
친근
나물
변제
다가갔
내달
바짝
벡터
안팎
##루스
##팩트
##듀서
원수
화해
프로듀서
양극
144
effects
Em
불순
##의식
경상북도
##겨서
##ste
하수구
말려
내기
영화관
반짝이
갈래
시뮬
약제
##오리
##러져
##승부
포르투갈
말끔
부끄럽
health
##resp
안무
정세
종전
did
서방
준공
sens
며느리
장동
항산
해냈
##fess
##피탈
##ilar
고운
막창
테이크
자연스레
##ference
발판
##지부
##플레이션
패스트
꼽히
배부르
마일
Rel
127
groups
원산지
닭발
따라오
아이패드
브리핑
아민
클레
165
타르트
재택
이사장
기동
묘한
정선
가해자
집권
##IG
##ume
기출
출루
##퇴근
이어져
Rep
당면
어미
루나
맛없
에디
역설
아늑
시달리
양수
정시
##ledge
강행
즉석
아기자기
자영업
터보
##RS
국방부
아인
내신
상용
재벌
절친
##지오
focus
차세대
케인
general
도마
동호
중부
탄핵
##vers
기쁜
라즈
려구요
시안
와사
youtu
CGV
대성
education
김미
꿀맛
회기
##맹이
경수
비아
양해
지면
허무
여러모로
도망치
EPL
##ength
노폐물
파울
##face
중증
미녀
취했
동명
##서스
##셔서
전문의
갑작스럽
서현
##모토
된장찌개
소시
이노
다이어리
본고
이를
틀리
멜로디
수저
원더
는군요
현우
대해선
vis
잔잔
맞췄
사주
조영
##도리
##레스테
쓰러지
수아
아사
안타까운
가축
김남
웨어
왜냐면
역동
##ream
외우
대입
좀처럼
죽일
##TT
드러난
ext
고깃
억압
선보인
Op
균열
손등
신림
용접
이야말로
캘리포
발간
단기간
치밀
##osition
RE
극심
달빛
더럽
송파구
오페라
니라
탐방
##생긴
ㅇㅇ
건넸
단절
던진
##PA
캘리포니아
hand
모듬
카트
말없이
콜레스테
##운다
187
찾아갔
베일
전철
처한
##요타
피치
##par
USA
##urrent
개장
여당
산지
욕조
음향
##레인지
고체
청원
안마
앞뒤
즐겼
##리필
##오드
주식회사
결성
소량
신작
아비
회차
분식
입히
감격
염소
데스크
145
양손
무한리필
교훈
두리
벨벳
씁쓸
개발자
govern
우월
EL
농산물
도넛
채취
hel
정관
어쩌다
견과
닛산
발열
업적
필사
들어선
520
가성
우상
원내대표
걸까요
과하
도약
섞여
전한
죄책
행정부
HS
스커트
##의사
이강
관심사
월화드라마
나리
부도
사찰
해줍니다
행렬
호투
상당수
나스
##셀러
아파서
블레이드
시일
엉망
엔지
증식
민속
반란
열전
원서
평론
한의원
PO
광대
끈적
감염증
스타트업
틀림없
CI
저러
##ces
155
AL
결핍
교감
듀얼
수현
행태
##29
##FF
Cho
콜레스테롤
죽인
410
구월
구매자
적힌
##istic
선반
최민
paper
경치
박재
발길
울렸
##less
품종
남한
아삭
희미
##랭크
데려다
박명수
오바
##ering
노랑
홈경기
홍성
##니스트
출연진
땅콩
터트
했잖아
고등어
당뇨병
고를
맞물
의아
잡힌
##로이드
shown
##YP
가톨릭
난감
봅시다
입장료
주원
point
황정
indust
립스틱
##IL
앞세워
방패
체류
##red
##ced
걸맞
다거나
뭔데
저널
경산
내포
바치
person
설교
##프리카
잃어버린
LH
거점
내구
코끼리
팽창
7000
흑흑
##월드
연세대
우체
헌신
바로잡
##stand
##깨비
와이프
미간
##꺼풀
최우선
바비
노무현
선착순
동지
물기
빵빵
짜잔
실상
진통
##ason
넘버
두껍
두통
무산
작사
장애인
prac
관행
역삼
터졌
고양시
발톱
제자리
investig
거미
##올라
##ird
순두부
거꾸
광역시
방전
상반
습도
##ror
##med
안철수
유라
주재
충무
스케치
어두워
국한
판매량
MLB
강자
고로
왕조
DA
잠자리
##com
##뜨린
아슬
와사비
반격
부피
strateg
By
미끄러
유머
청문
성남시
이창
설렘
자비
투과
##lege
리안
아이언
경찰관
하드웨어
##ified
기다릴
##라이언트
편했
##ulated
다름없
硏究
고선
보좌
항생
뒤지
성범죄
항소
흘려
teach
래퍼
##be
봉쇄
분유
케미
오리온
뛰어들
출퇴근
##cal
##노소
빠져나가
Gu
서인
동등
##of
시사점
남산
단발
두렵
직경
고마운
ON
위임
법학
반하
외측
program
어울려
내셔널
##현실
치고
책정
플러
World
발색
조군
1982
max
다진
쥬스
항구
공보
양지
반가운
징수
##uture
다기
멈췄
유찰
찾아와
쓸모
양치
청양
남녀노소
미네랄
##숭이
call
눈가
식초
철회
헨리
##올랐
소상
수거
착수
각별
##48
mail
왔었
##줄기
아랍
##respond
사촌
포터
##uted
##────
기각
뮌헨
서지
젠장
거지
김창
내측
##블릿
트레이너
미성
묵묵
벌리
세액
토니
school
나열
동선
라임
붙였
아오
잠수
die
길러
발탁
##성이
기념품
리틀
다가와
승용
포레
##네마
##ems
일찍이
mus
체지방
repres
API
거꾸로
##중간
##els
만족감
##RT
고의
김명
사춘
지낸
186
인천광역시
덩치
방과
영동
FIFA
공군
따스
표명
##VD
175
라운지
여쭤
##문학
dev
terms
과다
##절기
constr
##ource
유정
치가
칼날
알아차
individual
pri
겠다
남학생
바리
양면
현안
159
건데요
그제야
마츠
적성
수목드라마
occ
지켜야
pred
ㅜㅜㅜ
뜻밖
즐거워
analyz
폭소
##하늘
##PP
바이든
법무법인
하긴
트로피
av
대두
비염
1979
SF
결단
##차근
##톡스
포켓몬
Hy
자사
차근차근
궁합
지오
품격
공예
상시
신정
Bo
미련
아스널
순한
형법
##NG
##inical
##ows
할지라도
좌표
나이키
어울릴
index
정해져
루시
옷장
PCR
##대기
##rial
influ
남용
낮잠
동래
배움
레이디
IB
대공
여겼
##더니
갑상선
WH
김도
리브
유부
직관
Department
단연
독소
페리
흐흐
아로마
진작
생긴다
이점
주무
중세
##더기
youtube
프로그래밍
##플렉스
괴롭히
극히
요령
우회
작정
정석
##유럽
무지개
growth
실려
온실
대리점
##49
##승환
온전
제철
짱짱
iss
LP
주상
런닝맨
각인
무승부
테르
아르헨
러블리
배선
알뜰
factor
부들
폭넓
Int
내심
횡단
걸어갔
죄책감
교황
1200
제주시
바래요
재물
아르헨티나
count
미백
줄줄
1950
초록색
거침
겸손
아랑
저소득
##에르
영수증
다투
잔소리
##큘럼
무드
미흡
버릇
부업
커리큘럼
ox
리원
업소
항공사
장학금
특급
더듬
수년
분화
하이라이트
국세
엉뚱
과학자
나주
엘리트
right
##ude
reported
기지국
문체
벌떡
일출
팽팽
먹여
##유산
Trans
아쿠아
사춘기
존나
하와이
##onse
One
서리
연세
##클럽
various
껍데기
노즐
라이온
코스닥
words
후후
소라
##나와
##amm
일어서
성전
##평균
수주
##tor
##imes
매립
석탄
차돌
##란시스
으셔도
단추
리튬
수연
##38
market
##보라
부친
International
마그네
배분
풀려
##gan
##블린
공연장
compared
다툼
바구니
서른
허나
1983
수장
저서
선포
##idence
그토록
이완
베이컨
She
보스턴
들으며
실화
친하
##펙트
약품
유자
이세
폴란드
270
박종
사립
오더
지저분
Anal
라라
##uced
ro
신재
퇴장
더미
연쇄
##oint
스페이스
due
경보
막막
밀집
아지
##다나
여과
##마리
모른다는
였음
옥시
유세
이이
조력
질소
III
RF
링컨
##aum
FTA
마포
지로
옮긴
육즙
##리즘
대기실
##ification
벗어난
주한
##니스탄
including
집어넣
Science
고독
수색
태블릿
터뜨렸
포천
양현
방위
저해
토양
얼큰
##버렸
생겨나
모델링
##iven
단가
렌지
스텔
시행령
담겼
##산역
very
following
TS
박혀
##리그
##회의
챔피언십
두뇌
터진
합법
##서리
La
North
suc
다릅니다
백지
필연
##ote
BE
##bl
몸통
수여
의리
126
주심
충전기
휴게소
이방인
Te
경위
신음
151
##ormal
doi
세분
여객
frequ
적층
가로수
강북
일주
##올로
260
경성
부임
특례
하향
##ores
pat
다방
산타
손꼽
에센스
스포츠조선
조경
피티
##atus
단단히
청정기
유격수
항생제
암기
틴트
##ule
##put
##ayer
친밀
##riting
Qu
사사
참기름
##가역
water
정황
초고
취할
##슬리
단호박
App
말레이
이스트
처녀
##무라
Gen
기색
배드
세세
129
가꾸
김인
셔틀
##다르
빠져서
John
명분
열연
##싸움
##icine
신분증
글러
려다가
연체
Di
language
절정
퍼스
##ains
문인
##규모
밸리
계면
확충
##지사
국사
선크림
YG
강인
내시경
아군
호출
화질
동백
##미리
every
##ished
쫓아
##ison
군단
파랑
성사
져야
contin
프린터
면세점
왁스
차주
Techn
care
샤프트
conduc
고온
열풍
워드
이질
##ists
말소
수진
하천
##sp
펼쳐진
건국
무방
스프레이
방콕
수인
와도
율법
평판
levels
increased
3G
네오
##ke
behavi
포르쉐
당선인
앨리스
sym
expression
이대호
공천
무궁
살아갈
Comm
sw
어선
학년도
CPU
쳐다봤
봐라
접어들
아메리
토스트
팍팍
건너편
아껴
##탄올
##케이크
준비물
박준
모티브
인플레이션
충치
prot
떠올렸
UEFA
법제
발자국
Mnet
골절
전직
건만
상회
아몬드
##ux
##이치
마땅히
됐으며
릴리
불명
시국
자립
##버려
연기력
관절염
obtain
태평양
보너스
합금
와이파이
쓸쓸
##게티
종업
하리
프라자
독재
박차
주유
못지않
골격
버려서
역임
##37
##매김
내려다보
##ector
SKT
코란도
태워
공법
커플링
유권자
찬열
##36
제의
정신없이
without
방정
청각
하프
##텍스
분쇄
기울여
진전
##cle
두근두근
고분자
IR
한심
##tra
크리스탈
끌어안
끝날
보임
정했
한상
빅토
임대료
김현수
무작정
make
유족
한나라
호두
따랐
생강
##를린
##그라
내려왔
Instit
성도
증인
합작
설화
올드
죽였
트윈스
대동
렉스턴
재차
하중
Therefore
한나라당
Ed
경악
이해관계
쓰러져
서평
찬양
해외여행
요일
top
피의자
##ky
correl
SL
들린
박민
아드
##ape
respectively
박막
##축구
상임
액수
네여
휘둘
농부
사생활
수혜
장신
페널티
혈당
##벌레
저감
##막이
연마
집필
GDP
대교
아플
인제
OC
압출
휘두르
관습
다량
의논
소규모
해독
산부인
자회사
산부인과
발랄
At
난민
레고
약혼
해줘
##vent
##야수
시뮬레이션
마곡
창립
##질렀
##바구니
##베스
일리
최진
##UT
깔려
토핑
납득
134
대강
부디
렌트카
머물렀
플래너
문단
미묘
부풀
##보험
##그래
도깨비
비만
울트라
cost
교섭
김신
찹쌀
##ember
중얼거렸
야식
##nt
activity
경지
사치
오스
흥원
돌아와서
PE
깨우
다각
생김
공수
세밀
##승지
야마
장편
##구멍
일으킬
VIP
백인
전구
김천
기조
목재
버그
비우
신데
챙겼
치수
에스테
프린트
휩쓸
지지율
메이커
세라믹
문양
우세
저게
편찬
스러울
노부
호흡기
pot
기점
손자
여럿
카스
다는데
VR
just
nec
양재
YTN
겹치
지날
필링
자리매김
서부터
##34
168
##atio
risk
강전
튜닝
##ns
프라임
시종
노바
돌잔치
승자
##ars
##타운
141
드러낸
선보인다
previous
스탠드
원대
판독
스타렉스
change
활발히
according
CA
South
명회
반납
영등포구
입소문
순이익
단식
##지원
##omm
Sw
비춰
저마다
모여서
잠자
찌개
한가득
탈퇴
구부
후지
##Cl
연우
제스
통찰
생명체
인문학
이빨
납품
벗어날
제작사
experim
회귀분석
가늠
윤종
마음먹
made
##ajor
##eived
##itor
일회용
세면대
sit
sum
구르
ide
갑옷
하남
##킨다
orig
even
SW
상급
외과
우도
발화
갔다
여호와
격투
원동
집값
헤매
본연
싸워
햇볕
##oT
##리지
performance
리딩
Na
보트
부식
상고
일식
절벽
##슬라
따름
##플러스
합격자
가려움
전라남도
AFP
매끈
포로
스테이트
도청
섹션
##Hz
##체인
강철
추이
대구시
등심
전라북도
금연
정현
테일러
후다닥
고차
민정
흐뭇
광복
펼친
봤었
위드
캐슬
실까요
정정
후손
##시설
Detail
재즈
##맞춤
감축
standard
##anced
설문지
엔지니어
넘어지
consum
formula
말레이시아
정경
클라이언트
밀양
승률
육상
청취
타구
2030
prote
노동조합
free
국면
한인
더러운
만끽
반장
통역
##저곳
이곳저곳
750
등지
무안
아프가
깨끗이
두려워하
love
바우
분주
숙주
터질
Dec
연중
응모
소설가
홀리
나트륨
대피
제왕
미국인
자각
##RNA
##arge
##vention
선제골
깨지
빅뱅
푸조
##까봐
136
##thing
지나친
김연아
사흘
사나이
프렌즈
무진
일명
values
배부
퇴원
Acc
보라색
악몽
프롤
##투리
거버
귀환
블링
##다임
##way
라이언
안드로이드
고깃집
##벤션
205
블록체인
지나간
관람객
베어스
패러다임
원금
지아
340
culture
무림
용돈
원통
깨달음
수성구
모였
##사진
보건소
궁전
파생
decre
이명박
김우
##port
##러기
path
어김없이
계약금
##ffici
잠재력
황태자
글라스
따듯
박용
추론
호위
김홍
명명
버텨
실재
치안
허물
강호동
바이크
어필
중공업
이데올로
이데올로기
도련
바뀔
완공
함양
환승
though
거세
명목
병실
##프리
##att
말린
삼키
장원
형용
달라붙
터뜨리
바빴
삼계
자자
##치즈
before
동산
주권
마음속
동포
중성
들으면서
부틸
내줬
정진
##블러
박태
산재
정맥
##uf
두드리
아프가니스탄
트렁
##ury
샤이
선원
##우마
##ales
##란시스코
그래서인지
놀라움
벽돌
이호
트렁크
컨벤션
현아
139
기용
배변
미스터리
로얄
배합
사다리
신자
조현
으셔서
짜장면
OL
소니
필립
##맞이
내려와
귀여워서
더워서
습격
책장
달려갔
증권사
오세훈
ng
하원
내려다
mol
미뤄
안착
웅장
##jects
##단체
컴퓨팅
oper
경복
논하
유언
OR
분실
##만두
significantly
cou
간다는
근심
아보
마니
선장
심부
직영
진다고
현직
152
닭고기
병변
싱어
치솟
실린더
재건축
더군다나
But
막힌
세수
장로
프론
##파리
##olved
내려앉
광원
무죄
##소연
within
무튼
재킷
지금껏
1981
종업원
타로
김태형
플러그
풀어
##습관
실책
여느
운세
이인
전속
##로니
들어도
기억나
연예계
ED
승무원
질감
청바지
여행자
무서웠
스위트
식습관
이글
##적으로
코코넛
구호
합당
시끄럽
팬티
풍요
##↓↓↓↓
role
강했
비웃
산수
전일
380
structure
펼칠
중심지
마린
박리
지평
교육감
담담
비키
잠금
종자
자이언츠
증여
토론토
베를린
색채
숙여
한성
충청북도
불신
위즈
##든가
280
주시
550
촬영장
살아온
Mo
신원
선호도
플랫폼
당겨
MM
ep
땡기
은하
지라
보호법
사시도
##ospital
아메리칸
##듭니다
한다며
볼보
임용
착색
들어섰
변호인
겹쳐
선가
##aster
##세서리
짜릿
fac
로또
에쿠스
임영
머무르
미역국
입수
press
글루
다이소
누군지
머물러
민지
심미
##해야
알콜
구수
그놈
차질
체인지
##마을
슈퍼맨
이산화
##길래
##케어
바둑
평촌
##준호
##echan
뜬금
수칙
앞머리
장모
Min
고압
조문
편광
클러스터
통풍
##그레
모의고사
모릅니다
실컷
부산시
살아나
발바닥
이윽
이듬
선보일
만료
뱀파이어
화끈
EN
che
dr
##ek
마진
배후
예고편
쇼트
수염
항만
Bar
화산
매운맛
이윽고
경도
고립
법조
부원
조인
##활약
##ret
Access
동거
장거리
치른
##78
##iction
스콘
교통부
알렉산
help
자태
기다려야
따끈
사부
한적
산업단지
브라우
대놓
되살
##urop
책임감
받아들일
총체
페미
브래
에디션
자막
회동
##르도
environment
모아서
건성
요시
커트
##나가
캐주얼
홍조
식도
##성장
##투수
골라서
ly
존슨
환한
조그만
Tw
놀리
퍼즐
합체
양념장
fin
공평
##46
##춧가루
떨어져서
Ge
명하
임직원
정중
매너
##천군
##워진
아이러
재회
범죄자
이뤄졌
군포
소양
구형
라곤
헬기
흡사
나들이
드세요
마인
소바
납세
헤르
선발투수
adm
den
세훈
유병
product
BC
욕설
자손
♡♡
알로
부딪히
eth
계통
등극
만세
선지
##erc
##리스타
지식인
스테이션
렉스
파업
##넌스
depend
스트로
맹활약
이즈
일차
##TI
본명
테두리
폴리스
충청남도
이루어져야
정량
창호
less
캐리
##ont
버드
서론
시시
여운
역점
UP
분단
신약
##ype
득템
small
gene
알렉스
일생
라고요
direct
Mus
독도
이케
이효리
뽀뽀
##ese
미얀
외계
제천
완성도
tre
##pa
##덱스
material
파파
disease
숙였
적금
##살이
VI
과언
올인
##차례
143
가져야
IoT
ME
구한
노벨
박은
1930
방송사
인위
카타르
complet
이듬해
위계
유나
일각
참사
##adem
트라우마
깜찍
원숭이
prim
이뤄진
##산업
거버넌스
렉서스
차가
체크인
장안
평안
##crib
눈매
상정
순조
다고요
영애
튜버
##뜨려
연전
제치
Er
lower
겨냥
단행
일화
지그
##산성
들어갑니다
비정규
도끼
수상자
나폴
적대
##hy
악취
##BN
광양
베라
실외
실크
##SSN
복습
장래
고마워요
붙인
실효
안구
해본다
##끄럼
성폭력
메세지
창밖
가파
곤충
김구라
끊이
독성
라스트
라니까
수질
테트라
서대문
철근
##ication
High
김호
##UN
##게더
associated
박병호
bro
랭크
적발
청순
투게더
페놀
##ically
characteristics
승용차
꼬맹이
##지노
First
생전
광주시
관직
부턴
스핀
승차
장만
##ique
휘발유
대나무
##건설
국채
매화
세입
142
인지도
쓰러졌
shows
기증
바를
펀치
점막
헌터
##동역
##렁이
천정
해내
서문
태안
NS
골문
반기
트로트
마티즈
9000
벼슬
전골
후견
##cop
정민
침략
홀더
주안
거렸
왕비
플리
##ried
돌려주
거치대
오프닝
퇴사
합니까
창업자
모스크
이너
주축
##하이
교부
비정규직
##습기
철학자
토론회
turn
미르
옆구리
임계
입혀
훗날
사이다
Oh
추워서
##ious
데이비드
곁들여
아쉬워
observed
배지
접전
Pa
간행
모조리
용감
일부분
##EE
asp
라디오스타
쏟아져
bre
거창
김세
떠서
계열사
similar
사계절
모방
쫓겨
##가짐
말기
작물
##cial
##till
스트라이
메르스
브릿
178
GO
liter
뇌졸
##크로
열릴
스펙트
본관
이승엽
취재진
measure
리코
소란
스팟
정갈
한미
##모니
감면
귀속
그닥
무명
상응
성서
커넥
##ㅠㅠ
##라이나
CB
네모
월간
그리움
Health
economic
스몰
연못
완충
교리
마운
203
지원자
review
눌렀
뭉쳐
벨라
어땠
입담
##bers
regard
연달
일전
지은
222
Dr
OEC
경량
중식
158
solution
날라
돈가스
사나
지프
특기
항균
##uce
##ush
act
공기업
공직
뭉치
후추
소사
가져올
예뻐요
늘어날
If
농지
시합
잘생긴
방송국
뱃살
##공항
difference
변속
세례
예감
커리어
##냉면
공조
국비
담장
모세
봄날
##십니까
1978
OECD
서늘
장애물
저지른
독창
실사
틈새
156
계신가요
color
충만
하버
##daily
##ained
개략
왠만
운항
일보
기리
수레
슬기
워커
##aid
adv
비대칭
걸려서
심혈
은평
돌아간
경품
이화
##보영
SUV
서영
시립
증오
총재
박시
experience
공판
담아
백색
선대
성지
최재
##UM
반반
심도
평온
##사람
##메이
body
들렀
미야
인명
파이널
까다로운
face
line
라틴
발치
빨대
자가
들여다
move
막혔
원시
154
distribution
스펙트럼
잊혀
##유리
##호흡
##━━
줄곧
주먹밥
우체국
성대
슈즈
유이
포차
시어머니
극한
사극
사슬
알찬
current
가면
견딜
꺼져
백업
질러
코엑스
##며시
부지런히
기습
코르
School
프로토콜
UV
field
무자
손짓
선보여
가창
다자
둔다
##나서
These
니콜
커질
##verage
지도부
유니크
능숙
마틴
아레나
클립
##대사
내공
모모
밀란
##ley
자유주의
increase
앞장서
묵묵히
심경
제반
크림치즈
넘어갔
경전
다다
사슴
졸라
파운데
오스트리아
파운데이션
비린
이른다
##여겨
그리워
146
products
After
내수
도배
Reg
깨물
보복
훔쳐
##bo
스트라
area
GP
미키
센텀
전현
##95
떠오른
애쓰
##퍼런스
려는데
수육
이석
쪽지
팔리
타고난
신년
이혜
체조
가왕
샤오
자정
quality
엇갈
와일드
중첩
##나리
##영향
##룽지
덧붙여
저지르
감칠
고품
물회
쓰였
유감
친분
플레
픽셀
##로코
폴리머
밥집
서산
선선
식용
귀걸이
멘탈
미혼
벽화
성추
택하
홈플러스
##송이
관건
올바르
고려대
이국
##토스
##균관
잘라서
own
휘트
그제서야
깨어나
동적
오오
좋아해서
down
고척
대승
동문
리가
촉감
##ners
##때로
느린
##ustom
대명사
가맹점
실례
영위
제인
방문자
policy
눈여겨
총액
166
기원전
갇혀
놔두
가져와
스테인
가늘
싸울
일괄
텀블러
파이어
속이
접할
주워
휴먼
##수소
스며들
SO
##tically
우호
##반짝
Medicine
광안리
간과
만물
차종
피팅
American
전성기
리니
상면
생식
지질
##카도
##감치
달인
인텔
주춤
창구
Ap
재앙
주된
반짝반짝
IV
굴곡
##onic
으으
들어야
대리석
고모
신진
침구
살폈
시련
흐리
희석
##☆☆
아니한
스케이
솔솔
통행
다용
섭외
테일
부대찌개
창원시
시그널
싫어하
Get
동국
동결
성균관
어플
피어
##ploy
후반기
광부
독보
온다고
원유
##plication
가락
샌프
##리나
##불호
##찌감치
어플리케이션
샌프란시스코
불평
진성
트라이
##GB
쓸데없
레아
연준
유상
합치
##orn
##urity
펼쳐졌
김제
농어
무형
사수
써도
호불호
후계
일제히
York
##효진
countries
아닌가요
학회지
규율
##더라
knowledge
Multi
TO
곡물
분담
의결
친숙
탁자
생활비
연합회
##atisf
액티
understand
디오
명심
집들이
NG
도보
부츠
시럽
애국
ing
arg
무도
불판
저쪽
콤비
완벽히
성추행
고심
도수
치켜
##높이
권해
섭섭
산불
우진
통째
형벌
##도르
phys
프라이빗
success
가부
셀룰
임진
##어보
##도그
아야지
trad
그려져
로지
박인
아자
유미
콜로
##ero
137
선풍기
쓰인
항해
##DS
생각났
concent
밀크티
경직
내버려
묻혀
##lor
뜨끈
블러
비워
크롬
##기야
##방향
##받이
국무총리
Mark
포티
애드
이니
창피
합산
##유예
##총장
does
caus
스폰
김일
능선
다룰
두어
렀다
카시
##말라
오키나와
mk
생수
##ev
##omy
sing
간간
밀어내
148
identif
다친
표했
꺼지
면도
명곡
송지
##쿠라
##igital
건조기
측근
176
##ension
베스트셀러
교제
아부
##MR
사업비
을지로
EV
김보
까치
남원
손발
아릴
힘껏
##47
##애플
라네
불태
이랬
호칭
UC
몰두
북적
소박
##에이터
##olic
##roduction
춤추
카페인
어학원
##day
##프레소
From
세션
ㅠㅜ
니즈
외로움
##동원
모빌
성원
아틀
찔러
차차
토큰
##임자
##부모
perce
##mercial
경복궁
검색어
나카
듀오
가야
보태
웃긴
에듀
염기
화기
바깥쪽
협동조합
전위
153
에스테르
누룽지
라지
뭘까
##gr
performed
스마일
브릿지
덴마크
메이트
쉐이크
연골
효자
골목길
노이즈
유영
유비
##르타
##ask
head
뮤지션
귀하
꽃잎
모욕
알람
기념일
##기에
##apy
가져갔
회의실
Mc
고종
노아
컨트리
강정호
공신
정가
거룩
과천
멈춘
주희
크크
잡아먹
냉전
동맥
방광
시끄러
장윤
쳐서
관리사
아바타
since
박탈
진우
연습생
poly
강판
교토
시우
신흥
호환
##ANG
와플
완주
느냐고
재촉
##어주
모양새
mag
호의
희귀
##AA
단면도
government
도사
주황
타협
##idd
시사회
합병증
사위
##atural
관리법
leg
이승기
mydaily
안재
져요
가로막
슬라이드
When
mor
가급
기이
##호텔
담화
르네
통닭
##98
Love
교구
발가락
열람
##페이
##ters
개구리
낮춰
울림
줄까
학살
아낌
핫도그
피부염
family
기피
윤정
킬로
넘어갈
그려진
clear
말문
모서리
손색
옮김
정반
호로
##멘터리
생산량
##arget
바게
외벽
지독
표상
##vities
신발장
OP
future
로브
##프터
관리비
138
cer
경신
액세스
중위
커브
##어야
하얀색
provide
2500
산책로
불어넣
붕어
탐험
진짜로
이병헌
수기
바게트
문경
슬립
외침
위키
##RL
##리에
도래
UTRA
재일
철강
##수리
Education
목차
실존
윤지
Let
계량
Day
부종
시진
파이터
support
스릴러
동창
루스
묘지
선천
혹여
##96
Che
아찔
주어
불로
하의
##enz
##ument
만주
양천구
키울
힘차
##dro
##arr
특별법
service
BB
휘말
기업가
##though
##ogen
Inc
후쿠오카
연화
이천
작중
찬물
1920
김광현
등교
산물
초조
##to
##미안
극도
미디
연일
피츠
마이너스
외주
재주
조심스레
떨어진다
이라크
결장
움켜
환절기
##ecial
political
마그네슘
Eff
major
스트리
##ends
빛깔
천주
캐치
파르
##자락
##버린
##부들
미끄럼
법규
상류
호재
매운탕
내세우
로버트
Part
교예
대마
방황
성북
진다는
##plash
KGC
가급적
교역
굴절
사관
일가
##osph
간만
위례
이격
줄눈
##을까
여주인
NEW
다큐멘터리
뚝배기
신조
##시티
national
공론
교시
영하
계란찜
부들부들
관문
##ef
##저우
해장국
청문회
합정
타이거즈
지현
알아내
local
changes
경이
끌어들
순종
출격
특색
단숨
레인지
무색
섬기
##태현
자아내
김수현
단숨에
강타
내각
##ana
서귀포시
왕십리
##코트
메이플
calc
도요타
##칼리
208
아이파크
파인애플
말미암
교보
다윗
물감
철판
##꺼이
내과
##ually
Human
보청
유다
이뤘
제대
축산
태자
패킷
RO
녹여
맞붙
PB
병기
##orea
Data
갱년기
독해
래쉬
증착
편향
학창
4G
고블린
모셔
양양
카렌스
##대요
바빠서
##생명
건드리
애완
줘도
하사
호조
##연구
##ender
##지도
##ired
소송법
With
당진
때때로
준우
range
공직자
박신
소세지
승계
외롭
팩토리
개관
민호
양동
테슬라
##eness
cur
사육
장보
창단
후작
힘쓰
대한항공
전화기
스티븐
text
둥근
##MI
##커피
다가올
##amic
마주쳤
비하인드
Institute
복권
봉인
응대
퓨어
##iving
슈트
종말
하마
##TC
Us
바래
야심
약재
전집
##iqu
##ibility
##obile
##stract
박현
흉내
##나기
##라노
굴욕
살롱
다구요
성주
지법
##ving
147
가디건
Jo
구자
대림
시예
예리
흐트
마라톤
Copyright
믿기
옹호
조선일보
손잡
오승환
위태
전격
캡틴
##ju
기다린
##ives
스킨케어
레터
오뎅
해준다
bar
어버
킬러
각막
비장
죄다
화염
스러우
four
문예
쪼개
현저
##RP
는지라
야구장
LCD
남길
두르
해답
뇌졸중
궤도
##테리아
감칠맛
KL
공소
줄지
촘촘
스파게티
key
귀중
##내기
도우미
삼계탕
##err
려고요
What
패러디
블라우스
Met
cases
##훈련
둥글
##ectiv
##imal
불러서
흔들렸
strong
미얀마
God
격렬
성벽
중략
찜질
아니야
아니요
Ca
과태
국화
물놀
배트
수하
저승
타카
##ler
##매매
내보내
광진구
심신
생산자
금새
반경
버퍼
유산소
College
요코
발라드
TC
평수
파이팅
고마움
common
느니라
모처럼
여관
외래
정호
보건복
배고프
산맥
학계
황자
statis
##ours
지상파
##responding
과태료
대꾸
빈틈
성부
쏠쏠
애프터
채웠
시설물
##plied
이어진다
jp
역류
느냐는
interest
represent
home
○○
##ides
place
강우
사온
##하라
##어서
근교
새하
어업
체로
##uck
슈퍼스타
스캔들
KS
연안
##sw
##tivities
느껴져
Society
끝냈
##reg
물러났
Ver
수퍼
##금속
##oma
귀여움
Press
검은색
쿨링
타락
쓰러진
writing
아구
평행
기술자
##ourse
당당히
꼬박
신민
조림
거래량
머릿결
모터스
##키스탄
하연
##청역
사회학
DI
law
국외
명지
전서
##무늬
아보카도
베풀
이끈
큼직
흑백
대놓고
붙박이
정연
##read
list
포부
discuss
그해
루비
숙지
포커스
날카롭
서진
스텐
엣지
##급히
아닙니까
211
variables
표고
177
갑작스런
낙엽
살포
시전
유민
증발
파마
##보이
구했
용융
##omp
만능
상차림
시편
고을
다뤄
리프트
장자
탐사
##ino
157
라이너
언론사
him
도무지
신주
피칭
어지러
보건복지부
ur
슬러
발렌시아
슬리퍼
LS
모토
수줍
습니
온수
채광
토마스
##파니
content
micro
기꺼이
동조
연회
전월
430
much
결실
공허
놀랬
블랑
서준
수족
##55
integ
다네요
함박
날씬
섹스
환경부
extr
당첨자
동그랗
평론가
게으
분장
이청
익명
할께요
BTS
RS
que
가변
밀폐
반팔
최영
힘겹
간결
군부
##심장
Serv
까페
번식
완치
우러
토록
##코니
마음가짐
레이더
웨이퍼
양키스
예보
##vey
history
##금리
doc
리빙
요동
##장구
207
conn
##ances
스미스
보청기
바랐
소희
열광
횡령
그리곤
후반부
네임
또렷
백수
수중
열악
해킹
##asing
저술
정용
팰리스
생크림
##마음
문화유산
독립운동
PH
가담
가솔
공로
스치
달라서
EBS
민석
싸웠
##레탄
##십시오
엘리자
사령관
동동
리메
여친
현저히
형용사
당원
로망
서두르
속해
티타
##ethyl
법리
연탄
오피
음모
제수
##계약
드려야
권하
트루
##치마
개량
근사
안락
영조
##미디어
stress
부담금
베이직
팔뚝
항복
보로
성상
식스
직진
##no
##요미
알아본
510
불면
얼핏
치렀
포화
노동부
DH
데크
이삿
전단
##벌이
무사고
estim
배불러
이삿짐
ratio
시발
엔젤
해낼
##연맹
감염병
중얼거리
고주
맥도
##이동
소시지
Sub
대관
멜라
인덱스
짝사랑
위안부
month
ETF
개폐
공명
로제
잠든
중형
##akes
희생자
파고들
conditions
소인
헬로
##네즈
현관문
척하
##MC
대사관
Pe
리즈
무어
병역
설날
##ilit
게티
##학자
좋아한다
전현무
hear
샤넬
정주
티어
폴라
##릴라
지낼
##아먹
금정
두들
스니
슬롯
판서
##기사
##ately
바라볼
가미
승마
시연
입꼬리
자루
패했
clinical
assess
김한
심했
이오
Thus
활성제
놓칠
벌인
저건
behavior
갈매
고춧가루
리뉴
승격
써니
연루
치워
그걸로
##yle
견뎌
##vity
cri
메리트
베베
피클
부사장
NBA
아뇨
울릉
누락
방화
쏠리
초이스
##수지
##킵니다
ther
기스
영아
아이보리
다가온
negative
라이온즈
대위
목장
##커버리
떨어뜨리
이뻐서
관상
전광
##national
반포
쉼터
획기
흥국
##당기
ang
처하
##보내
149
어때요
스노우
강구
대검
재량
지방산
twitter
★★★★
동북아
보병
쭉쭉
감자튀김
방정식
야겠다
준다면
피했
내려온
단검
조류
증서
천억
Char
pers
담자
상법
일찌감치
전립
##케이
기관지
독학
선인
약초
어벤
연다
자랐
##pose
##31
일조
파열
##커녕
만난다
소문난
고속도로
Ti
그물
기종
마모
불려
안부
엔드
잠정
태백
도매
영종
천상
추웠
212
재미없
Mor
국악
범퍼
히든
##시원
##epend
정규직
최우수
Analysis
놀랄
1973
산악
어드
##hn
eng
노년
웰빙
vi
바인
반항
이면
장교
지네
덜덜
방대
장담
##두기
여행사
ICT
처해
네이비
강동구
now
시금
흔들림
Class
뇌물
알록
이규
프랑스어
pt
까마
애틋
##ger
##예진
##무기
##enn
소재지
##ensity
weight
억제제
SSD
검술
그지
래스
소다
쭈욱
##창기
이다
한없이
##라면
##날드
##oles
유리창
Har
금고
달력
스퍼
울컥
원화
이의
##ames
1945
question
체어맨
근조
미숙
##카이
전자레인지
수영복
감도
스와
진수
헤아
##계동
effici
까다롭
장단점
버프
열망
토이
크라운
이글스
미카
##uts
##악산
트리트
##ergy
느려
대추
보아
부결
여타
하룻
중전
그리고나서
##ept
돼지갈비
민우
압류
##ss
들려주
보드게임
dim
밀봉
가솔린
구애
때렸
미분
해용
간절히
오케이
days
걸치
불문
서연
요요
공산당
빌보드
잭슨
정오
진압
탐정
에틸렌
suggest
AK
상원
아악
직종
##ats
initi
아리아
##촌동
원한다면
les
old
sequ
vers
답장
##위원
커피숍
첨가물
무제한
경희대
pattern
움찔
조미
챙길
올라서
##ography
동인
부응
캔디
틈틈
항원
Center
RT
꼼짝
시리아
액세서리
##otion
##란도
ref
production
용산구
Sim
느긋
빨개
안쓰
장터
질수록
##CH
##기구
##ogle
무너져
수없이
여길
##uation
청담동
AB
TE
section
응력
##hel
전원주택
찌푸리
울타리
자카
##링크
206
분자량
particular
이순신
HA
그랑
대타
완결
퍼펙트
##자재
물리치
사악
탈거
cir
애월
##ories
LPGA
수조
파헤
부드러워
NA
마자
싸늘
원점
잡혔
줄어드
Cu
스모
cultural
드레싱
##거림
강대
달했
동갑
막강
일컫
잇따라
제트
볼일
안토
연한
이장
채운
한판
##시대
1977
어우러져
계양
동대
오우
현존
##지대
##라이드
새로이
detail
지리산
발주
하구
해시
꼬집
로프
티볼
Model
갈리
사임
연필
알로에
More
link
엿볼
이희
생명력
유가족
끼어들
밀린
##지기
abs
클러치
거머
체코
침공
평형
드러난다
return
리온
송정
수트
열흘
카본
우크라이나
붙임
찾아간
##ficial
Jun
Val
끌리
제격
국민은행
늘어놓
광어
모비스
조교
##ais
방문객
걸어오
530
hyp
옆집
KO
TF
갸웃
막연
부제
지탱
방심
센티
취직
황급히
서울역
선교사
temper
Group
mechan
뾰족
야드
차체
충고
##bach
##43
256
유망주
반송
백두
유포
전생
한단
##아슬
미리미리
미성년
men
묘하
성기
소드
지영
##esting
할로윈
모낭
비지
요것
##ring
##부리
아슬아슬
구인
##블로
1975
example
박진영
빤히
요지
우라
인건
##UL
##연합
221
industry
business
given
담그
맞출
시조
유능
##바위
##utes
어지럽
DL
개강
농약
소심
옷차림
단층
피난
##깁니다
문제집
Uns
놓아
놨다
마물
여주인공
계셔서
끝없이
되풀이
##ta
##스코
로컬
##협회
나타낼
마누
엑센트
칠레
Study
이광수
검수
남미
데요
붙들
##글리
##irl
라이더
##ended
640
균등
판별
소리치
후계자
장타
##ML
아닐까요
해법
##아래
##오른
whe
담요
무스
증강
##ENT
vir
고함
넥스트
단련
벨기에
애리
폭염
살아왔
오차
장판
전락
##주니어
시간표
서강
수첩
공감대
감자탕
엑스포
건담
멈출
파동
##지마
##그마
반영구
양질
피카
러시
박기
풀렸
환산
##이나
##tration
include
깍두기
비참
시외
제제
콜드
호스트
163
Young
손수건
망하
세단
한림
확연히
##그룹
슈퍼주니어
##ancial
systems
빅토리아
don
데코
별미
성품
전념
##달록
알록달록
구워서
부케
유화
조롱
##중감
리자
부름
탈취
허구
participants
워즈
이비
그리구
##asc
electr
IF
군자
예절
##네임
##방송
##존중감
자아존중감
하룻밤
갈릭
곡식
재화
##oms
받아들였
찝찝
##사키
1972
SA
must
악수
의외로
DP
본드
여담
오너
임창
호실
161
인천시
오브젝트
배낭
불화
전라도
귀가
대창
바오
수작
은밀
자판
제언
표창
푹신
##신문
##oman
Develop
메커
식전
##let
##버니
War
머뭇
버틸
투성이
##ources
강물
돌아서
고마웠
배급
증기
##로이
알아듣
refl
테크노
응급실
부록
##onstr
무너졌
도톰
발령
투덜
판매자
response
깃발
정대
lo
tri
고루
꼭대기
대칭
젖병
##라기
끊임없
두리번
맹세
유죄
플래시
니아
원만
현수막
바이올린
윤아
이동하
어버이
적재
텃밭
포위
##고래
##스탄
##능력
무리뉴
꾸며져
안타까움
슬라이딩
원동력
남동생
더해
보온
전례
크라이
estab
##바라기
도식
아디
악역
툭툭
think
기본법
기사단
모나
일례
##골목
left
JS
고안
굴리
기수
다공
실명
장영
피겨
##by
경부
도루
무화
불상
이안
##추어
##ulf
코스트코
OLED
무비
그리스도인
금발
받들
섀도우
컨버터
##사이드
##aling
activities
꼬막
아리스
총알
클레이
##마당
##보우
조선인
전시관
수용성
톡톡히
225
오른발
타임스
합창
##CO
남짓
따돌
장차
마이크로
갑작스러운
Ni
신현
##투맨
1976
꼭꼭
레이크
사용량
전립선
SI
XX
강진
눈높이
##GE
##eting
유채
##젯밤
진행자
더라구여
Ev
대서
차익
팝콘
화두
화합
##87
##■■
기억력
means
KBL
구월동
메커니즘
Life
놓이
단열
도리어
둥지
토토
BO
라이스
보글
어젯밤
연남동
엽서
왕성
풀린
##래치
긴밀
입각
정신없
Lv
몰락
박힌
수차례
홍차
##ports
속내
위자
일실
직거래
##트랙
##병대
colon
유공
집무실
효성
가장자리
포토샵
줄기세포
놓쳤
맨투맨
보약
204
full
네비
우뚝
드래프트
껴안
독감
숄더
엎드려
왔으니
##the
##ying
##차기
알킬기
술잔
유스
페인
comb
선택지
출입구
Do
갖췄
닥치
유추
##ware
원주민
국기
신의
안건
펼쳐진다
성폭행
박주영
누웠
다발
동이
듀스
요트
커져
제조사
모스크바
DE
구문
모하
분별
신대
##티콘
사업체
LO
자며
조르
카를
편백
##uit
교도소
윤종신
퓨전
##무니
바라본다
요번
잡채
퇴행
##신저
엘레
##클리
##렐라
##ands
다이빙
나기
받쳐
소폭
카지노
##가치
어려서
봐야겠
아이러니
선한
헤라
179
의료비
들어온다
강점기
파스텔
오라버니
자택
칙칙
스타킹
매실
명장
악세
이서
존속
보인다고
프렌치
빠짐없이
인덕션
improve
BA
멜론
택지
어떤지
사라질
describ
스케이팅
수세
자차
often
167
국제공항
스크래치
potential
Red
드셨
브랜
사드
##DC
다이오드
KTX
650
LI
normal
쫀쫀
차인
##천역
super
Ser
Sur
매니아
상판
시마
젠더
##규어
나아갈
children
어긋나
target
건의
릴레이
매뉴
비고
서빙
후우
후술
##제이
경쟁자
도울
수완
주당
커진
택했
사업가
Abstract
GL
TA
방배
이문
칭하
토종
##어냈
##모어
넘어선
considered
스트라이크
임박
콧물
##나갔
제작자
Internet
스텔라
obtained
look
비수
오케스트라
깊숙이
QR
도봉
매거진
##irm
Up
best
가뭄
권역
발코니
변태
서경
재규어
줄리
중추
타코
international
##inese
Technology
가세
공과
씹히
잡아내
점진
##콜리
##갱이
##틸렌
301
param
노르웨이
고비
끝낸
왼발
육지
함의
##lation
등록증
오랫만
appear
대포
대담
선릉
step
국소
뛰쳐
##리시
##레오
나온다고
베이글
diagn
케이블카
인건비
다우
맡길
인장
트인
정확도
김태균
흘러나오
국문
오디
이동국
배고파서
뱃속
볼께요
해바라기
롯데월드
꺼려
남해
여행객
어울렸
PV
je
리퍼
향긋
##프레스
215
시금치
mass
잡티
조조
준답니다
펼친다
NR
Sam
빨강
엄정
파전
신용자
라비
북극
연유
지녔
Bu
망할
북경
##에스
213
갈증
논현동
민혁
요란
장지
탁구
효용
작성자
Contr
가운
딱지
미트
세여
신영
##hold
나눠서
넓히
스턴
싸인
이례
토탈
##85
냉동실
복싱
솟아
으음
청중
##석진
##버트
강지
시식
아날
에용
유예
자바
164
types
core
데님
드나
부흥
정예
커녕
tra
Cons
까만
등재
할게
##won
##에른
cancer
덮개
불렸
여간
작업자
methods
농림
시녀
안과
피리
##들여
알아주
무당
물놀이
사범
중산
올려다보
스크랩
망설임
불참
complex
가이드라인
sem
거동
매점
민규
반품
성신
잡음
어벤져
내추
아련
연차
인코
튀겨
달려오
interaction
갈비찜
매트릭스
employ
medium
오바마
WIN
발상
심야
설득력
가습기
나니
샌디
##문제
newsen
KC
막아
반겨
부랴
파편
혼돈
황소
후퇴
##chen
##FL
0000
마리나
##ATE
##ittle
푸르지오
럭키
버킷
혜리
Cre
균주
김범
단비
모텔
오동
인방
##CE
##acket
ess
메디컬
problem
Mon
코노
페퍼
##uter
##아찌
동물원
phot
배워야
유방암
매뉴얼
걸요
쏘울
잠옷
치른다
##대부
print
technology
HR
JYP
귀요미
시온
안목
통틀
##이면
수목원
멘토링
귓가
법관
졸리
항아리
지방세
문학상
부끄러워
분홍색
Open
베스
북스
수전
시댁
능력자
으신다면
Unsplash
떡갈비
알칼리
##chie
신도림
구획
들릴
박유
해선
게이밍
서신
유신
이긴
장남
레인보우
이경규
가이
공복
숭배
옐로우
인칭
존스
##당동
162
신용카드
임영웅
경감
다나
불사
신다는
카네
진실로
어설
유람
퍼졌
##크라
시간대
##ART
ebook
부총리
비어
왕위
뒤덮
병합
보령
전할
제모
최상위
##아치
망했
성모
직감
판도
폐업
전문직
169
끌어올리
계몽
이직
##여정
##병원
##cepted
du
복식
##조사
##VID
박정희
갈망
넘긴
빨갛
송구
황실
에스프레소
AND
내추럴
관내
부끄러운
출자
가벼워
Europ
유흥
착공
##nam
##시브
conducted
미즈
서핑
수법
으뜸
surface
마는
물방울
소풍
키웠
희소
##매도
##걸스
스트리트
귀여웠
소생
실록
중력
탄화
##바리
하여튼
국정원
내뿜
뒹굴
백과
유보
Then
가로수길
성매매
인출
템플
##wang
##루엔
##play
스위칭
management
라벤
오정
카세
##아보
아마추어
불면증
AFC
나아지
도적
리무진
샤인
요미
행적
Chinese
continu
일수
풍력
##레일
아이고
통신부
대주주
답글
바이어
이형
status
우승자
differences
낙동
되새
볼링
Non
STE
바질
##결승
##idge
provided
BS
거들
단번에
스윗
Method
말랑
배꼽
시퀀
약사
적법
온실가스
담아내
철분
혼잣
홀딩
##TO
가상현실
position
내전
모성
수선
요하
##inary
##uration
무술
에세이
충무로
비켜
속마음
원치
해상도
슬라이더
stim
성희
윤상
##세라
부러워
김대중
sample
헷갈리
초상화
만한
미주
엑셀
천황
하동
영양분
나뭇가지
계명
백악
시한
크레이
페스
외교부
TP
강습
거스
귀염
소신
신시
앙금
휴스턴
히터
##도어
파일럿
관악구
##통수
##바탕
theory
##ched
에러
자릿
##32
##ench
성장기
디스커버리
RA
미상
쐐기
약학
최성
수납장
approach
실매
##득이
일어난다
비키니
혼잣말
여진
퍼시
##바퀴
##망이
##그릇
##ectro
개업
걸으면
서프
애용
이범
캐스트
푸딩
##eed
입장권
##plications
Rob
mi
satisf
계발
구토
새싹
##ze
story
cho
against
겸비
쌈장
얼어붙
해맑
각광
넓혀
살린
해온
모른다고
원어
해했
short
##스토리
TR
ill
mix
순진
장내
천둥
키운
흐릿
1974
전염병
돌진
메트로
민생
##건대
바이에른
기내
다산
월등
음색
장현
한샘
##홍철
##틀랜드
곧이어
꽁꽁
리서
트렌디
스파이더
가창력
역전승
티볼리
great
는군
드신
민아
나뭇잎
ele
강간
라구요
숙취
안기
트롯
집행유예
respons
아날로그
고충
무표
미시
방충
불린다
실루
아폴
임팩트
해적
user
전주시
LE
간사
드롭
애호
연막
윤희
존엄
종단
##주의자
영성
지긋
##갈이
박찬호
스폰서
법상
변론
수락
저조
투영
##ocy
immun
소중히
볼펜
야근
##ling
안식
올린다
읍니다
자진
채울
country
악세사리
hom
hist
막바지
설령
전대
틀렸
여행기
오른다
Cal
mar
돌린
루머
영롱
##물질
172
want
몸짓
미들
패전
이상민
이케아
득표
레이드
리우
매스
비스트
##록시
프리랜
Studies
Off
국군
벨로
암모
온기
조원
티스
##쿠버
못한다는
야수
무더위
phen
방기
부쩍
염료
힌트
제물
차츰
혈중
##OA
##for
##대교
##레이트
유도체
신동엽
성함
용의자
기다림
기획사
국당
낙하
노렸
지검
space
가져다주
protein
take
리플
마니아
쾌락
several
어벤져스
맴돌
송금
야권
원재
인플
내륙
다쳤
사교육
성년
쉐프
초인
카인
판넬
어딘지
쏟아졌
프리랜서
결여
세끼
소실
파사
하객
한문
멤버십
컨트롤러
스니커
뒤통수
승패
유분
조장
최원
##노이
동반자
Cron
덩달
디렉
##루살
일본군
##istant
##루살렘
관용
난다고
실속
특권
1800
##tric
김규
난소
네놈
민심
밤중
빼내
##ient
##uel
##오래
##카와
다이나
경영학
하이드로
박원
졌으며
토르
##ultural
류승
전두
틀어
협찬
inst
가지런
MBN
포레스트
글감
둔화
역습
침수
##달콤
저소득층
걸스
못함
사카
참전
##복음
평가전
뮤지엄
유대인
Social
소명
찰리
칼칼
##재단
새겨진
psych
모친
번영
외할
주성
찰스
하강
흐음
##다이
##정리
못한다면
original
고파
논산
였었
오호
일탈
##UP
##41
창의력
잊어버리
better
들린다
백숙
탈의
##칩니다
energy
울프
유심
제각
하산
##하마
##티스
##라이어
##루지
308
##로그램
새콤달콤
Can
댕댕
보디
카일
##나래
##부랴
스타크
느껴져서
데려오
피로감
가액
굳건
낙관
초창기
최지
##ident
global
토너먼트
메카
산전
연꽃
중독자
예루살렘
##분투
오래오래
##aving
CV
광해
엿보
웃겨
프란
##체어
inhib
김시
담양
박동
주점
타올
터트리
##View
아름다웠
연습장
마이너
부적절
부랴부랴
매듭
먹음
미쓰
태종
##eti
Cont
기상청
리메이크
벗어났
은유
이크
##뱅이
presented
기전
김학
뜻대로
성큼
좌익수
무서워서
에이전
##ributed
갈지
박자
부팅
스탬
열처리
왕궁
커머스
##시계
선거구
세입자
생신
추행
필지
원재료
먹음직
솔라
여리
창설
청계
해준
##사업
##정우
##장치
##량체
Jung
걸러
문턱
앤디
지중
파급
해동
gener
구급
미수
##GM
TN
문정
스완
위엄
장이
stage
KA
Law
부류
잔혹
퍼플
품명
흠집
##랭이
##apter
##istance
소홀히
뒤편
로이
리처
콜롬
혜성
##오피스
챙겨서
명령어
가닥
고군
##승원
measured
매크로
발끝
성문
실온
야말로
치부
플렉스
##ii
프라이어
청주시
patient
유전체
##fessor
고이
급기야
닐슨
당혹
라켓
매경
묶여
약수
천호
칼리
한발
302
달라요
임대인
##ressed
공덕
글귀
도다
와이드
일당
##hr
##던지
반대쪽
정반대
고산
명언
박하
예문
유심히
급락
기와
다카
시애
인바
켈리
##ien
large
고은
두세
땡겨
러지
제육
They
custom
박테리아
선점
순하
연약
자선
조재
등록금
고령자
instit
익스프레스
women
유관
직권
하녀
히드
##변이
올인원
further
군집
말단
브레인
환전
##현역
##thers
회원국
interp
노블
지드
침전
##바삭
##urch
알아들
독일어
구청장
불러일으키
돌연변이
단무지
밀레
와요
휠체어
##스럽
게임즈
OF
Will
독려
만석
발의
성급
스톱
에탄올
콜린
##3가역
와이번
capital
샤이니
sil
간다면
산길
인센
편차
김종국
인센티브
Good
산점
윤허
침범
IMF
꿈틀
승기
점퍼
##anti
instr
171
요리사
Art
시퀀스
fem
매혹
변백
##pi
##mar
길가
##ache
소개팅
##opyrights
불순물
가혹
모스
무성
##PN
##날리
박스오피스
내정
두둥
##의정
214
정의당
스니커즈
loss
가다듬
김하
시구
아브라
운전석
cla
프린팅
마요네즈
Time
결별
대유
초원
흡족
##중기
##izing
바삭바삭
유희열
칸트
특파
##서구
##누스
##디스
##ules
##라이즈
조그마
강소
달한다
본론
출사
1100
이뤄질
실루엣
암흑
임성
포용
460
arr
tum
구직
밝기
본건
현주
무너진
몸살
문맥
제비
##imum
developed
Europe
도화
메신저
콤플렉스
피오
##월일
미나리
터트렸
시애틀
아치
##lin
법인세
Commun
동그란
휘둘렀
지날수록
Copyrights
air
근거리
누비
도도
보톡스
뻔뻔
중생
##민호
감정가
부상자
맥도날드
DR
도금
조심히
즉위
##공원
##ster
흘러내
신관
지팡이
향유
천주교
로라
키를
폭주
방법론
에드워드
정액
access
플랜트
특파원
감미
최승
원고료
사시미
고프
기뻤
이찬
트림
집안일
event
이룬다
자생
자명
enc
꿰뚫
다져
로웠
선데이
설리
관능
동질
의기
한스
스러워서
계세요
맞선
스즈
예기
찬사
탤런트
파나
##벨트
1968
still
맞닿
플립
##iat
소화기
출근길
##vised
기묘
디카
쏙쏙
유유
적외선
제곱
클라이
베어링
##hesis
편해요
multiple
society
다층
선동
최저가
최적화
final
ge
빈자리
어셈
인심
전임
편할
##키아
##막염
##aps
plan
테이크아웃
청룡
충당
##타자
possible
RC
불린
스가
양복
잠겨
##마침
어우러진
퍼스널
times
결핵
근간
데드
미남
아테
추경
카피
##성대
##민턴
##플로
흘러내리
Associ
루미
미약
예물
트립
팬데
##에어
부산대
아름다워
재정부
교단
마중
제갈
형체
##oper
구마
따를
발기
육박
탄식
해산
##럭스
지지대
넘어섰
클라라
표지판
categ
우루
찬란
##iam
화장대
기념관
인용구
스무디
CBS
RP
루틴
선뜻
##레븐
##터카
이모티콘
외계인
기특
꾸려
렌터카
복종
의제
이어받
경비원
samples
농어촌
산동
접해
사우나
공진
김건
상륙
직사
##패스
##andom
어셈블리
average
강당
난간
때마침
재빠
##39
사무총장
1969
allow
known
중견수
돌릴
모더
술술
위아래
지으
참모
##텔링
스토리텔링
무표정
공표
노령
명작
훔치
흐른
Ky
마가
특혜
팔짱
##vate
##만감
necess
프론트
동법
이타
초딩
레이싱
Design
갈매기
whether
경색
면책
원로
카프
칸막이
좋아했
고속도
Aut
유현
##라마
사진관
frequency
끼우
나치
나영
시즈
전전
##pm
##당겨
oC
궁중
불후
전한다
젓갈
처장
편도
##강정
미친다
early
##그래피
스트리밍
금일
줄였
특선
폭격
##미야
food
nuc
때론
마카오
망막
모둠
장바구니
준결승
##VER
발전기
서대문구
단락
모름
영덕
조짐
후진
사고력
emp
두유
비드
쉬웠
총기
홍합
##언스
CON
현미경
구구
나위
머그
변할
웨이트
##델피아
above
티타늄
돌풍
차등
펄스
아웃도어
수제비
Cronbach
MT
May
기행
단량체
둥이
못합니다
타르
##ump
다섯째
필라델피아
fail
내준
대군
무신
우익수
호프
교과목
강박
정찰
키나
탱탱
평탄
포진
context
급수
라세
불금
눈부신
Fre
건져
침몰
##ineering
알라딘
Top
공황
미워
청첩
##로로
##atively
adj
국세청
노숙
##ways
거주자
매달려
주유소
피츠버그
누굴
매끄럽
명가
민재
나와야
##rome
출발점
들려서
##och
temperature
방충망
보훈
을래
코앞
화원
##래곤
더라는
ppm
SSG
기약
뒤진
떨림
레코드
손녀
테스
##문트
술자리
##42
##DR
스피치
sep
감찰
고강
답례
띄우
상거래
청국
황사
##ift
follows
걸린다
무례
사본
석회
헤어진
##MP
##던트
달라진다
광주광역시
카운티
검거
스택
시판
언뜻
직결
235
배드민턴
싹싹
아모
악영향
의복
##fit
##문고
끌어내
##clusion
으라는
고주파
name
기말
레트
박형
상어
모은다
Development
마일리
우두
유량
플로리
효모
belie
반신
밥솥
촉발
##근무
##je
바지락
이만큼
대차
박소
어딨
전입
찻잔
티슈
편곡
해역
##핵화
##itch
이제서야
경쾌
함대
홍천
##전지
##브릭
##aker
보인다는
single
mM
박나래
발진
파프리카
허전
##ott
##gl
방어력
괴롭힘
자릿수
로울
우여
정거
한진
노동력
##annel
ESG
와이번스
light
태조
포상
##의지
너스레
노브
작은
조동
##ani
찾아올
거슬러
연초
최수
판시
헤딩
290
네이처
통계청
무거워
리서치
ul
발랐
토해
##금자리
밤하늘
보철
비엔
영천
재우
하교
##bon
##메인
무궁화
PK
꺼낸
나뉜
떨렸
선율
엉엉
장대
징후
찢어지
최경
##크론
다녀와
##ether
이태리
곰탕
꼽힌다
속한다
370
돌려서
성심
인먼
##티노
##보글
440
가전제품
보글보글
변백현
청첩장
might
▼▼▼
관청
비핵화
유배
자의
준거
픽스
어떠세요
초콜렛
커넥터
tion
계집
숙명
캐피탈
한들
2025
purpose
achie
라디
마칠
유서
허영
##hemical
아낌없이
경추
보성
인어
코튼
cat
겠다는
다독
민경
였으므로
자그마
쫓기
##UR
##uly
reve
좋아할
플라잉
테마파크
NY
kcal
가인
면발
변색
보금자리
시킵니다
유압
이근
처형
척척
##pro
동아일보
AFPB
대망
무패
민국
젊음
목욕탕
표고버섯
기밀
나이스
식후
조급
지만은
리모컨
Econom
가온
스칼
주현
##우먼
##eck
멋대로
벽걸이
서유
센싱
신가요
악의
풍자
##itation
##etry
United
기출문제
권선
명란
박살
석류
아역
정육
초라
회고
##스트림
작업실
돌이켜
였음을
opp
간대
인파
피싱
핀란드
##대장
친절히
고군분투
깨알
딸아이
레진
서바이
손익
신예
월남
처참
체부
토하
##해하
##udd
내다
명제
바가지
##뚜기
사랑니
480
reading
BI
까르
박서
범하
외신
희곡
##sequ
반가워
LPG
MRI
반감
사교
세율
용납
종대
캄보
가까웠
부호화
제동
헌재
금강산
require
태극기
bene
문답
일세
입상
폐렴
한하
##cin
##마차
##저래
Chris
전반전
화성시
AFPBBN
떠돌
통사
허경
##우트
##필드
##혜선
특별시
검지
끝판
비친
사뭇
흐려
##뜨릴
GTX
노니
루즈
바란
##셔야
reaction
1971
relig
media
eas
그로
내사
벤조
세속
시들
flu
DVD
월경
퇴치
##고속
페르난
KE
남주
친다
지나갈
##rix
갈비탕
뛰어가
php
출입문
Second
위자료
닌자
생화
응집
떠올라
잠수함
닭강정
무라
조속
##eign
##zz
##도록
255
뜨거워
우현
큐티
720
공채
됐었
봉사자
는데도
##views
아차
절박
##섬유
나타납니다
더해져
pf
뒤져
변위
행방
헤어졌
수요자
analyzed
병렬
신났
여아
원상
##다드
gt
꾸민
왔으며
최희
큽니다
탐욕
##rown
ADHD
부스터
승낙
어기
우먼
지음
##테인
티아라
새하얀
김강
라마
리턴
야스
##플러
##ones
##berg
이준석
adminis
둬야
사비
생후
악재
요괴
##97
한국은행
챙겨야
민족주의
기울였
입찰가
결산
리카
오목
작별
항문
##ony
행사장
놓친
시호
안중
이낙
조우
##ara
공손
노홍철
직물
줄줄이
Ye
내린다
사투리
삼켰
순례
진달
플레인
해짐
나이프
##fficient
FR
골밑
닉네임
석고
스탈
잠잠
칭호
토닥
황홀
성장세
청구인
끌려가
라벤더
대졸
방한
이우
컬투
알려준
수용체
적립금
거림
교인
보낸다
헝가리
##공간
어서요
새우튀김
이력서
findings
가실
벌어질
속속
여하
왕창
초심
AW
별점
보류
최현
혼수
황녀
##둥절
##터스
어리둥절
남동구
괴로워
마지
민수
웃겼
일면
##wan
##득점
머리칼
착용감
빌리지
곰곰
당도
표방
natural
직행
##not
concept
주의자
두려운
내민
액티브
연두
집게
천마
##중심
거주지
diffic
은평구
PGA
재인
##ilities
단체장
청소년기
score
기생충
pain
거인
냅니다
단조
예스
온다는
층간
전해질
낙인
느슨
도토리
접점
계약자
Information
##ibr
객관적으로
무작위
Getty
단양
도산
메트
엊그
예쁨
일몰
저질렀
##틀리
기름기
페이퍼
시내버스
간소
들썩
후임
##로지
##BL
거래처
LT
논증
니체
사체
송중기
재래
##가와
##포드
312
deg
상동
용선
shop
물어볼
안성맞춤
시드니
박희
박선
평정
혼다
##86
부가가치
정거장
셔터
영도
재치
##inter
start
용인시
여보세요
가부장
mut
기제
천문
효도
정우성
백악관
AFPBBNews
글래
무식
복근
정할
퍼프
해남
##irit
생리통
히드록시
감행
광기
무릇
승려
적료
찌꺼
카메
트릭
흔쾌
##프스
##테이
보상금
어지간
화살표
거행
큼지막
훈장
##uary
마리오
동성애
붕어빵
냐구요
롤링
문전
##무시
too
나이다
대구광역시
가중치
묻어나
소성
세정제
FT
헤지
다녀야
이래저래
region
##축구연맹
해부
넉넉히
거듭나
바닷물
당내
빗물
이한
물러서
찌꺼기
por
내놨
무이
불황
뾰루지
황궁
독서실
내딛
얽힌
탈색
한시
형평
계획서
지지자
전시장
슬로건
매표
자형
주공
체격
팬텀
화덕
아우르
브로콜리
세울
##다녔
##젤레스
##곡절
프롤로그
꿀꺽
냅다
로직
쇠고기
어조
골퍼
구스
변모
어루
펑펑
황산
올라섰
war
리츠
성역
수빈
열창
열중
옥션
전향
화나
##메스
##니언
##astic
뚝뚝
분만
송영
푸석
동호회
우여곡절
대패
쓰일
해집니다
##여진
올라와서
거쳐야
갖가지
왕후
의례
흩어져
181
통신망
다간
선방
어워드
육안
자갈
정일
추종
##off
##널드
##퉁이
##verse
scale
피크닉
Out
##ford
compon
independ
Work
론가
외야수
일깨
지유
페달
무시무시
Adv
학술지
correlation
미성년자
권익
오수
일선
##acity
괴로
넥타이
색칠
##클로
아까운
워낙에
##ICE
Black
생김새
Book
만회
박한
소영
인트
저온
끊기
들키
레어
야쿠
이프
초간
##lic
##양동
스트림
각이
임수
##ㅡㅡ
복합체
테크놀
center
엊그제
happ
델타
부침
케빈
호세
##드기
##스트로
폴리펩
##ateral
검단
깡패
맘껏
본식
진흙
타사
##슐린
maintain
고액
달까
생년
송강
아유
앞치마
펌핑
혜화
##리케
##타이드
낙동강
BP
let
고단
광물
미운
선상
선불
쳐들
##베이션
스트링
Act
지닌다
버려야
Since
xports
반말
양세
인슐린
참으
캔버스
##gu
##메이트
일본식
레이어드
수식어
원어민
xportsnews
850
say
나루
몰드
일과
캐스터
##리학
231
입주자
노원구
Choi
걸레
몰렸
적중
화석
173
살릴
서클
임야
팔레
해인
245
##adio
전반기
생겨났
도라지
끈질
민박
정태
조끼
찍힌
회개
##ney
자라나
뒤로
물자
반점
브라이언
완승
자위
1900
정형외과
부끄러움
공해
꺼리
동글
바실
사옥
악당
외전
##구름
어떠신
두드러지
승강장
레지스
시진핑
반입
산학
정훈
한국사
정보원
##레이크
Fin
담가
되물
레딧
막장
##her
제어기
충실히
군침
납작
누이
멋져
발포
수감
악한
알린
은수
젠틀
총력
대전광역시
필터링
조형물
아브라함
최형
탄압
##평동
리처드
경질
미연
열무
##aging
상하이
리얼리티
HG
gre
가용
건드
자성
정윤
enh
밝혀진
error
듀엣
레그
시속
지호
캐딜
포카
피쉬
##전력
##캐피탈
COVID
캐딜락
ve
고창
닫히
일격
타이트
튕겨
현빈
힘없이
문학사
다이노스
순응
에이드
치사
치를
투약
##나비
##구치
시킨다는
고품질
붙박이장
Dav
동공
사죄
지용
팩스
##난방
##etric
216
사령탑
퍼시픽
이낙연
ein
골치
숨진
네이마르
체인점
Aug
돌돌
무직자
복판
식생활
엄두
종인
총독
헌혈
1600
삼각형
흔쾌히
가래
끼니
눈꺼풀
중랑
칼륨
##시험
##둘기
##oud
toward
GC
나미
더웠
진천
진솔
차용
치료사
한계점
백설
장작
##ij
올라간다
강의실
부천시
According
pressure
격자
변질
불릴
원거리
중급
##야구장
##76
##joy
롯데마트
놔서
동자
벗기
스팸
책자
패브릭
another
전도성
Test
격파
금산
노량
번들
숲길
양가
오아
##rist
##상가
174
enter
스티브
house
괜한
그럭
뒤섞
리베
마도
손아
지나칠
만지작
MO
거처
망상
상온
악성
1965
한라산
심부름
big
숙면
티오
포만감
한혜진
황희
account
씨름
초장
##ges
AA
sex
경인
루마
멍멍
수프
인산
좌완
코리안
트롤
##공단
현대캐피탈
트래픽
보좌관
곰돌이
무얼
웍스
좌파
직렬
##서도
신문사
거시
경정
얼떨
우습
위조
장전
총수
팔자
##GT
연구실
1300
엘리자베스
서바이벌
Cam
Don
FS
니즘
송승
천식
화신
##ints
고뇌
쿼트
##게이션
신데렐라
UA
lik
선곡
열화
유창
##gy
##ano
결선
미비
미워하
순찰
코레
아이오
내비게이션
걸림돌
변속기
DO
il
겨자
노비
노총
신명
일쑤
총각
투사
후예
소개서
##irect
부드러움
괴로움
근저
수화
유시
이관
인맥
한예
##블랜드
신청자
거침없이
LNG
늦추
데카
뭉클
쌍꺼풀
착석
토출
##amin
최상급
NF
민준
안색
환수
노동당
movement
폴리펩티드
각본
살며시
자처
청렴
##go
##클린
돌아온다
개헌
망명
본가
산문
232
chos
클리블랜드
카멜
해봐야
이동식
##스타일
이정표
라던가
결석
동하
얌전히
절임
평평
아카이
갈라지
이뤄지지
로빈
모녀
유역
음란
재결
제지
챕터
쾌감
한산
홍석
화들
##개발
전자책
첨가제
박지민
##위원회
동신
바리스타
볼수록
총평
후딱
##어스
##저럭
자아낸다
달아나
정준영
다락
만찬
모란
브로드
원우
장아찌
종가
컵라면
##aut
##과이
카시트
KLPGA
캄보디아
화들짝
Coll
Her
nature
가발
꾸리
약식
카즈
##92
##BI
##ipp
optim
730
bb
qm
도피
1400
공급자
PSG
Post
개신
광저우
대청
상냥
착륙
##소타
star
핸드크림
펼쳐져
SPSS
거북목
사당역
경합
로딩
비게
뽑아내
수미
안젤
흠뻑
##폭력
##ecting
경영진
synt
내비쳤
윌리엄스
마일리지
공무
악장
유경
제라
타오르
터무니
판다
무기력
subjects
idx
오미크론
pc
동메달
러버
상측
에티
왕세
외무
##atter
신사동
아폴로
마담
발란
생맥
애절
푸틴
##누르
##즈음
저작물
튀어나온
애리조
스탬프
site
가두
내다보
막아내
메스
민첩
##set
##IST
182
##atives
퇴직금
tradition
Wind
다신
디펜
유키
특검
##코스
이노베이션
thought
kind
공문
김나
대게
안치
약침
예견
##nov
포장지
바꿔야
성수기
주영
타깃
튀기
피시
##냅니다
건설사
here
관제
무적
잉여
투척
##임금
##ffer
선거법
ke
그란
벼락
봉우리
어휴
접어
레이팅
watch
고사리
구전
봉고
유소년
장가
드릴까
안산시
에이전트
나만
불쑥
아득
오묘
쟁반
현예
##미드
project
제시카
수용자
오리엔
Att
Mac
RPG
녹이
누님
대도
더비
메우
수처
양고기
엘지
티코
행한
홍진
화창
흑자
##we
##QL
##테로
##쫄깃
무더운
TL
fund
맡겼
엄중
판소리
##데타
effective
하버드
관전
리나
매몰
벌여
북유럽
익힌
##진진
##영수
부여잡
feed
Phil
가람
두터
응하
페트
한솔
헬멧
줘야지
1948
내걸
바글
악어
유식
최준
기름진
구겨
다원
전처
피플
##리사
이루어
자연환경
가져갈
취득세
흥미진진
날아오
Results
미네소타
노광
뭉친
미움
영사
##따르
##틀러
참석자
unit
until
쫄깃쫄깃
그럭저럭
구약
급부
##ava
GDI
pm
산체
정명
##요리
##ica
샤워실
쇼크
수군
직위
최순
아이린
따라잡
online
감정평가
덧붙이
novel
남아공
proposed
HE
TT
source
김효
발췌
시네마
이요
차린
캐논
폐수
##스러운
진통제
called
꾸몄
낙서
야자
재팬
주물
황재
##RO
##mark
##모비스
추천인
가리킨다
mode
다죠
대물
사토
현대모비스
필수품
evolution
Ep
가와
다케
대의
모레
북방
서머
저걸
직책
질질
호구
##대입구역
305
불법행위
Sun
갯벌
빛났
태어날
##마루
##kin
##ened
adop
전투기
피스톤
사령부
감액
교향
단아
될수록
반했
서우
순영
에칭
증빙
폐단
block
1967
천안시
머스크
위스키
차후
호가
홀드
드로잉
과열
기흥
득실
불공
어혈
육류
이조
자서
춘추
콘센트
허기
훈제
함유량
Japanese
Global
조인성
UI
꾹꾹
발하
승지
짝꿍
차곡
취량
카디
퍼트
한겨
샤워기
jo
sal
sent
강태
교내
송혜
전소
치이
##레마
사무국
Management
슬퍼하
length
단과
미로
추방
해봐도
##치아
##만큼
##순환
10000
modern
물려받
괴수
루크
연평균
올립니다
주조
##ham
##aly
날아갔
구로구
다인
빨려
센타
엄선
중장
한탄
김영철
however
도경
엘라
위트
이룩
크다
이민호
physical
ir
문성
생사
자상
평지
##체육
##거스
독립성
다용도
성희롱
FL
건넨
경청
권총
망토
상계
심근
##gn
중국집
아테네
Of
매드
생동
위젯
전학
##르드
사회생활
보호막
##oney
우주선
클리닝
feel
applied
받침대
손꼽히
Case
기류
자락
##슬기
수익금
돋보였
##드려요
거니와
♡♡♡
dx
##tian
서프라이즈
institution
관원
무고
북서
서희
열등
음직
##콘서트
일어섰
Compar
CSR
가자
간병
라이터
마쓰
섞이
자장
304
인기가요
올려야
##elling
그려지
experi
OSEN
머스탱
Service
가주
급성
젤라
홍준
##구비
##짜기
SR
들으니
방석
shar
성동구
넓이
라파
채찍
##isting
안정환
프레스티지
Further
경리
수득
웰컴
입출
컨퍼런스
##돼지
달려왔
후반전
Although
오로라
단수
저력
##환자
##tif
강력히
Exp
맞물려
fram
tt
거액
도림
씁니다
씽크
좁혀
클램
183
RM
밋밋
뽀로로
유류
채점
비서관
basis
FOR
word
거둬
로선
실리카
증자
지랄
크러
힘써
##ya
##제국
가로등
아랑곳
체로키
circ
OH
순순
유학생
육신
페루
퓨처
##ru
##바스
##무휴
##슐리
phase
##ropri
무심코
연중무휴
다이나믹
950
교전
기입
내막
복호
텐션
##연수
consist
고야
까칠
루피
벌렸
부녀
비방
압수수
조커
차렸
향도
루카스
압수수색
산란
열혈
와라
퍼부
##본부
prob
신속히
last
까요
나우
들였
문래
혼잡
##스테르
수용액
540
Germ
살까
플라톤
평택시
demonstr
반가웠
influence
★★★★☆
깨진
반듯
심해서
어댑
휴직
##⠀⠀
store
##ocal
mmol
떠난다
broad
어댑터
남서
불소
이레
주술
제이슨
알파벳
지드래곤
BBC
도왔
발작
삭감
신답니다
쓰임
토벌
##치미
##트인
개인전
blood
근육통
